{
  "version": "1.0",
  "truncation": null,
  "padding": null,
  "added_tokens": [
    {
      "id": 0,
      "content": "[PAD]",
      "single_word": false,
      "lstrip": false,
      "rstrip": false,
      "normalized": false,
      "special": true
    },
    {
      "id": 1,
      "content": "[BOS]",
      "single_word": false,
      "lstrip": false,
      "rstrip": false,
      "normalized": false,
      "special": true
    },
    {
      "id": 2,
      "content": "[EOS]",
      "single_word": false,
      "lstrip": false,
      "rstrip": false,
      "normalized": false,
      "special": true
    }
  ],
  "normalizer": null,
  "pre_tokenizer": {
    "type": "ByteLevel",
    "add_prefix_space": false,
    "trim_offsets": true,
    "use_regex": true
  },
  "post_processor": null,
  "decoder": {
    "type": "ByteLevel",
    "add_prefix_space": true,
    "trim_offsets": true,
    "use_regex": true
  },
  "model": {
    "type": "BPE",
    "dropout": null,
    "unk_token": null,
    "continuing_subword_prefix": null,
    "end_of_word_suffix": null,
    "fuse_unk": false,
    "byte_fallback": false,
    "ignore_merges": false,
    "vocab": {
      "[PAD]": 0,
      "[BOS]": 1,
      "[EOS]": 2,
      "!": 3,
      "\"": 4,
      "'": 5,
      "(": 6,
      ")": 7,
      "*": 8,
      ",": 9,
      "-": 10,
      ".": 11,
      "0": 12,
      "1": 13,
      "2": 14,
      "3": 15,
      "4": 16,
      "5": 17,
      "6": 18,
      "7": 19,
      "8": 20,
      "9": 21,
      ":": 22,
      ";": 23,
      "?": 24,
      "A": 25,
      "C": 26,
      "D": 27,
      "E": 28,
      "F": 29,
      "I": 30,
      "J": 31,
      "L": 32,
      "M": 33,
      "N": 34,
      "S": 35,
      "V": 36,
      "X": 37,
      "Z": 38,
      "[": 39,
      "]": 40,
      "a": 41,
      "b": 42,
      "c": 43,
      "d": 44,
      "e": 45,
      "f": 46,
      "g": 47,
      "h": 48,
      "i": 49,
      "j": 50,
      "k": 51,
      "l": 52,
      "m": 53,
      "n": 54,
      "o": 55,
      "p": 56,
      "q": 57,
      "r": 58,
      "s": 59,
      "t": 60,
      "u": 61,
      "v": 62,
      "x": 63,
      "y": 64,
      "z": 65,
      "¡": 66,
      "¢": 67,
      "£": 68,
      "¤": 69,
      "¥": 70,
      "¦": 71,
      "§": 72,
      "¨": 73,
      "©": 74,
      "«": 75,
      "¬": 76,
      "®": 77,
      "¯": 78,
      "°": 79,
      "±": 80,
      "²": 81,
      "³": 82,
      "´": 83,
      "µ": 84,
      "¶": 85,
      "·": 86,
      "¸": 87,
      "¹": 88,
      "º": 89,
      "»": 90,
      "¼": 91,
      "½": 92,
      "¾": 93,
      "¿": 94,
      "Â": 95,
      "Ð": 96,
      "Ñ": 97,
      "â": 98,
      "Ċ": 99,
      "č": 100,
      "Ġ": 101,
      "Ģ": 102,
      "ģ": 103,
      "Ĥ": 104,
      "ĥ": 105,
      "Ħ": 106,
      "ħ": 107,
      "Ĩ": 108,
      "ĩ": 109,
      "Ī": 110,
      "ī": 111,
      "Ĭ": 112,
      "ĭ": 113,
      "Į": 114,
      "į": 115,
      "İ": 116,
      "ı": 117,
      "Ĳ": 118,
      "ĳ": 119,
      "Ĵ": 120,
      "ĵ": 121,
      "Ķ": 122,
      "ķ": 123,
      "ĸ": 124,
      "Ĺ": 125,
      "ĺ": 126,
      "Ļ": 127,
      "ļ": 128,
      "Ľ": 129,
      "ľ": 130,
      "Ŀ": 131,
      "ŀ": 132,
      "Ł": 133,
      "ł": 134,
      "Ń": 135,
      "ĠÐ": 136,
      "Ð¾": 137,
      "Ðµ": 138,
      "Ð°": 139,
      "ÑĤ": 140,
      "Ð¸": 141,
      "Ñģ": 142,
      "Ð»": 143,
      "Ð½": 144,
      "ÑĢ": 145,
      "Ð¾Ð": 146,
      "Ñĥ": 147,
      "Ð°Ð": 148,
      "ĠĠ": 149,
      "Ñı": 150,
      "ÑĮ": 151,
      "ÐµÐ": 152,
      "Ñĭ": 153,
      "ĠÑģ": 154,
      "ĠÐ¿": 155,
      "ĠÐ½": 156,
      "Ðº": 157,
      "ĠÐ²": 158,
      "Ñĩ": 159,
      "Ð²": 160,
      "čĊ": 161,
      "ĠÐ¾": 162,
      "Ð´": 163,
      "ÑĤÐ¾": 164,
      "ĠÐ¸": 165,
      "Ð¼": 166,
      "ÑģÑĤ": 167,
      "Ð°Ð»": 168,
      "ĠÐº": 169,
      "ĠÐ¼": 170,
      "ÑĪ": 171,
      "ÐµÑĢ": 172,
      "ÐµÐ½": 173,
      "âĢ": 174,
      "Ñħ": 175,
      "ĠÐ´": 176,
      "âĢĶ": 177,
      "ĠÐ±": 178,
      "³Ð¾": 179,
      "Âł": 180,
      "Ð¾Ð²": 181,
      "ĠĠĠĠ": 182,
      "Ð»Ð¸": 183,
      "Ð¾Ð¼": 184,
      "ÐµÑĤ": 185,
      "Ñİ": 186,
      "ĠÐ¿ÑĢ": 187,
      "ĠÑĤ": 188,
      "Ð°Ðº": 189,
      "ĠÑĩ": 190,
      "ÐµÐ»": 191,
      "ÑĤÑĮ": 192,
      "ĠÐ·": 193,
      "ĠÑĥ": 194,
      "Ð±": 195,
      "Ð½Ð¾": 196,
      "Ð¸Ð»": 197,
      "Ð¾Ð»": 198,
      "ĠÐµ": 199,
      "Ð¿": 200,
      "Ð¾Ð¹": 201,
      "Ð¾Ð´": 202,
      "ĠÐ½Ðµ": 203,
      "Ð°Ð·": 204,
      "Ð½Ð¸": 205,
      "Ð·": 206,
      "ÑģÑı": 207,
      "Ð¶": 208,
      "Ð¹": 209,
      "ĠÑĢ": 210,
      "ĠÐ½Ð°": 211,
      "Ð°Ð¼": 212,
      "ÑģÑĮ": 213,
      "Ð½Ð°": 214,
      "ĠÐ¿Ð¾": 215,
      "ÐµÐ¼": 216,
      "Ð½Ñĭ": 217,
      "ÐµÐ´": 218,
      "ĠÑ": 219,
      "Ð°Ð²": 220,
      "ĠÐ±Ñĭ": 221,
      "Ð³": 222,
      "ĠÐ»": 223,
      "Ð¸ÑĤ": 224,
      "Ñī": 225,
      "Ð¾ÑĢ": 226,
      "Ð½Ñĥ": 227,
      "ÑĨ": 228,
      "ĠčĊ": 229,
      "ĠÐ¾ÑĤ": 230,
      "Ð¾Ð³": 231,
      "Ð¾Ð±": 232,
      "ÑĢÐ°": 233,
      "ĠÑį": 234,
      "ĠÑĩÑĤÐ¾": 235,
      "Ð¾ÑĤ": 236,
      "Ð´Ð°": 237,
      "ĠĠĠĠĠčĊ": 238,
      "ÑģÐº": 239,
      "Ð¸Ð²": 240,
      "ĠÐ³": 241,
      "Ð¾Ð³Ð¾": 242,
      "ÐµÐ¹": 243,
      "Ð¸Ð¼": 244,
      "ĠÑı": 245,
      "Ð°Ð´": 246,
      "Ð¾Ðº": 247,
      "Ð³Ð¾": 248,
      "ÑĢÑĥ": 249,
      "Ð¸Ð½": 250,
      "Ð°Ñģ": 251,
      "Ð¾Ñģ": 252,
      "Ð¾Ð¶": 253,
      "Ġ-": 254,
      "ÐµÐ½Ð¸": 255,
      "ĠÑģÐº": 256,
      "ĠÐ¶": 257,
      "ĠÐ¾Ð½": 258,
      "Ð°ÑĤÑĮ": 259,
      "ĠÐ²Ñĭ": 260,
      "Ð°ÑĢ": 261,
      "Ð°Ñı": 262,
      "ÑĤÐ¾ÑĢ": 263,
      "ĠÐ¿ÑĢÐ¸": 264,
      "ĠÐºÐ°Ðº": 265,
      "ĠÐŀ": 266,
      "Ð½Ðµ": 267,
      "ĠÑģÑĤ": 268,
      "Ð²ÐµÑĢ": 269,
      "..": 270,
      "ĠÐµÐ³Ð¾": 271,
      "ÑģÑĤÐ²": 272,
      "ĠÐºÐ¾": 273,
      "ĠÑģÐ»": 274,
      "Ð¾Ð·": 275,
      "ÐºÐ¸": 276,
      "Ð°ÑĤ": 277,
      "ĠÐ¼Ð¸": 278,
      "ĠÐ¾Ð±": 279,
      "ĠÑĤÐ¾": 280,
      "ĠÐ±ÑĭÐ»": 281,
      "ÐµÐ²": 282,
      "ĠÑģÐ²": 283,
      "Ð°Ð·Ð°Ð»": 284,
      "ÑĥÐ´": 285,
      "Ð°Ð¹": 286,
      "Ð»Ñı": 287,
      "Ð°Ð½": 288,
      "ĠÐĿ": 289,
      "ĠÑħ": 290,
      "ÐºÐ°": 291,
      "ĠÑĤÐ°Ðº": 292,
      "ĠÑįÑĤ": 293,
      "ĠÐ²Ñģ": 294,
      "ÐµÐ±": 295,
      "ÐºÐ¾": 296,
      "ĠÐ¿Ð¾Ð´": 297,
      "ÐµÐ»ÑĮ": 298,
      "ÐµÐ·": 299,
      "ÐµÐ³Ð¾": 300,
      "ĠÐĳ": 301,
      "Ð¸Ð´": 302,
      "Ð¸ÑĤÑĮ": 303,
      "ĠÐ½Ð¸": 304,
      "ÐµÐº": 305,
      "ĠÐ¡": 306,
      "ÐµÑĩ": 307,
      "ĠÐ·Ð°": 308,
      "Ð¾Ð»ÑĮ": 309,
      "ĠÐ¸Ð·": 310,
      "ÑĪÐ¸": 311,
      "ĠÐŁ": 312,
      "ĠÐĴ": 313,
      "ĠÐ³Ð¾": 314,
      "ÑģÑĤÐµÑĢ": 315,
      "Ð»Ð°": 316,
      "Ð»ÑĮ": 317,
      "ÑĭÐ¹": 318,
      "ĠÑģÐºÐ°Ð·Ð°Ð»": 319,
      "Ð°Ð¶": 320,
      "Ð°Ð»Ð¸": 321,
      "ÑģÑĤÑĮ": 322,
      "Ð½Ñı": 323,
      "ĠÐ°": 324,
      "ĠÑĢÐ°Ð·": 325,
      "ĠÑįÑĤÐ¾": 326,
      "Ð¾Ð³Ð´Ð°": 327,
      "ÐµÑģ": 328,
      "ÐºÑĥ": 329,
      "ÐµÐ¿": 330,
      "Ð¾Ñĩ": 331,
      "ĠÐľ": 332,
      "ÐµÐ¶": 333,
      "ÐµÐ½ÑĮ": 334,
      "Ð½ÑĭÐ¹": 335,
      "Ð°Ð»Ð°": 336,
      "ĠÑĪ": 337,
      "ÐµÑĪ": 338,
      "ĠÑģÐ¿": 339,
      "ĠÐļ": 340,
      "ĠÐ¼Ð¸ÑģÑĤÐµÑĢ": 341,
      "Ð°Ð»ÑĮ": 342,
      "ĠÐ»Ð¸": 343,
      "ÐµÑģÑĤ": 344,
      "ÑĢÐ¸": 345,
      "ÑĥÐ¼": 346,
      "Ð»Ð¸Ð²ÐµÑĢ": 347,
      "ĠÐºÐ¾ÑĤÐ¾ÑĢ": 348,
      "ÑĥÑĩ": 349,
      "Ð½Ð¾Ð¹": 350,
      "Ð¾Ð¼Ñĥ": 351,
      "ÑģÐ»": 352,
      "Ð¾Ð¿": 353,
      "ÑĥÑĤ": 354,
      "Ð°Ð¼Ð¸": 355,
      "Ð¸Ð»Ð°": 356,
      "ĠÑģÐ²Ð¾": 357,
      "Ð¾Ð½": 358,
      "ĠÐŀÐ»Ð¸Ð²ÐµÑĢ": 359,
      "Ð½ÑĥÐ»": 360,
      "Ð½ÑĭÐ¼": 361,
      "Ð°Ð±": 362,
      "Ð¸Ñħ": 363,
      "ÐµÐ»Ð¸": 364,
      "ÑĢÑĥÐ³": 365,
      "Ð¾ÑģÑĤ": 366,
      "ÐµÐ½Ñı": 367,
      "ĠÐ²ÑģÐµ": 368,
      "ĠÐ¾Ð´": 369,
      "Ñį": 370,
      "ÑĩÐ¸": 371,
      "ÑĢÑĭ": 372,
      "ĠÐ¿ÐµÑĢ": 373,
      "ĠÐ¾ÑĤÐ²": 374,
      "Ð°Ð½Ð¸": 375,
      "ĠÐ¾Ð½Ð°": 376,
      "Ð´Ðµ": 377,
      "ÑīÐµ": 378,
      "Ð°Ð¿": 379,
      "ĠÐĶ": 380,
      "ÑıÑĤ": 381,
      "ÑĥÑĪ": 382,
      "ÑĥÐ¶": 383,
      "ĠÐµÐµ": 384,
      "Ð°Ð³": 385,
      "ÑģÐ»Ð¸": 386,
      "ĠÐ¯": 387,
      "Ð¾ÑĪ": 388,
      "Ð¾Ðµ": 389,
      "Ð½Ð¾Ð³Ð¾": 390,
      "ĠÐ¼Ð½Ðµ": 391,
      "Ð¾Ð²Ð¾ÑĢ": 392,
      "ĠÐ¼ÐµÐ½Ñı": 393,
      "ÑħÐ¾Ð´": 394,
      "Ð°ÐµÑĤ": 395,
      "ÑĪÐµ": 396,
      "ÐĿ": 397,
      "Ð°Ñİ": 398,
      "Ð¸Ñģ": 399,
      "ÑĤÐµ": 400,
      "ÑĢÐ¾Ñģ": 401,
      "Ð»Ð¾": 402,
      "Ð¸Ðµ": 403,
      "Ð¸Ð»Ð¸": 404,
      "ÐµÐ³": 405,
      "ĠÐ²Ð·": 406,
      "ĠâĢĶ": 407,
      "ĠÐ½Ð¾": 408,
      "ĠÐ±ÑĭÐ»Ð¾": 409,
      "ĠÐ¿Ð¾Ð»": 410,
      "ÑĥÑİ": 411,
      "...": 412,
      "Ð¼Ñĥ": 413,
      "Ð½ÑĭÐµ": 414,
      "ÐµÐ½Ð¸Ðµ": 415,
      "ĠÐ¶Ðµ": 416,
      "ĠÐ¢": 417,
      "ĠÑĢÑĥ": 418,
      "ĠÐ¿Ð¾Ðº": 419,
      "ÑĤÐ¾Ð±": 420,
      "ĠÐºÐ¾Ð³Ð´Ð°": 421,
      "Ð°Ð»ÑģÑı": 422,
      "ÑĭÐ²": 423,
      "ĠÐ±ÑĥÐ´": 424,
      "ĠÐ»Ñİ": 425,
      "Ð¸Ð·": 426,
      "ĠÑģÐ°Ð¼": 427,
      "Ð¸ÑĤÐµ": 428,
      "ĠÐ³Ð»": 429,
      "Ð¾ÑģÑĮ": 430,
      "ÑĤÐ¸": 431,
      "ĠÑĩÑĤÐ¾Ð±": 432,
      "ĠÐ³Ð¾Ð»": 433,
      "ĠÑĢÐ°Ñģ": 434,
      "ÐµÐ½Ð½Ð¾": 435,
      "Ð¸Ð»ÑģÑı": 436,
      "ÑĭÐ¼": 437,
      "ÑĭÐµ": 438,
      "ĠÐ§": 439,
      "ĠÑģÐ¼": 440,
      "ĠÐĲ": 441,
      "ÑĦ": 442,
      "Ð¶ÐµÐ½": 443,
      "ÑĢÐ°Ð²": 444,
      "ĠÐ´ÑĢÑĥÐ³": 445,
      "ĠÐ²Ð¸Ð´": 446,
      "ÐºÑģ": 447,
      "ĠÐ¾Ð½Ð¸": 448,
      "ĠÐµÐ¼Ñĥ": 449,
      "Ð¸ÑĤÐµÐ»ÑĮ": 450,
      "Ð»ÑĮÐºÐ¾": 451,
      "ÑĢÑı": 452,
      "ÑīÐ¸": 453,
      "ĠÐ½Ð°Ð´": 454,
      "ĠÐĵ": 455,
      "ĠÐĺ": 456,
      "ĠÐ¸Ñħ": 457,
      "ÐµÐ½Ð¸Ñı": 458,
      "ĠÐ·Ð½Ð°": 459,
      "ĠÐ²Ð¾": 460,
      "ÐºÐ¸Ð¹": 461,
      "Ð¼ÐµÐ½": 462,
      "ĠÐ¿Ð¾ÑĤ": 463,
      "ĠÑģÑĤÐ¾": 464,
      "ĠÐ¾ÑĤÐ²ÐµÑĤ": 465,
      "ĠÐ¼Ð¾": 466,
      "ÑģÑĤÐ¸": 467,
      "ĠÐµÑģÐ»Ð¸": 468,
      "Ð¾Ð²Ð°": 469,
      "ÑĢÐ¾": 470,
      "ĠÑĥÐ¶": 471,
      "ĠÐ¼Ñĭ": 472,
      "ÑĢÐµÐ¼": 473,
      "ĠÑĩÑĤÐ¾Ð±Ñĭ": 474,
      "ÑĥÐ¿": 475,
      "ĠÑĤÐ¾Ð»ÑĮÐºÐ¾": 476,
      "Ð½ÑĭÑħ": 477,
      "ĠÐ²Ð¾Ð·": 478,
      "ĠÐ´Ð²": 479,
      "ĠÐ¼Ð¾Ð³": 480,
      "ÑģÐ¿": 481,
      "Ð¡": 482,
      "ÑĭÑħ": 483,
      "ÐĴ": 484,
      "Ð±Ð»": 485,
      "ĠÐ¿ÑĢÐ¾": 486,
      "ĠÐºÑĢ": 487,
      "ĠÐ¼Ð¾Ð¶": 488,
      "ĠÑģÐµÐ±": 489,
      "ĠÐµÑīÐµ": 490,
      "ÑģÑĤÐ°Ð²": 491,
      "ĠÐ¿ÑĢÐµÐ´": 492,
      "Ð½Ð¸ÑĨ": 493,
      "ĠÐ´ÐµÐ»": 494,
      "ĠÐ±Ð¾Ð»ÑĮ": 495,
      "Ð°Ð»ÑĮÑĩÐ¸": 496,
      "ĠÐ¾Ñģ": 497,
      "ĠÐ¿Ð¾Ð²": 498,
      "ĠÐ¾Ð¿": 499,
      "ĠÐ¸Ð¼": 500,
      "ĠÐ¾Ñĩ": 501,
      "ÐµÑĤÐµ": 502,
      "âĢ¦": 503,
      "ÑĥÐ´ÑĮ": 504,
      "Ð½Ð¸Ð¼": 505,
      "ĠÐ²ÐµÑĢ": 506,
      "ÐµÐ¼Ñĥ": 507,
      "ÑĭÑĪ": 508,
      "ĠÐ¼Ð¾Ð»": 509,
      "ĠÐĳÐ°Ð¼": 510,
      "ĠÐ¤": 511,
      "Ð°Ñħ": 512,
      "Ðŀ": 513,
      "Ð½Ð°Ñı": 514,
      "ĠÑģÐ¾Ð±": 515,
      "ĠÑģÑĤÐ°ÑĢ": 516,
      "ĠÐºÐ¾Ð¼": 517,
      "ĠÐ¼Ð°Ð»ÑĮÑĩÐ¸": 518,
      "ÑĥÐ½": 519,
      "Ð´Ñĥ": 520,
      "Ð½Ð¾Ðµ": 521,
      "ĠÑĦ": 522,
      "Ð¶ÐµÐ½ÑĤ": 523,
      "ĠÐ´Ð¾Ð»": 524,
      "ĠÑĤÑĭ": 525,
      "ĠÐ³Ð¾Ð²Ð¾ÑĢ": 526,
      "Ð¶ÐµÐ½ÑĤÐ»ÑĮ": 527,
      "Ð¶ÐµÐ½ÑĤÐ»ÑĮÐ¼ÐµÐ½": 528,
      "ÐµÑĤÑģÑı": 529,
      "ĠÑĥÐ¼": 530,
      "ÐµÐ»Ð¾Ð²": 531,
      "ÑĢÐ°Ð·": 532,
      "Ð°Ð»Ð¾": 533,
      "ĠÐ´Ð¶ÐµÐ½ÑĤÐ»ÑĮÐ¼ÐµÐ½": 534,
      "ÐŁ": 535,
      "ĠÐ½ÐµÐ³Ð¾": 536,
      "ÑĩÐµ": 537,
      "ĠÐ´Ð¾Ð¼": 538,
      "Ð¸Ð¼Ð¸": 539,
      "ĠÑħÐ¾ÑĤ": 540,
      "Ð°Ð¹ÐºÑģ": 541,
      "ĠÐ²Ð°Ñģ": 542,
      "ĠÐ¿Ð¾ÑģÐ»": 543,
      "ĠÐĳÐ°Ð¼Ð±Ð»": 544,
      "ÑĩÐ°": 545,
      "ÐµÑħ": 546,
      "ÐµÐ´Ð¸": 547,
      "ÑĥÑģÑĤ": 548,
      "ĠÑģÐ¾": 549,
      "Ð½ÑĥÑĤ": 550,
      "ĠÐĿÐ¾": 551,
      "Ð¸Ñı": 552,
      "ĠÐ²Ð°Ð¼": 553,
      "ĠÐ³ÑĢ": 554,
      "ĠÐ¡Ð°Ð¹ÐºÑģ": 555,
      "Ð½Ð¾Ð¼": 556,
      "ĠÐ³Ð»Ð°Ð·": 557,
      "ÐµÐµ": 558,
      "ĠÐ´Ð»Ñı": 559,
      "ÑĪÐ¸ÑģÑĮ": 560,
      "ÑĥÐ´Ð°": 561,
      "Ð»Ñİ": 562,
      "Ð°ÑĪ": 563,
      "ĠÐ´Ð¾": 564,
      "ĠÑĩÐµÐ»Ð¾Ð²": 565,
      "ÐµÐ´Ð¶": 566,
      "ĠÑģÐ¿ÑĢÐ¾Ñģ": 567,
      "Ð»Ð¸Ð²": 568,
      "ÐºÐ¾Ð¹": 569,
      "ĠÐ±Ð»": 570,
      "ĠÐ·Ð°Ð¼": 571,
      "ÑĢÐ°ÑĤ": 572,
      "ĠÐ½Ð¸Ðº": 573,
      "ĠÐ¾Ðº": 574,
      "ÑĥÐ±": 575,
      "Ð²ÑĢ": 576,
      "Ðľ": 577,
      "ĠÐ¿Ð¾Ð¼": 578,
      "ĠÑĤÐµÐ±": 579,
      "ĠÐŀÐ½": 580,
      "Ġ(": 581,
      "ĠÑĩÐµÑĢ": 582,
      "ÐºÐ¾Ð¼": 583,
      "ĠÑĤÑĢ": 584,
      "ĠÑĨ": 585,
      "ÑĢÐ°Ñı": 586,
      "ĠÐ»ÑİÐ±": 587,
      "Ð¾ÑĤÑĢ": 588,
      "ĠÑĩÐµÐ»Ð¾Ð²ÐµÐº": 589,
      "ÐºÐµ": 590,
      "ĠÐ´Ð²ÐµÑĢ": 591,
      "Ð³Ð»Ñı": 592,
      "ĠÐł": 593,
      "ÑģÑģ": 594,
      "Ð´ÐµÐ»": 595,
      "ĠÑĩÐµÐ¼": 596,
      "Ð½Ð°Ðº": 597,
      "ÑĩÐ°Ð»": 598,
      "ĠÐ¸Ð»Ð¸": 599,
      "ĠÐ±ÐµÐ·": 600,
      "ÐµÑĤÑĮ": 601,
      "ĠÐ±ÑĭÑĤÑĮ": 602,
      "ĠÐ·Ð°Ðº": 603,
      "ĠÑĥÐ´": 604,
      "ĠÐ»Ð¸ÑĨ": 605,
      "ĠÐ¾ÑĩÐµÐ½ÑĮ": 606,
      "ÑĢÐ¾Ð´": 607,
      "ĠÐ¿Ð¾Ñģ": 608,
      "ĠÐ³Ð¾Ð»Ð¾Ð²": 609,
      "ĠÑģÐ»Ð¾Ð²": 610,
      "ĠÐ¤ÐµÐ´Ð¶": 611,
      "ÑıÑĤÑĮ": 612,
      "ĠÐ²ÑĢÐµÐ¼": 613,
      "ÑģÑĤÑĢ": 614,
      "ÐµÑĢÑĮ": 615,
      "ĠÐºÐ¾Ð¼Ð½Ð°": 616,
      "Ð½ÑĥÑİ": 617,
      "Ð§": 618,
      "ĠÐµÐ²ÑĢ": 619,
      "ĠÐ¼Ð¸ÑģÑģ": 620,
      "--": 621,
      "ĠÐ¼Ð¸Ð»": 622,
      "ĠÑĤÐµÐ¼": 623,
      "Ð±ÑĥÐ´ÑĮ": 624,
      "Ð½Ð¸Ð±ÑĥÐ´ÑĮ": 625,
      "ĠÐ¿ÑĢÐ°Ð²": 626,
      "Ð°ÑĤÑĮÑģÑı": 627,
      "ĠÑįÑĤÐ¾Ð³Ð¾": 628,
      "ĠÐĽ": 629,
      "ÐµÑĢÐ¶": 630,
      "ĠÐ½ÐµÑĤ": 631,
      "ÐµÑĪÑĮ": 632,
      "ĠÐ£": 633,
      "ĠÐ¼Ð¾Ð¹": 634,
      "Ð¼Ð¸": 635,
      "ĠÐ½Ð°Ñģ": 636,
      "ĠÐ±ÑĭÐ»Ð¸": 637,
      "ĠÐ´Ð¾Ð±": 638,
      "ĠÐ´ÐµÐ²": 639,
      "ĠÐ¾ÑĤÐ²ÐµÑĤÐ¸Ð»": 640,
      "ÐĶ": 641,
      "ÑĥÑħ": 642,
      "Ð°ÑıÑģÑĮ": 643,
      "ĠÑģÐ¾Ð²": 644,
      "ĠÐĿÐµ": 645,
      "ĠÐºÐ¾ÑĤÐ¾ÑĢÑĭÐ¹": 646,
      "ĠÐ¿Ð»": 647,
      "ĠÑĩÐ°Ñģ": 648,
      "ĠÐ²Ð¿": 649,
      "ĠÐ¶ÐµÐ½": 650,
      "ĠÐ±ÑĭÐ»Ð°": 651,
      "ĠÐķ": 652,
      "Ð¸Ð¹": 653,
      "Ð°Ð»Ð¸ÑģÑĮ": 654,
      "ĠÐŀÐ»Ð¸Ð²ÐµÑĢÐ°": 655,
      "Ð´ÐµÑģÑĮ": 656,
      "ĠÐ¿Ð¾Ñĩ": 657,
      "Ð¾Ð»ÑĮÐºÐ¾": 658,
      "ĠÑģÐ¿ÑĢÐ¾ÑģÐ¸Ð»": 659,
      "ÐµÐ»Ð°": 660,
      "Ð½ÑĥÐ»Ð°": 661,
      "ÑĥÑĢ": 662,
      "ĠÐ½Ð°Ð¿": 663,
      "Ðļ": 664,
      "Ð²Ð¸": 665,
      "ĠÐ¾ÑģÑĤ": 666,
      "ÑĢÐ°Ñģ": 667,
      "ÑĩÐµÐ³Ð¾": 668,
      "ÑĨÐµ": 669,
      "Ð¸ÑĤÑĮÑģÑı": 670,
      "ÐµÑĢÐ´": 671,
      "ÑģÑĤÐ²Ð¾": 672,
      "ĠÐĹ": 673,
      "ĠÐ¼Ð¾Ð»Ð¾Ð´": 674,
      "ŃÑĤÐ¾": 675,
      "ĠÐ½ÐµÐ¼": 676,
      "Ð¾Ð½Ðµ": 677,
      "Ð°Ð½Ð¸Ðµ": 678,
      "ÑıÐ²": 679,
      "ÐºÐ¾Ð²": 680,
      "Ð½ÑĥÐ²": 681,
      "ĠÐ¼Ð¸ÑģÑģÐ¸Ñģ": 682,
      "Ð°ÑĨ": 683,
      "ĠÐ¤ÐµÐ´Ð¶Ð¸Ð½": 684,
      "ĠÑģÑĤÑĢÐ°": 685,
      "Ð°ÑİÑĤ": 686,
      "ĠÐ³Ð´Ðµ": 687,
      "ĠÑģÐ´ÐµÐ»": 688,
      "Ð°Ð½Ð¸Ñı": 689,
      "ÑĤÐ°": 690,
      "ĠÑģÐ»ÑĥÑĩ": 691,
      "Ð°Ð¹ÑĤÐµ": 692,
      "ÑĬ": 693,
      "ÑĮÑİ": 694,
      "ÑĩÐ½Ð¾": 695,
      "ĠÐ¼Ð¾Ð¶ÐµÑĤ": 696,
      "ĠÑĤÐ¾ÑĤ": 697,
      "ĠÑģÐµÐ±Ñı": 698,
      "ĠÐ»ÐµÐ´Ð¸": 699,
      "ÐµÐ¿ÐµÑĢÑĮ": 700,
      "Ð¸Ð»Ð°ÑģÑĮ": 701,
      "Ð¸ÑĤÐµÐ»ÑĮÐ½Ð¾": 702,
      "ĠÐµÐ²ÑĢÐµÐ¹": 703,
      "ÑĥÐ²": 704,
      "Ð½ÑĥÐ»ÑģÑı": 705,
      "ÑĨÐ°": 706,
      "ĠÐ½Ð¸Ð¼": 707,
      "ĠÐ´Ð¾Ðº": 708,
      "ÑıÐ»": 709,
      "ĠÐ·Ð´ÐµÑģÑĮ": 710,
      "ĠÑģÐºÐ°Ð·Ð°Ð»Ð°": 711,
      "ÑĤÑĥ": 712,
      "ĠÐºÐ°ÑĢ": 713,
      "ĠÑĥÑĤ": 714,
      "ĠÐ´Ð¾ÑĢ": 715,
      "Ð¾ÑģÑĤÐ¸": 716,
      "ĠÐ»ÑİÐ´": 717,
      "ÑĢÐ¾Ð²": 718,
      "ĠÐ±Ð¾Ð»": 719,
      "ĠÐĶÐ°": 720,
      "Ðķ": 721,
      "ĠÐ¿ÑĢÐ¸Ð²": 722,
      "ĠÑģÐ½": 723,
      "ĠÐ²Ð·Ð³Ð»Ñı": 724,
      "ÐºÐ½ÑĥÐ»": 725,
      "ÑĤÑĮÑģÑı": 726,
      "ĠÐ·Ð°Ð¿": 727,
      "Ð½ÑĭÐ¼Ð¸": 728,
      "ĠÐ²Ð¾ÑģÐº": 729,
      "ĠÐ¿ÑĢÐ¾Ð´": 730,
      "ĠÑįÑĤÐ¾Ð¼": 731,
      "ĠÐ´ÐµÐ²ÑĥÑĪ": 732,
      "ÑĤÐ¾Ð²": 733,
      "ĠÐ¿Ð¾Ð·": 734,
      "Ð¼Ð¾ÑĤÑĢ": 735,
      "Ð¸ÑĤÑģÑı": 736,
      "Ð°ÑĤÐµÐ»ÑĮ": 737,
      "ÑĪÐ¸Ð¹": 738,
      "ĠÐ½Ð°Ð·": 739,
      "ÑĪÐµÐ»": 740,
      "ĠÐ·Ð°Ð±": 741,
      "ÑģÑĤÐ²ÐµÐ½": 742,
      "Ð°Ð»Ð°ÑģÑĮ": 743,
      "Ð¢": 744,
      "ĠÐ±ÐµÑģ": 745,
      "ĠÐ·Ð°Ð²": 746,
      "Ð°Ð·Ð°ÑĤÑĮ": 747,
      "ÑĥÑģ": 748,
      "ÑĥÐ³": 749,
      "Ð¼Ð°": 750,
      "ÑİÑĤ": 751,
      "Ð¸Ð»Ð¸ÑģÑĮ": 752,
      "Ð¯": 753,
      "Ð¸Ð½Ð°": 754,
      "ÑįÑĢ": 755,
      "ÐµÑĨ": 756,
      "ÑĢÐ°Ð¶": 757,
      "ÑģÑĤÑĮÑİ": 758,
      "Ð¸Ðº": 759,
      "ĠÐ¶Ð¸Ð·": 760,
      "ĠÐ¼Ð¸Ð½ÑĥÑĤ": 761,
      "ĠÑģÐµÐ±Ðµ": 762,
      "ĠÑģÑįÑĢ": 763,
      "Ð¾Ð»Ð¶": 764,
      "Ð»ÐµÐ½": 765,
      "ĠÐºÑĤÐ¾": 766,
      "ĠÑĥÐ¿": 767,
      "!..": 768,
      "ĠÐļÐ°Ðº": 769,
      "ÐµÐ½Ð¸ÐµÐ¼": 770,
      "ÑģÐ¸": 771,
      "ĠÐ¼Ð°Ð»": 772,
      "ĠÐ¿ÑĢÐ¸Ð½": 773,
      "ĠÐµÐ¹": 774,
      "ÑĥÐ»": 775,
      "ÐµÑī": 776,
      "ÑĭÑĤ": 777,
      "ĠÐ½Ð°Ðº": 778,
      "ĠÐ¸ÑģÐ¿": 779,
      "ĠÑĥÐ²": 780,
      "Ð»Ð¸ÑģÑĮ": 781,
      "ĠÑĤÐ¾Ð¼": 782,
      "Ð¶Ðµ": 783,
      "ĠÑģÑĤÐ°": 784,
      "Ð°Ð¶Ðµ": 785,
      "ÐµÑĢÐ¸": 786,
      "ĠÐºÐ¾ÑĤÐ¾ÑĢÑĭÐµ": 787,
      "ĠÐ¿ÐµÑĢÐµÐ´": 788,
      "ĠÐ±ÑĥÐ´ÐµÑĤ": 789,
      "ĠÑģÐ¸Ð´": 790,
      "ĠÐ½Ð¾Ñĩ": 791,
      "ĠÐ´Ð°": 792,
      "ÑģÑĤÐ²Ð¾Ð²": 793,
      "ĠÐ§ÑĤÐ¾": 794,
      "Ð°ÑĨÐºÐ¸Ð¹": 795,
      "ĠÑģÐµÑĢÐ´": 796,
      "Ð½Ð¸Ðº": 797,
      "ÑģÑĤÐ²Ð°": 798,
      "ĠÐ³Ð¾Ð»Ð¾Ñģ": 799,
      "ĠÑĥÐ¶Ðµ": 800,
      "Ġ\"": 801,
      "ĠÑĥÐ³": 802,
      "ĠÐºÐ¾Ð½": 803,
      "ĠÐ¿Ð¾ÑĤÐ¾Ð¼Ñĥ": 804,
      "ĠÐ²Ð¾ÑģÐºÐ»Ð¸": 805,
      "ĠÐ¿Ð¾Ð¿": 806,
      "ĠÐ»ÑĥÑĩ": 807,
      "ĠÐ¾Ð´Ð¸Ð½": 808,
      "ĠÐ¿Ð¾ÐºÐ°": 809,
      "ĠÐ´Ð¾ÑĢÐ¾Ð³": 810,
      "Ð»Ð°Ð´": 811,
      "ĠÑĤÐµÐ¿ÐµÑĢÑĮ": 812,
      "Ð¸Ð»Ð¾ÑģÑĮ": 813,
      "ĠÑįÑĤÐ¾ÑĤ": 814,
      "ÐĲ": 815,
      "Ðĺ": 816,
      "ÑĢÐ¾Ð¼": 817,
      "ĠÐ½ÐµÐ´": 818,
      "ĠÐ±ÑĥÐ´ÑĤÐ¾": 819,
      "ĠÐºÐ¾Ð»": 820,
      "Ð½Ð¾ÑģÑĤÐ¸": 821,
      "ÑĢÐ°Ñī": 822,
      "Ð½Ð¾Ð²": 823,
      "ĠÐ¿ÑĢÐ¾ÑĤ": 824,
      "ÑĢÑĥÑĪ": 825,
      "ĠÐ³Ð»Ð°Ð·Ð°": 826,
      "Ð»Ñģ": 827,
      "ÑĪÑĮ": 828,
      "Ð²Ð°ÑĤ": 829,
      "ÑģÑĤÑĥÐ¿": 830,
      "ĠÑĥÐ±": 831,
      "ĠÐ½ÐµÑģÐº": 832,
      "ĠÐ½Ð¸ÑĩÐµÐ³Ð¾": 833,
      "ĠÑĢÑĥÐºÑĥ": 834,
      "ÑĮÑı": 835,
      "ĠÐ´ÑĥÐ¼": 836,
      "ĠÑĥÐ·": 837,
      "Ð°Ð½Ð¾Ð²": 838,
      "ĠÐ²ÑĢÐµÐ¼Ñı": 839,
      "Ð¸Ñĩ": 840,
      "ĠÐºÐ°Ð¶": 841,
      "ĠÐµÑģÑĤÑĮ": 842,
      "ĠÐĴÑĭ": 843,
      "ĠÐ³Ð¾ÑĢ": 844,
      "ĠÐ±Ð¾Ð»ÑĮÑĪÐµ": 845,
      "ĠÑģÐ½Ð¾Ð²Ð°": 846,
      "Ð¾ÑĦ": 847,
      "ĠÑģÑĤÐ¾ÑĢ": 848,
      "ĠÐ¿ÑĢÐ¾Ð´Ð¾Ð»Ð¶": 849,
      "ĠÑĤÐ¾Ð³Ð¾": 850,
      "ÑĢÐ°ÑĥÐ½": 851,
      "ĠÐºÐ¾ÑĤÐ¾": 852,
      "Ð¸ÑĢ": 853,
      "ÑıÐ·": 854,
      "ĠÑĤÐ¾Ð»": 855,
      "ĠÐĳÑĢÐ°ÑĥÐ½": 856,
      "Ð»Ð¾Ñĥ": 857,
      "ĠÐĳÑĢÐ°ÑĥÐ½Ð»Ð¾Ñĥ": 858,
      "ÑģÐµ": 859,
      "ĠÐ²Ð¾ÑĤ": 860,
      "ĠÐ·Ð°Ð´": 861,
      "ĠÑĤÐµÐ±Ñı": 862,
      "ĠÐ¿Ð¾Ð¶": 863,
      "Ð¸Ð²Ð°Ñı": 864,
      "ĠÑįÑĤÐ¸": 865,
      "Ðĵ": 866,
      "ĠÐ½Ð°Ð¼": 867,
      "ĠÐ¾ÑĤÐº": 868,
      "ĠÐ½Ð¸Ñħ": 869,
      "Â«": 870,
      "Â»": 871,
      "ĠÐ´Ð°Ð¶Ðµ": 872,
      "ĠÑĥÐº": 873,
      "Ð¾Ð¶Ðµ": 874,
      "ÐµÐ½Ð¸Ð¸": 875,
      "Ð»Ðµ": 876,
      "ĠÐ²Ð°ÑĪ": 877,
      "?..": 878,
      "Ð½ÐµÐ¹": 879,
      "ĠÑĢÐ°Ð´": 880,
      "ÑįÐ½": 881,
      "ÑĢÑĭÐ²": 882,
      "Ð¾Ñħ": 883,
      "Ð»Ñĭ": 884,
      "ÐµÑģÑı": 885,
      "ĠÐ²Ð¾Ñģ": 886,
      "Ð¸Ð³": 887,
      "ÑĩÐ°Ñģ": 888,
      "Ð²Ð¾": 889,
      "ĠÐ±ÐµÐ´": 890,
      "Ð¾ÑĢÐ¾ÑĪ": 891,
      "ĠÐ´ÐµÐ½ÑĮ": 892,
      "ĠÑĥÐ»Ð¸": 893,
      "ĠÐ²Ð·Ð³Ð»ÑıÐ´": 894,
      "ĠÐºÐ¾ÑĢ": 895,
      "Ð¸Ð»ÑĮ": 896,
      "Ð½ÐµÐµ": 897,
      "ĠÑģÐ»ÐµÐ´": 898,
      "ÑĪÐ¸Ñħ": 899,
      "Ð°Ð³Ð¾": 900,
      "ÐµÐ»Ð¾": 901,
      "ÐĽ": 902,
      "ĠÂ«": 903,
      "ÑĤÑĭ": 904,
      "ĠÐ½Ð¾Ð³": 905,
      "ÑĩÐ¸ÑĤ": 906,
      "Ð¿Ð¾Ð»": 907,
      "ĠÐ²Ð¾Ð»": 908,
      "ĠÐ¾ÑĤÐ²ÐµÑĩ": 909,
      "Ð½Ñİ": 910,
      "ĠÐ½ÐµÐ²": 911,
      "ĠÐ½ÐµÐ¿": 912,
      "ĠÐºÑĢÐ¸": 913,
      "ĠÐłÐ¾Ð·": 914,
      "Ð½Ð°ÐºÐ¾Ð¼": 915,
      "Ð¸Ð¸": 916,
      "ĠÐ±ÑĢÐ¾Ñģ": 917,
      "ĠÐ²ÑģÐµÑħ": 918,
      "Ð¾Ð½ÐµÑĨ": 919,
      "ÑĥÑģÐº": 920,
      "ĠÐ²Ðµ": 921,
      "ĠÐ²ÐµÐ»Ð¸": 922,
      "Ð¾Ð²Ð¾Ð»ÑĮ": 923,
      "Ð±Ð¾": 924,
      "ĠÐ´Ð²ÐµÑĢÑĮ": 925,
      "Ð°Ñĩ": 926,
      "ĠÐ²Ð´": 927,
      "ĠÐ¾ÑĤÐ¿": 928,
      "Ð½ÑĮ": 929,
      "ĠÐ¼ÐµÑģÑĤ": 930,
      "Ð½Ð¸Ðµ": 931,
      "ĠÑĢÐµÑĪ": 932,
      "ĠÐºÐ½Ñı": 933,
      "ĠÑĤÑĢÑĥ": 934,
      "ĠÐĴÐ¾ÑĤ": 935,
      "ĠÐ¿ÑĢÐ¾Ñģ": 936,
      "ĠÐ´Ð¾Ð»Ð¶": 937,
      "ĠÐ¥": 938,
      "ÑĢÑĥÐ¶": 939,
      "ĠÐŀÐ½Ð°": 940,
      "Ð°Ð±Ð¾ÑĤ": 941,
      "ĠÑĤÐµÐ±Ðµ": 942,
      "ÐµÑİ": 943,
      "ĠÑĩÑĥÐ²": 944,
      "ĠÐ·Ð°ÑĤ": 945,
      "Ð§Ð°ÑĨÐºÐ¸Ð¹": 946,
      "ĠÐ´ÐµÐ²ÑĥÑĪÐºÐ°": 947,
      "ÑĭÑĩ": 948,
      "ÐµÑĢÑĤ": 949,
      "ÐµÑĤÐ¸Ð»": 950,
      "ĠÐ²Ð·Ð´": 951,
      "ĠÐ¼Ð°Ð»ÑĮÑĩÐ¸Ðº": 952,
      "Ð°Ð»Ð¾ÑģÑĮ": 953,
      "ĠÐ¿Ð¾ÑģÐ»Ðµ": 954,
      "ĠÐ¿ÑĢÐ¸ÑħÐ¾Ð´": 955,
      "ĠÐ²ÐµÑĩ": 956,
      "ÑģÑĤÑĢÐ¾": 957,
      "ÐµÑĤÐ°": 958,
      "ĠÐ½ÐµÐµ": 959,
      "ĠÐ¶ÐµÐ»": 960,
      "ĠÐ¿ÐµÑĢÐ²": 961,
      "ĠÑĢÑĥÐºÐ¸": 962,
      "ĠÐ¼Ð°Ð»ÐµÐ½ÑĮ": 963,
      "ĠÐ²Ð¾ÑĢ": 964,
      "ĠÐ´Ð¾ÑģÑĤ": 965,
      "ĠÑģÐºÐ°Ð·Ð°ÑĤÑĮ": 966,
      "ĠÐĶÐ¶": 967,
      "ÐµÑĤÑĭ": 968,
      "ĠÐ¿ÑĢÐ¾ÑĪ": 969,
      "ĠÑģÐ»Ð¾Ð²Ð°": 970,
      "ÑĩÐ°ÑģÑĤ": 971,
      "ÐµÐ½Ð½ÑĭÐ¹": 972,
      "Ð¾Ð½ÐºÑģ": 973,
      "ÑĩÐµÑģÐº": 974,
      "Ð¾ÐºÐ¾Ð¹": 975,
      "ĠÑįÑĤÐ¾Ð¹": 976,
      "ĠÑģÐ²Ð¾ÐµÐ¹": 977,
      "ĠÐŃÑĤÐ¾": 978,
      "ĠÑĤÐ°Ð¼": 979,
      "ĠÑĥÑģ": 980,
      "Ð½Ð¾ÑģÑĤÑĮ": 981,
      "ĠÑĤÐ°ÐºÐ¾Ð¹": 982,
      "ĠÐ½ÐµÑģÐºÐ¾Ð»ÑĮÐºÐ¾": 983,
      "Ð¸ÑģÑĤÐµÑĢ": 984,
      "Ð»ÑĥÑĤ": 985,
      "ÑıÑģÑĮ": 986,
      "ĠÑĢÐ°": 987,
      "Ð¾Ð·Ð²": 988,
      "ĠÐ¿Ð¾ÑģÐ»ÐµÐ´": 989,
      "ĠÐ¼ÑĥÐ¶": 990,
      "ĠÐ¿Ð¾ÑĢ": 991,
      "ĠÐ¿Ð¾Ð±": 992,
      "ÑĪÐµÐ³Ð¾": 993,
      "Ð°ÐµÑĤÑģÑı": 994,
      "ĠÐ·Ð½Ð°Ñİ": 995,
      "----": 996,
      "ĠÐ´Ð¾ÐºÑĤÐ¾ÑĢ": 997,
      "ÐµÑģÑĤÑĮ": 998,
      "Ð²Ð°": 999,
      "ĠÑĥÑģÐ»": 1000,
      "ĠÐ¿ÑĢÐ¸Ð·": 1001,
      "ÐµÐ³Ð¾Ð´": 1002,
      "ĠÑİ": 1003,
      "ÑĥÑĤÑĮ": 1004,
      "ĠÐ·Ð°Ñģ": 1005,
      "Ð½ÑĥÑĤÑĮ": 1006,
      "ĠÐºÐ°ÐºÐ¾Ð¹": 1007,
      "ĠÐ³Ð¾Ð»Ð¾Ð²Ñĥ": 1008,
      "ÑĤÐµÑĢ": 1009,
      "Ð¾Ð¹Ð´": 1010,
      "Ð¸Ð²ÑĪÐ¸ÑģÑĮ": 1011,
      "ĠÐ¿ÑĢÐ¸Ð´": 1012,
      "ĠÐ¼Ð¸ÑģÑĤÐµÑĢÐ°": 1013,
      "ĠÐ±Ð¾Ð»ÐµÐµ": 1014,
      "ĠÐ¾ÑģÑĤÐ°Ð²": 1015,
      "ÑħÐ²Ð°ÑĤ": 1016,
      "ĠÐ³ÑĢÑĥ": 1017,
      "ÑĪÐµÐ¹": 1018,
      "ÑİÐ´Ð°": 1019,
      "Ð¸Ð»Ð¾": 1020,
      "ĠÐµÐ´": 1021,
      "ĠÐĿÐ°": 1022,
      "ĠÐŁÐ»ÑĥÑĤ": 1023,
      "ĠÐľÐ¾Ð½ÐºÑģ": 1024,
      "ÐµÐ¶Ð´Ñĥ": 1025,
      "ĠÐ»Ð¸ÑĨÐ¾": 1026,
      "ÑĢÐ°Ð´": 1027,
      "ÐµÑĢÐµÐ´": 1028,
      "Ð·Ð¸": 1029,
      "ĠÑģÐ»ÑĭÑĪ": 1030,
      "ĠÐĿÐ¾Ñį": 1031,
      "ĠÐ¶ÐµÐ½ÑīÐ¸": 1032,
      "ĠÐ²ÐµÑĩÐµÑĢ": 1033,
      "ĠÐ²ÑģÑĤÑĢ": 1034,
      "ÐµÐ½Ñĭ": 1035,
      "ĠÑħÐ¾Ñĩ": 1036,
      "ÑĥÐ¹": 1037,
      "ĠÐ²Ð¾Ð´": 1038,
      "Ð¾Ð¶Ð´": 1039,
      "ÐµÑĢÑĪ": 1040,
      "Ð°Ð²Ð½Ð¾": 1041,
      "ÐĶÐ°": 1042,
      "ÑıÐ¼": 1043,
      "ĠÐ¿Ð¾Ð³": 1044,
      "Ð¸Ð½Ðµ": 1045,
      "Ð°ÑİÑī": 1046,
      "ĠÑħÐ¾ÑĤÑı": 1047,
      "ĠÐ¿ÑĢÐ¾ÑĤÐ¸Ð²": 1048,
      "ÑĢÐµÐ´": 1049,
      "ĠÑģÐµÐ¹": 1050,
      "ĠÐ½ÐµÐ¹": 1051,
      "ĠÐ¸Ñģ": 1052,
      "ĠÐ¸Ð·Ð²": 1053,
      "ĠÐ´Ð²Ð°": 1054,
      "ĠÐ¿ÑĢÐ¾Ð¸Ð·": 1055,
      "ÑįÐ½ÑģÐ¸": 1056,
      "Ð¤": 1057,
      "ĠÐ½Ð°Ð²": 1058,
      "Ð½ÑıÐ»": 1059,
      "ĠÐ±Ð»Ð°Ð³": 1060,
      "Ð»ÐµÑĤ": 1061,
      "ĠÐ·Ð°Ð³": 1062,
      "ÑĪÐ¸Ðµ": 1063,
      "ĠÐ¼Ð¾Ð¶Ð½Ð¾": 1064,
      "ĠÑħÐ¾ÑĤÐµÐ»": 1065,
      "Ð»ÑİÑĩ": 1066,
      "ÑıÐ¶": 1067,
      "ĠÐ½ÐµÐ±": 1068,
      "ÐºÐ°Ð¼Ð¸": 1069,
      "ĠÐ²Ð½Ð¸Ð¼": 1070,
      "ĠÐ½Ð°Ñĩ": 1071,
      "ĠÑħÐ¾Ð»": 1072,
      "ĠÑģÑĤÐ¾Ð»": 1073,
      "Ð¸ÑģÑĤ": 1074,
      "Ð½Ð¾Ð¼Ñĥ": 1075,
      "ĠÐºÐ°Ð·Ð°Ð»": 1076,
      "ĠÐ¼Ð½": 1077,
      "ÐµÑģÑĤÐ¸": 1078,
      "ĠÐ½ÑĥÐ¶": 1079,
      "ĠÑģÐ²Ð¾Ñİ": 1080,
      "ĠÑĢÐ°ÑģÑģÐº": 1081,
      "ĠÐĵÑĢÑĥÑĪ": 1082,
      "ĠÐ½Ð¸ÐºÐ¾Ð³Ð´Ð°": 1083,
      "ĠÐĵÑĢÑĥÑĪÐ½Ð¸ÑĨ": 1084,
      "ĠÑģÑĥÐ´Ð°": 1085,
      "ÐµÐ½Ð°": 1086,
      "ĠÐ¿ÑĢÐ¾Ð±": 1087,
      "Ð°Ð¹Ð»Ñģ": 1088,
      "ĠÑħÐ¾ÑĢÐ¾ÑĪ": 1089,
      "ĠÑĢÐ°ÑģÑģ": 1090,
      "Ð»ÑĭÐ±": 1091,
      "ĠÐ½Ð¾Ð²": 1092,
      "ÑħÐ°": 1093,
      "ĠÑĥÐ»ÑĭÐ±": 1094,
      "ĠÑĢÐ¾Ð´": 1095,
      "Ð³Ð¸": 1096,
      "ÑĨÑĭ": 1097,
      "ĠÐ±Ð¾Ð»ÑĮÑĪ": 1098,
      "ĠÑĤÐ¾ÑĢ": 1099,
      "ÑĥÐº": 1100,
      "ÑıÑī": 1101,
      "ĠÐ¿ÑĢÐ¸Ðº": 1102,
      "ĠÐ¼Ð¸Ð»ÑĭÐ¹": 1103,
      "Ð¾ÑĦÐ¸Ñı": 1104,
      "Ð½Ð³": 1105,
      "ĠÐĿÑįÐ½ÑģÐ¸": 1106,
      "Ð¾ÑĪÐµÐ»": 1107,
      "ĠÐ´ÑĢÑĥÐ³Ð¾Ð¹": 1108,
      "ĠÐ´ÐµÐ»Ð¾": 1109,
      "ĠÐ»ÑĥÑĩÑĪÐµ": 1110,
      "ĠÑģÑĤÐ¾ÑĢÐ¾": 1111,
      "ĠÐĶÐ¶Ð°Ð¹Ð»Ñģ": 1112,
      "ÑĭÐ»": 1113,
      "ĠÑĥÐ´Ð°": 1114,
      "Ð½ÐµÑģ": 1115,
      "ĠÐ¿Ð¾ÑģÐ¼Ð¾ÑĤÑĢ": 1116,
      "ÐµÑı": 1117,
      "Ð»ÐµÐº": 1118,
      "ÑīÐ¸Ð¹": 1119,
      "ĠÐķÑģÐ»Ð¸": 1120,
      "Ð½Ð°Ð»": 1121,
      "Ð²Ð¾ÑĢ": 1122,
      "ĠÐ±Ð¾Ð³": 1123,
      "Ð°Ð¼ÑĥÑģ": 1124,
      "ĠÐ¿Ð¾Ð»Ð¾Ð¶": 1125,
      "ĠÐ¼Ð¾Ñı": 1126,
      "ĠÐ¾ÑģÐ¾Ð±": 1127,
      "ĠÑģÑĤÐ°ÑĢÑĭÐ¹": 1128,
      "ĠÐ¼Ð°Ð»ÑĮÑĩÐ¸ÐºÐ°": 1129,
      "Ð»ÐµÐ´": 1130,
      "ĠÐ½ÐµÑģ": 1131,
      "Ð½Ð°Ñĩ": 1132,
      "ÑĢÐ°Ð½": 1133,
      "Ð¸Ð½Ñı": 1134,
      "ĠÐĿÑĥ": 1135,
      "ĠÑįÑĤÐ¸Ð¼": 1136,
      "ĠÑĩÐµÑĢÐµÐ·": 1137,
      "Ðĳ": 1138,
      "ĠÐ¿ÑĢÐµÐ¶": 1139,
      "ĠÑĢÐ°Ð±Ð¾ÑĤ": 1140,
      "Ð°Ð½ÑĮ": 1141,
      "ĠÑįÑĤÑĥ": 1142,
      "ĠÐºÐ¾ÑĤÐ¾ÑĢÐ¾Ð³Ð¾": 1143,
      "Ð°ÐµÑĤÐµ": 1144,
      "ÐºÐ¾Ð³Ð¾": 1145,
      "Ð¿Ð¾Ð¼": 1146,
      "ĠÑıÐ²": 1147,
      "ÐµÑģÑĤÐ¾": 1148,
      "ĠÑģÐ²Ð¾ÐµÐ³Ð¾": 1149,
      "ĠÐ¿Ð¾ÑĤÐ¾Ð¼": 1150,
      "ÐŃÑĤÐ¾": 1151,
      "ĠÐ¼Ð½Ð¾Ð³Ð¾": 1152,
      "ĠÐ´ÐµÑĢ": 1153,
      "ĠÐ·Ð²": 1154,
      "ÐµÐ½Ð¸Ñİ": 1155,
      "ĠÑģÐºÐ¾ÑĢ": 1156,
      "ĠÑģÑĤÐ°Ð»": 1157,
      "ĠÐ²Ð¾ÑģÐºÐ»Ð¸ÐºÐ½ÑĥÐ»": 1158,
      "ĠÐ¿ÑĢÐ¾Ð´Ð¾Ð»Ð¶Ð°Ð»": 1159,
      "ĠÐ²ÑģÐº": 1160,
      "ĠÑĪÐ°Ð³": 1161,
      "ĠÐļÐ¾Ð³Ð´Ð°": 1162,
      "ÐµÐ³Ð´Ð°": 1163,
      "ÑĭÐ²Ð°Ñı": 1164,
      "ĠÐ²ÐµÑģÑĮ": 1165,
      "Ð°Ð¼ÑĥÑģÐ¾Ð²": 1166,
      "ÑĭÐº": 1167,
      "ĠÐ½ÐµÐ·": 1168,
      "ĠÐ±ÑĭÑģÑĤÑĢÐ¾": 1169,
      "ĠÐ¾ÑĤÐ¾Ð·Ð²": 1170,
      "ĠÐ¶Ð¸Ð²": 1171,
      "ĠÐ²ÑĭÑģ": 1172,
      "ÑĭÐ¼Ð¸": 1173,
      "ĠÐºÑĢÐ¾Ð²": 1174,
      "Ð³Ð¾Ð²Ð¾ÑĢ": 1175,
      "ÐµÐºÐ¾": 1176,
      "Ð¾ÑĤÑĮ": 1177,
      "ĠÐ¸ÑģÐº": 1178,
      "Ð´Ð°ÑĤÑĮ": 1179,
      "ĠÐºÐ¾Ð¼Ð½Ð°ÑĤÑĥ": 1180,
      "ĠÐ¾ÑĤÐ²ÐµÑĩÐ°Ð»": 1181,
      "ĠÐ²ÑģÑı": 1182,
      "ÐµÐ´ÑĮ": 1183,
      "ÐĿÐµ": 1184,
      "ĠÐ´Ð²ÐµÑĢÐ¸": 1185,
      "ÑĢÐµ": 1186,
      "ÑĢÐµÐº": 1187,
      "ÑĥÑī": 1188,
      "ĠÑĤÐ¾Ð³Ð´Ð°": 1189,
      "ÑģÐºÐ¸Ð¹": 1190,
      "ĠÐºÐ¾ÑĤÐ¾ÑĢÐ°Ñı": 1191,
      "ÑģÐ¸Ð¼": 1192,
      "ĠÐ²ÑĭÐ¿": 1193,
      "ĠÑģÐ²Ð¾Ð¹": 1194,
      "ĠÑĥÐ²Ð¸Ð´": 1195,
      "Ð»Ð¾Ð½": 1196,
      "ÐµÑĢÐ¿": 1197,
      "Ð¸Ð»Ð»": 1198,
      "ĠÐºÑĢÐµÐ¿": 1199,
      "Ð¾Ñİ": 1200,
      "Ð»ÐµÐ½Ð¸Ðµ": 1201,
      "ÑĢÐ¸Ð²": 1202,
      "ÐµÑĢÐ±": 1203,
      "ĠÑĤÐµÑħ": 1204,
      "ĠÑĥÑģÐ¿": 1205,
      "ÐµÐ½Ð¸Ð¹": 1206,
      "ĠÐ²ÑģÐµÐ¼": 1207,
      "ĠÑĢÐ°Ð·Ð´": 1208,
      "ĠÐľÐ°Ðº": 1209,
      ".)": 1210,
      "ÑĩÐ¸Ð²": 1211,
      "ĠÐ¾Ð³": 1212,
      "Ð´Ñĭ": 1213,
      "ÑĤÐ¾Ñı": 1214,
      "ĠÐ´ÑĢ": 1215,
      "ĠÐ½Ð°ÑħÐ¾Ð´": 1216,
      "ĠÐ»ÐµÑĤ": 1217,
      "ÑĨÑĥ": 1218,
      "ĠÐ¾Ð±ÑĬ": 1219,
      "ĠÐ¾Ð±ÑĢÐ°Ñī": 1220,
      "ĠÐľÑĭ": 1221,
      "ÑįÐ¹": 1222,
      "ĠÐ¾ÑĤÐ²ÐµÑĤÐ¸Ð»Ð°": 1223,
      "ÑıÑģ": 1224,
      "ĠÐ²Ð¼": 1225,
      "ĠÐ²Ð¾Ð¿": 1226,
      "ĠÐºÐ½Ð¸": 1227,
      "Ð¸Ð¼Ð¾": 1228,
      "ĠÐ½Ð°ÐºÐ¾Ð½ÐµÑĨ": 1229,
      "ĠÐºÐ°Ð¼": 1230,
      "ĠÐ´ÑĥÑĪ": 1231,
      "ĠÑĤÐ¾Ð¼Ñĥ": 1232,
      "Ð°ÑĤÐ¸": 1233,
      "ĠÐ¸Ð´": 1234,
      "ĠÐ»ÐµÐ¶": 1235,
      "ĠÐ³Ð¾Ð´": 1236,
      "Ð°Ð´ÑĨ": 1237,
      "Ð¾Ð»ÑĮÐ·": 1238,
      "ĠÐľÑįÐ¹": 1239,
      "ĠÑģÐ¼Ð¾ÑĤÑĢ": 1240,
      "ĠÐľÑįÐ¹Ð»Ð¸": 1241,
      "ÑĢÐ¸Ð¼": 1242,
      "ĠÐ½Ð¾Ñģ": 1243,
      "ĠÐ´ÑĢÑĥ": 1244,
      "Ð½Ð¸Ð¹": 1245,
      "ÐµÐ¹ÑĤ": 1246,
      "Ð¾ÐºÐ¾": 1247,
      "ÑĢÑĥÑİ": 1248,
      "ĠÐŃ": 1249,
      "Ð¾Ð½Ð°": 1250,
      "ÑĥÐµÑĤ": 1251,
      "ĠÑģÐ¾Ñģ": 1252,
      "ĠÐ±Ð¸Ð´": 1253,
      "Ð»Ð¸Ñĩ": 1254,
      "ĠÐ¿ÑĢÐ¸ÑıÑĤ": 1255,
      "ĠÑģÐ»ÑĥÐ¶": 1256,
      "ÐºÐ¸Ñħ": 1257,
      "ĠÐĳÐµÐ¹ÑĤ": 1258,
      "ĠÐ¡Ðº": 1259,
      "ĠÐ¢Ð°Ðº": 1260,
      "ÑĢÑıÐ´": 1261,
      "Ð¡Ð¾ÑĦÐ¸Ñı": 1262,
      "Ð½Ð¸ÑĨÐ°": 1263,
      "ĠÑĥÐ¼ÐµÑĢ": 1264,
      "Ð½Ð°ÐºÐ¾": 1265,
      "Ð¤Ð°Ð¼ÑĥÑģÐ¾Ð²": 1266,
      "ĠÐľÐ°ÐºÑģÐ¸Ð¼": 1267,
      "ĠÐĳÐµÐ¹ÑĤÑģ": 1268,
      "Ñĳ": 1269,
      "Ġ,": 1270,
      "Ð°Ñĥ": 1271,
      "ĠÐ¿Ð°ÑĢ": 1272,
      "ÑģÑĤÐ°": 1273,
      "Ð»Ð¸ÑĪ": 1274,
      "ĠÑĤÐ°": 1275,
      "Ð¾Ð»Ð½": 1276,
      "Ð¾Ð»ÑĩÐ°Ð»": 1277,
      "Ð½Ð¸ÐºÐ°": 1278,
      "ĠÑģÐ»ÐµÐ·": 1279,
      "ĠÑĤÐ°ÐºÐ¾Ðµ": 1280,
      "ĠÐ²ÑģÐµÐ³Ð´Ð°": 1281,
      "ÐĿÑĥ": 1282,
      "ĠÑģÐ¾Ð²ÐµÑĢÑĪ": 1283,
      "ĠÐ¼Ð¾Ð»Ð¾Ð´Ð¾Ð¹": 1284,
      "ĠÑħÐ¾Ð»Ð¾Ð´": 1285,
      "ÐĹ": 1286,
      "Ðł": 1287,
      "Ð¾Ñī": 1288,
      "Ð»Ð°Ð²": 1289,
      "Ð»Ð°Ñģ": 1290,
      "Ð»Ð¾Ð¶": 1291,
      "ĠÑĥÐ²ÐµÑĢ": 1292,
      "ĠÑģÐ¼ÐµÑĢ": 1293,
      "ĠÑĥÐ¶Ð°Ñģ": 1294,
      "ĠÐ²Ð¾Ð·Ð²": 1295,
      "ĠÐ´Ð¾Ð¼Ð°": 1296,
      "ĠÐ½Ð¸ÐºÐ°Ðº": 1297,
      "Ð¸ÑģÑĮ": 1298,
      "ĠÐ²ÐµÑģ": 1299,
      "ÐµÐ½Ð¾": 1300,
      "ĠÑģÐ²Ð¾Ð¸": 1301,
      "ĠÑĢÐ°ÑģÐ¿": 1302,
      "ĠÐ¾ÑĤÐ¿ÑĢÐ°Ð²": 1303,
      "ĠÐºÐ½ÑıÐ¶": 1304,
      "Ð°ÐµÐ¼": 1305,
      "Ð¼Ð¾ÑĤ": 1306,
      "ÐµÐ½Ð½ÑĭÐµ": 1307,
      "ĠÑĩÐµÐ³Ð¾": 1308,
      "Ð¾Ð´Ð°ÑĢ": 1309,
      "ĠÐ¿Ð¾Ñħ": 1310,
      "ĠÐ¿Ð¾Ð²ÐµÑĢ": 1311,
      "ĠÐ³ÑĢÐ¾Ð±": 1312,
      "ĠÑĩÐµÐ»Ð¾Ð²ÐµÐºÐ°": 1313,
      "ĠÑģÐ»Ð¾Ð²Ð½Ð¾": 1314,
      "ĠÐ¾ÑģÑĤÐ°Ð½Ð¾Ð²": 1315,
      "Ð¸ÑĢÐ°": 1316,
      "ÑĢÑĮ": 1317,
      "ĠÑģÑİÐ´Ð°": 1318,
      "ÐºÐ½ÑĥÐ»Ð°": 1319,
      "ĠÐ¼ÐµÐ¶Ð´Ñĥ": 1320,
      "ÐµÐ½ÑĤ": 1321,
      "ĠÐŀÑĤ": 1322,
      "ÑģÑĤÐ²Ð¸Ðµ": 1323,
      "ĠÑĢÐ°Ð·Ð²": 1324,
      "ĠÑģÐµÐ¹ÑĩÐ°Ñģ": 1325,
      "Ð¼Ð¾Ð¶": 1326,
      "ĠÐ»ÐµÑģÑĤ": 1327,
      "ĠÑģÐºÐ°Ð¶": 1328,
      "ÑģÑĤÐ²Ð¾Ð¼": 1329,
      "ĠÐŁÐ¾Ñģ": 1330,
      "Ð¾ÑĪÐ°Ð´": 1331,
      "ĠÐ³Ð»ÑĥÐ±": 1332,
      "ĠÐ³Ð¾Ð»Ð¾Ð²Ð¾Ð¹": 1333,
      "ĠÐ¶Ð¸Ð·Ð½Ð¸": 1334,
      "Ð¾Ð»ÑĩÐ°Ð»Ð¸Ð½": 1335,
      "ÐµÑģÐº": 1336,
      "Ð»ÐµÐ½Ð½Ð¾": 1337,
      "ĠÑģÑĥÐ´ÑĮ": 1338,
      "ÐºÐ¸Ð¼": 1339,
      "Ð¼Ð°ÑĤ": 1340,
      "ÑĪÐ»Ð¸": 1341,
      "ĠÐºÐ°ÐºÐ¸Ðµ": 1342,
      "ĠÑģÐµÑĢÐ´ÑĨÐµ": 1343,
      "ĠÐºÐ°Ð¶Ð´": 1344,
      "Ð»Ð¸ÑĪÐºÐ¾Ð¼": 1345,
      "Ð¥": 1346,
      "Ð¸Ñī": 1347,
      "Ð¸Ð½Ñĥ": 1348,
      "ĠĠčĊ": 1349,
      "ÑĪÐ¸Ð¼": 1350,
      "ĠÐºÐ¾ÑĤÐ¾ÑĢÐ¾Ð¹": 1351,
      "ÑĢÑĭÐ½Ñı": 1352,
      "ĠÐ¿Ð¾Ð»ÑĥÑĩ": 1353,
      "ĠÐ§Ð°ÑĢ": 1354,
      "ÑĩÐ°ÑģÑĤÐ»Ð¸Ð²": 1355,
      "Ð¾Ð²Ð°ÑĢ": 1356,
      "ÐµÐ»Ñı": 1357,
      "ĠÐ»Ð¾ÑĪÐ°Ð´": 1358,
      "ĠÑģÐ²ÐµÑĤ": 1359,
      "ĠÐ¿Ð¾Ð´ÑĥÐ¼": 1360,
      "Ð§ÑĤÐ¾": 1361,
      "ĠÐ±ÐµÑģÐ¿": 1362,
      "ĠÐºÐ°Ð·Ð°Ð»Ð¾ÑģÑĮ": 1363,
      "Ð¸Ð´Ð°": 1364,
      "ĠÐ¿ÑĥÑģÑĤ": 1365,
      "ĠÐ¸Ð½": 1366,
      "ĠÑĥÑģÑĤ": 1367,
      "ĠÑĢÐµÐ±": 1368,
      "ĠÐĿÐµÑĤ": 1369,
      "ĠÐ¡Ð°Ñĥ": 1370,
      "ĠÐ¿Ð¾Ð²ÑĤÐ¾ÑĢ": 1371,
      "ĠÐ¾Ð¿Ð°Ñģ": 1372,
      "ÐľÐ¸ÑģÑĤÐµÑĢ": 1373,
      "ĠÐ¶Ð¸Ð·Ð½ÑĮ": 1374,
      "ÐµÑĢÐ±ÐµÑĢÐ¸": 1375,
      "ĠÐ¡Ð°ÑĥÐµÑĢÐ±ÐµÑĢÐ¸": 1376,
      "Ð£": 1377,
      "ĠÐ¨": 1378,
      "ĠÑģÐ¾Ð·": 1379,
      "ĠÑģÑĥÐ´": 1380,
      "ĠÑģÐ»Ð¸ÑĪÐºÐ¾Ð¼": 1381,
      "ĠÑĤÐ¸Ñħ": 1382,
      "ĠÑī": 1383,
      "Ð¸Ð½Ð¾Ð²": 1384,
      "ĠÐĳÐ¸Ð»Ð»": 1385,
      "ĠÐŁÑĢÐ¸": 1386,
      "ĠÐ¼Ð¾Ð³Ñĥ": 1387,
      "ĠÐ´Ð¾Ð»Ð³Ð¾": 1388,
      "ĠÐ³ÑĢÐ¾Ð¼": 1389,
      "Ð»Ð¸Ð²Ð¾": 1390,
      "Ð¸ÑģÐº": 1391,
      "Ð½ÐµÐ²": 1392,
      "ĠÐ¾Ð½Ð¾": 1393,
      "Ð´Ð¾ÑĢ": 1394,
      "ĠÐ¸Ð±Ð¾": 1395,
      "ĠÑĤÑĢÐ¸": 1396,
      "ĠÐ·Ð°ÑĢ": 1397,
      "ĠÐ½Ð°ÑĩÐ°Ð»": 1398,
      "ÑģÐºÐ¾Ð³Ð¾": 1399,
      "ĠÐ¿ÑĢÐ¸Ð±": 1400,
      "ÐĿÐµÑĤ": 1401,
      "ĠÐ¾ÑģÐ²": 1402,
      "ĠÑģÐ¾Ð±Ð°Ðº": 1403,
      "ÑĢÐ°ÑĤÐµÐ»ÑĮ": 1404,
      "ĠÐ²Ð¿ÐµÑĢÐµÐ´": 1405,
      "Ð¸Ð¶": 1406,
      "ÑĢÐµÐ¶": 1407,
      "ĠÑģÐ¸Ð»": 1408,
      "ĠÐ¿Ð¾ÑģÑĤ": 1409,
      "Ð³Ð¾Ð»": 1410,
      "Ð¸Ð½Ð¾Ð¹": 1411,
      "ĠÑįÑĤÐ¸Ñħ": 1412,
      "ÑģÐ»ÑĥÑĪ": 1413,
      "ĠÑģÐ²Ð¾Ðµ": 1414,
      "ĠÐ²Ð¸Ð´ÐµÐ»": 1415,
      "ÐŀÐ»Ð¸Ð²ÐµÑĢ": 1416,
      "ĠÐ¾ÑĤÐºÑĢÑĭ": 1417,
      "ĠÐĵÑĢÑĥÑĪÐ½Ð¸ÑĨÐºÐ¸Ð¹": 1418,
      "Ð¸Ñİ": 1419,
      "ĠÐ½Ð°Ð±": 1420,
      "ĠÐ¼ÐµÑĢ": 1421,
      "ĠÐ¿ÑĢÐµÐº": 1422,
      "ĠÐ·Ð»": 1423,
      "Ð½Ð¾Ñģ": 1424,
      "ĠÐ¿ÑĢÐ¸Ñģ": 1425,
      "ĠÑģÐ¾Ð±Ð¾Ð¹": 1426,
      "Ð½ÑĥÐ²ÑĪÐ¸ÑģÑĮ": 1427,
      "ĠÐ»ÑİÐ´Ð¸": 1428,
      "ĠÐ»ÑİÐ´ÐµÐ¹": 1429,
      "ĠÑģÑĤÐ°ÑĢÐ°Ñı": 1430,
      "ĠÐºÐ°Ð¶ÐµÑĤÑģÑı": 1431,
      "Ð¾Ð·Ñı": 1432,
      "ĠÐ³Ð¾ÑĤÐ¾Ð²": 1433,
      "ĠÑĢÐ°Ð·Ð±": 1434,
      "ÐŀÐ½": 1435,
      "ĠÐºÐ¾Ð¼Ð½Ð°ÑĤÑĭ": 1436,
      "ĠÐ½Ð°Ð·Ð°Ð´": 1437,
      "ĠÑģÑĥÐ´Ð°ÑĢÑĭÐ½Ñı": 1438,
      "ĠÐ¾ÑĤÐ¾Ð·Ð²Ð°Ð»ÑģÑı": 1439,
      "ÑģÐµÐ¼": 1440,
      "Ð´Ð½Ð¾": 1441,
      "ĠÐºÑĥÐ´Ð°": 1442,
      "ĠÐºÑĢÐ°Ñģ": 1443,
      "ÑĪÐºÐ°": 1444,
      "ĠÐ¿ÑĢÐ¾Ð²": 1445,
      "ĠÑĤÑĥÑĤ": 1446,
      "Ð½Ð¸ÑĤÑĮ": 1447,
      "ĠÐ³ÑĢÑı": 1448,
      "Ð²ÐµÑĢÐ´": 1449,
      "ĠÐŁÐ¾": 1450,
      "Ð»Ð°ÑģÑĮ": 1451,
      "ĠÐĲÑħ": 1452,
      "Ð¾Ð²Ð¾Ð»ÑĮÐ½Ð¾": 1453,
      "ĠÐ§Ð°ÑĢÐ»Ð¸": 1454,
      "Ð»ÐµÐ½Ð¸Ñı": 1455,
      "ÑĢÐ¸ÑĤ": 1456,
      "ĠÐ¿ÑıÑĤ": 1457,
      "ÐµÐ´Ð»ÐµÐ½Ð½Ð¾": 1458,
      "Ð¾ÑĤÐ¾Ð¼": 1459,
      "Ð¾ÑĩÑĮ": 1460,
      "ĠÑģÐ²Ð¾Ð¸Ñħ": 1461,
      "ÐµÐ½Ð½Ð¾Ðµ": 1462,
      "ÐµÐ³Ð¾Ð´Ð½Ñı": 1463,
      "ĠÐ»ÐµÑģÑĤÐ½Ð¸ÑĨ": 1464,
      "Ð»ÐµÐ¹": 1465,
      "ÑıÐ½": 1466,
      "ĠÑģÑĩÐ°ÑģÑĤÐ»Ð¸Ð²": 1467,
      "Ð´Ð°Ð»": 1468,
      "ĠÐ´Ð°Ð»": 1469,
      "ĠÐ´ÐµÑĢÐ¶": 1470,
      "ĠÐ¿ÑĢÐ¾Ðº": 1471,
      "ĠÑĤÐµ": 1472,
      "Ð°Ð·ÑĭÐ²": 1473,
      "Ð½Ð¸Ð·": 1474,
      "Ð¸Ð²Ð°ÑĤÑĮ": 1475,
      "ĠÐ¶Ð°Ð»": 1476,
      "ĠÐ²ÑĭÐ·": 1477,
      "ÑģÑĤÐ²Ðµ": 1478,
      "ĠÑĪÑĥÐ¼": 1479,
      "ÑīÐ¸Ðº": 1480,
      "ÐĴÑĭ": 1481,
      "ĠÑĨÐµÐ»": 1482,
      "ĠÐ·Ð°ÑĤÐµÐ¼": 1483,
      "ĠÐ¸Ð·Ð²ÐµÑģÑĤ": 1484,
      "ĠÐ¿ÑĢÐµÐºÑĢÐ°Ñģ": 1485,
      "ÑĥÑīÐµ": 1486,
      "ÑĭÐ½": 1487,
      "ĠÐ¼Ð¾Ðµ": 1488,
      "ÑĪÐ°Ñı": 1489,
      "Ð»ÑıÐ¿": 1490,
      "ĠÐ·Ð°ÑģÑĤÐ°Ð²": 1491,
      "ĠÑģÐ°Ð¼Ð¾Ð¼": 1492,
      "ĠÑģÑĤÑĢÐ°Ð½": 1493,
      "Ð¸ÑĪÑĮ": 1494,
      "ĠÑģÐ¾Ð³": 1495,
      "ĠÐ²ÐµÑĤ": 1496,
      "ĠÐ¼Ð½Ð¾Ð¹": 1497,
      "ĠÐ±Ð»Ð¸": 1498,
      "ĠÑĤÑıÐ¶": 1499,
      "ÑĢÐ°Ñĩ": 1500,
      "ÑĢÐ°ÑĪ": 1501,
      "ÐºÐ¸Ðµ": 1502,
      "ĠÐ¾Ð±ÑĢÐ°Ð·": 1503,
      "ÐºÐ°Ñħ": 1504,
      "Ð¸Ð·Ð°": 1505,
      "ĠÑĥÐ´Ð¸Ð²": 1506,
      "Ð½ÑĥÐ»Ð°ÑģÑĮ": 1507,
      "Ð°Ð½Ð°": 1508,
      "Ð»ÑĥÑĪ": 1509,
      "ĠÐ¼ÐµÑģÑĤÐ¾": 1510,
      "ĠÐ´Ð½Ñı": 1511,
      "ĠÐ´Ð°Ð»ÑĮ": 1512,
      "ĠÐ´ÑĥÑħ": 1513,
      "Ð½Ð¸Ñı": 1514,
      "ĠÐ¿ÑĢÐ¸ÑģÑĤ": 1515,
      "ĠÐŁÐµÑĩ": 1516,
      "ĠÐĴÑģÐµ": 1517,
      "ĠÑĪÐ»ÑıÐ¿": 1518,
      "ĠÐ¾Ð´Ð½Ð¾Ð¹": 1519,
      "ĠÐ²ÑĢÐµÐ¼ÐµÐ½Ð¸": 1520,
      "ÑıÐ´": 1521,
      "ĠÐ½Ð¸Ð¼Ð¸": 1522,
      "ĠÐ²Ð°Ð¼Ð¸": 1523,
      "ÐµÑĢÐ°": 1524,
      "ĠÐ¿ÑĢÐ¸Ð¼": 1525,
      "ĠÑĩÐ°": 1526,
      "ĠÐ·Ð½Ð°ÐºÐ¾Ð¼": 1527,
      "ĠÐ³Ð¾ÑĢÐ¾Ð´": 1528,
      "ĠÐ¢Ñĭ": 1529,
      "ĠÐ´Ð¾Ð±ÑĢ": 1530,
      "ÐļÐ°Ðº": 1531,
      "ĠÐ¼Ð¸Ð½ÑĥÑĤÑĥ": 1532,
      "ĠÐ²Ð´ÑĢÑĥÐ³": 1533,
      "ĠÑģÑħÐ²Ð°ÑĤ": 1534,
      "ĠÐ¸Ð³": 1535,
      "ĠÑĤÑĥ": 1536,
      "ĠÐ±ÑĭÐ²": 1537,
      "ĠÐ»ÐµÐ³": 1538,
      "ĠÐ¾Ð±ÑĢÐ°ÑĤ": 1539,
      "Ð»ÑıÐ´": 1540,
      "ĠÑĤÐ°ÐºÐ¸Ð¼": 1541,
      "ĠÑģÐ°Ð¼ÑĭÐ¹": 1542,
      "ĠÐ´Ð¶ÐµÐ½ÑĤÐ»ÑĮÐ¼ÐµÐ½Ð°": 1543,
      "ĠÐ±Ð»Ð°Ð³Ð¾": 1544,
      "ÑıÐ»ÑģÑı": 1545,
      "ÑĤÐ¾Ð»": 1546,
      "Ð¾Ð²ÐµÑĢ": 1547,
      "Ð¾Ð¼Ðµ": 1548,
      "ÐµÐ»ÐµÐ¹": 1549,
      "ĠÐ½ÐµÐ¾Ð±": 1550,
      "ÑģÐºÐ¾Ð¹": 1551,
      "ĠÐŁÐ¾Ð´": 1552,
      "ĠÑĢÐ°Ð·Ð³Ð¾Ð²Ð¾ÑĢ": 1553,
      "ÐµÑģÑĤÐµ": 1554,
      "Ð¾Ð½Ð´": 1555,
      "ÑħÐ¾Ð´Ð¸ÑĤ": 1556,
      "ĠÐ½Ð°Ð´Ð¾": 1557,
      "ĠÐ³Ð¾Ð²Ð¾ÑĢÐ¸Ð»": 1558,
      "ĠÑģÐ¾Ð²ÑģÐµÐ¼": 1559,
      "Ð·Ð¸ÑĢÐ°ÑĤÐµÐ»ÑĮ": 1560,
      "Ð¾ÑģÑĤÑĮ": 1561,
      "ÑıÐ³": 1562,
      "ĠÑģÐ¸Ð»ÑĮ": 1563,
      "ÑĤÐ¾Ñĩ": 1564,
      "ÐµÐ½Ð½ÑĭÑħ": 1565,
      "ĠÐ´Ð¾Ñģ": 1566,
      "Ð¾ÑĢÐµ": 1567,
      "ĠÐºÐ¾Ð½Ðµ": 1568,
      "ĠÑģÐ²ÐµÑĩ": 1569,
      "ĠÑħÐ¾ÑĤÑĮ": 1570,
      "Ð°Ð¿Ð¸ÑĤ": 1571,
      "ĠÐ±Ð»ÐµÐ´": 1572,
      "ĠÐ·Ð°Ð¼ÐµÑĩ": 1573,
      "ĠÐºÐ¾ÑĤÐ¾ÑĢÑĥÑİ": 1574,
      "ĠÑĩÑĥÐ²ÑģÑĤÐ²": 1575,
      "ĠÐ¶ÐµÐ½ÑīÐ¸Ð½Ð°": 1576,
      "ĠÑĢÐµÐ±ÐµÐ½": 1577,
      "ĠÐŁÐµÑĩÐ¾ÑĢ": 1578,
      "ÑĢÐµÑĤ": 1579,
      "ÑĢÐ¾Ñĩ": 1580,
      "ĠÐ¿ÑĥÑĤ": 1581,
      "Ð²Ð¸Ð´": 1582,
      "ĠÐ¿ÑĢÐ¸ÑĤ": 1583,
      "ĠÑħÐ¾Ð·Ñı": 1584,
      "ÐµÑĩÐ°ÑĤ": 1585,
      "Ð°Ð»ÑĮÐ½Ð¾": 1586,
      "Ð°Ð½Ð¸Ð¸": 1587,
      "ĠÑģÐ¾Ð¾Ð±": 1588,
      "ĠÐ¿Ð¾ÑĩÑĤÐ¸": 1589,
      "ĠÐºÑĢÐ¸ÐºÐ½ÑĥÐ»": 1590,
      "Ġ1": 1591,
      "ĠÐ½ÐµÐ¼Ñĥ": 1592,
      "ĠÐ½ÐµÐºÐ¾": 1593,
      "ĠÐ²Ð°": 1594,
      "ĠÐºÐ¾Ð³Ð¾": 1595,
      "ĠÐ±ÐµÑĢ": 1596,
      "ĠÐ¿ÑĢÐ¾ÑģÑĤ": 1597,
      "Ð°Ð²ÑĪÐ¸Ð¹": 1598,
      "ĠÑįÑĤÐ°": 1599,
      "ĠÑįÑĤÐ¾Ð¼Ñĥ": 1600,
      "ĠÐľÐ½Ðµ": 1601,
      "ĠÐºÐ¾ÑĤÐ¾ÑĢÑĭÑħ": 1602,
      "ĠÐ¼Ð¾ÐµÐ¹": 1603,
      "ĠÐ´Ð¾Ð»Ð¶ÐµÐ½": 1604,
      "ĠÐ´Ð¾Ð¼Ð¾Ð¹": 1605,
      "ĠÐºÐ¾Ð¼Ð½Ð°ÑĤÐµ": 1606,
      "ĠÐ¿Ð»ÐµÑĩ": 1607,
      "ĠÐ²Ð¾Ð¿ÑĢÐ¾Ñģ": 1608,
      "Ð°Ð´ÑĨÐ°ÑĤÑĮ": 1609,
      "Ð´Ð¾ÑĢÐ¾Ð²": 1610,
      "Ð²ÐµÑĤ": 1611,
      "ĠÐ´ÐµÑģÑı": 1612,
      "ĠÑĩÐ¸ÑĤ": 1613,
      "ĠÐ·Ð°Ð½": 1614,
      "Ð¾ÑĢÐ½Ð¸": 1615,
      "Ð¾Ð±Ð¸": 1616,
      "Ð¸Ð²Ð°Ð»": 1617,
      "ĠÐ¶Ð¸Ð»": 1618,
      "ĠÐ¾Ð´Ð½Ð¾Ð³Ð¾": 1619,
      "ÑĥÐ¶Ð´": 1620,
      "ĠÐ·Ð½Ð°ÐµÑĤÐµ": 1621,
      "ĠÐ¿Ð»Ð°ÑĤ": 1622,
      "ĠÑĩÐ°ÑģÐ¾Ð²": 1623,
      "ĠÐ½Ð¾ÑĩÑĮ": 1624,
      "ĠÑĤÐ¾Ð»Ð¿": 1625,
      "ĠÑĢÐ°ÑģÐº": 1626,
      "ĠÑģÑĤÐ¾ÑĢÐ¾Ð½Ñĥ": 1627,
      "ĠÐ²ÐµÑģÑĮÐ¼Ð°": 1628,
      "ÑĥÐ¸Ð³": 1629,
      "Ð°Ð»ÑĥÐ¹": 1630,
      "ĠÑĤÐ¾Ð¹": 1631,
      "ĠÑĥÑĩ": 1632,
      "Ð·Ñı": 1633,
      "ĠÐºÐ°ÐºÐ¾Ðµ": 1634,
      "ĠÐŀÐ½Ð¸": 1635,
      "ĠÑģÐ»Ð°Ð±": 1636,
      "ÐºÐ¾Ðµ": 1637,
      "ĠÐĵÑĢÐ¸Ð¼": 1638,
      "ĠÐ³Ð¾Ð²Ð¾ÑĢÐ¸ÑĤÑĮ": 1639,
      "Ð°ÑİÑĤÑģÑı": 1640,
      "ĠÐµÐ´Ð²Ð°": 1641,
      "ĠÐĵÑĢÐ¸Ð¼ÑĥÐ¸Ð³": 1642,
      "Ð»Ñĥ": 1643,
      "ĠÐ¿Ð¸Ñģ": 1644,
      "ĠÐ±ÐµÐ»": 1645,
      "Ð¿Ð¾Ð´": 1646,
      "Ð¾ÑĤÑĤ": 1647,
      "Ð°Ð½Ð½": 1648,
      "ÐµÑĩÑĮ": 1649,
      "ÑĭÐ²Ð°Ð»": 1650,
      "ĠÐ·Ð°Ð¼ÐµÑĤÐ¸Ð»": 1651,
      "ĠÐ¿ÑĢÐ°Ð²Ð´Ð°": 1652,
      "ĠÑģÐ»ÑĥÑĩÐ°": 1653,
      "ÐĺÐķ": 1654,
      "ĠÐ±Ð»Ð°Ð³Ð¾Ð´Ð°ÑĢ": 1655,
      "Ð»Ð¾Ð¼": 1656,
      "Ð½ÐµÑĤ": 1657,
      "ÑĢÐµÐ½": 1658,
      "ÑĢÐµÐ±": 1659,
      "ĠÐ¿ÑıÑĤÑĮ": 1660,
      "Ð¼Ðµ": 1661,
      "ÐµÑĢÐ²": 1662,
      "ĠÐ´ÐµÑĤ": 1663,
      "ĠÐ´ÐµÐ¹": 1664,
      "ĠÑĤÐ°ÐºÐ¶Ðµ": 1665,
      "ĠÐļÐ¾ÑĢÐ½Ð¸": 1666,
      "ÑĥÑİÑī": 1667,
      "ĠÐºÑĢÐ¾Ð¼Ðµ": 1668,
      "ĠÐ´ÐµÐ»Ðµ": 1669,
      "ĠÐ¼Ð¾Ð»Ñĩ": 1670,
      "ĠÐ´ÐµÑĢÐµÐ²": 1671,
      "ĠÐ¿Ð»Ð¾": 1672,
      "Ð¾Ð²Ð¾Ð¹": 1673,
      "Ð½Ð°ÑĤÑĮ": 1674,
      "ĠÐ¿Ð¾ÑıÐ²": 1675,
      "ĠÑħÐ»": 1676,
      "ĠÑĢÐ°Ð·Ð¼": 1677,
      "ĠÐ¾Ð´Ð½Ð¾": 1678,
      "ĠÐ²Ð¸Ð´Ð¾Ð¼": 1679,
      "ĠÐ½Ð°Ð´Ð·Ð¸ÑĢÐ°ÑĤÐµÐ»ÑĮ": 1680,
      "ĠÑģÐ»Ð¾Ð²Ð°Ð¼Ð¸": 1681,
      "ĠÑģÐ´ÐµÐ»Ð°Ð»": 1682,
      "ĠÐ¼Ð½Ð¾Ð³": 1683,
      "Ð°Ð½ÑĮÑĪÐµ": 1684,
      "Ð»Ð¾Ð²": 1685,
      "ÑıÐ¼Ð¸": 1686,
      "ĠÑģÐµÐ³Ð¾Ð´Ð½Ñı": 1687,
      "ĠÐ¿ÐµÑĩ": 1688,
      "Ð²Ð°ÑĢ": 1689,
      "ĠÐºÐ»": 1690,
      "ĠÐ¼Ð°ÑĤ": 1691,
      "Ð¾Ð²Ð°ÑĤÑĮ": 1692,
      "ĠÐ·Ð°Ð»": 1693,
      "ĠÑĢÐ°Ð½ÑĮÑĪÐµ": 1694,
      "ÑģÑĤÐ²Ð¸Ñı": 1695,
      "ĠÐ¾Ð±ÑīÐµ": 1696,
      "ĠÐ¿Ð¾Ð´Ð½Ñı": 1697,
      "ĠÑģÑĤÐ¾Ð»ÑĮ": 1698,
      "ĠÐ·Ð°Ð¼ÐµÑĤ": 1699,
      "ĠÐ¿Ð¾Ð¼Ð¾Ñī": 1700,
      "ĠÐ»Ð¸ÑĨÐ°": 1701,
      "Ð¿Ð¾Ð»Ð¾Ð¶": 1702,
      "ĠÑĥÑģÐ»ÑĭÑĪ": 1703,
      "ÑĤÐµÐ»ÑĮ": 1704,
      "ÑĮÐµ": 1705,
      "ĠÑģÐµÐº": 1706,
      "Ð´ÑĮ": 1707,
      "ĠÐ´Ñĥ": 1708,
      "ĠÐ·ÐµÐ¼": 1709,
      "ĠÐ²ÑĭÐ±": 1710,
      "ĠÑħÐ¾Ð´": 1711,
      "ĠÐ½Ð°Ð´ÐµÐ¶": 1712,
      "ĠÐ·Ð½Ð°ÐµÑĤ": 1713,
      "ĠÐ´Ð²Ðµ": 1714,
      "ĠÐĹÐ°": 1715,
      "ĠÐ·Ð°Ð²ÑĤ": 1716,
      "ĠÑģÐ¸Ð´ÐµÐ»": 1717,
      "ĠÐ²Ð¾ÑģÐºÐ»Ð¸ÐºÐ½ÑĥÐ»Ð°": 1718,
      "ĠÐ²Ð¾ÑĢÐ¾ÑĤ": 1719,
      "--------": 1720,
      "ĠÑħÐ¾ÑĩÑĥ": 1721,
      "ĠÐ²Ð¼ÐµÑģÑĤÐµ": 1722,
      "ĠÐ½ÐµÐºÐ¾ÑĤÐ¾ÑĢ": 1723,
      "ÑĢÐ°Ðº": 1724,
      "ÐºÐ°Ñı": 1725,
      "ĠÐ´Ð»Ð¸": 1726,
      "ĠÐ´ÑĥÑĢ": 1727,
      "ĠÑĤÑİ": 1728,
      "ĠÑĩÑĥÐ´": 1729,
      "ĠÐ¾ÑĤÑĩ": 1730,
      "Ð¾ÐºÑĢÑĥÐ³": 1731,
      "ĠÐŀÐ´": 1732,
      "ĠÑģÐ»ÑĥÑĪ": 1733,
      "ĠÐ¸Ð·Ð±": 1734,
      "ĠÐŁÑĢ": 1735,
      "ĠÑĪÐµÐ»": 1736,
      "ÐĿÐĺÐķ": 1737,
      "ĠÐ¼Ð¾Ð¸": 1738,
      "ÐĴÐĽ": 1739,
      "ÐķÐĿÐĺÐķ": 1740,
      "Ð¯ÐĴÐĽ": 1741,
      "ĠÐ³Ð¾Ð»Ð¾ÑģÐ¾Ð¼": 1742,
      "Ð»Ð°Ð²Ð°": 1743,
      "Ð¼Ð°ÑĤÑĢÐ¸Ð²": 1744,
      "Ð¯ÐĴÐĽÐķÐĿÐĺÐķ": 1745,
      "ĠÑģÑĭ": 1746,
      "ĠÑģÐ²ÐµÑĢ": 1747,
      "ĠÐ½ÐµÐ¶": 1748,
      "ĠÐ²Ð¾ÐºÑĢÑĥÐ³": 1749,
      "Ð¼ÐµÑĤ": 1750,
      "ÑħÐ¾ÑĤ": 1751,
      "ĠÐ´Ð¾Ð²Ð¾Ð»ÑĮÐ½Ð¾": 1752,
      "ĠÐ±Ð¾": 1753,
      "ĠÑĤÐ°Ð¹": 1754,
      "ĠÑĩÑĥÑĤÑĮ": 1755,
      "Ð½ÑĥÐ»Ð¸": 1756,
      "ĠÐ²ÑĭÑĪÐµÐ»": 1757,
      "Ð°ÑĢÑĢÐ¸": 1758,
      "ĠÐ¿Ð¾Ð´Ð½ÑıÐ»": 1759,
      "ĠÐĳÑį": 1760,
      "ĠÐ¡ÑĤ": 1761,
      "ĠÐ³Ð¾ÑĢÑı": 1762,
      "ÐµÐ¶Ð°Ð»": 1763,
      "ĠÑĪÑĥÑĤ": 1764,
      "ÑĩÐ¸Ð½Ð°": 1765,
      "ĠÑģÐ»Ð¾Ð²Ð¾": 1766,
      "ĠÐ¶ÐµÐ½Ñī": 1767,
      "ĠÐ½Ð°Ð¿ÑĢÐ°Ð²": 1768,
      "ÐļÐ¾Ð³Ð´Ð°": 1769,
      "ĠÑģÐ»ÑĥÑĩÐ¸Ð»Ð¾ÑģÑĮ": 1770,
      "ĠÑħÐ¾ÑĢÐ¾ÑĪÐ¾": 1771,
      "ÑģÑĤÐ¾": 1772,
      "ĠÑģÑĩÐ¸ÑĤ": 1773,
      "ĠÐ½Ð°Ð¹": 1774,
      "ĠÐ²ÐµÐ´ÑĮ": 1775,
      "ĠÐ¼Ð¸Ð¼Ð¾": 1776,
      "ÑĪÐ»Ð°": 1777,
      "ÐµÑĢÐ½": 1778,
      "ÐµÐ½Ð½ÑĭÐ¼": 1779,
      "ÑİÑī": 1780,
      "ĠÐ·Ð½Ð°Ð»": 1781,
      "ĠÑģÑĤÑĢ": 1782,
      "ÐµÐ»ÑĮÐ·Ñı": 1783,
      "ÐµÐ·Ð¶": 1784,
      "ĠÐľÐ°Ð½Ð½": 1785,
      "ĠÑģÐ²Ð¾Ð¸Ð¼": 1786,
      "ĠÐ¾Ð´Ð½Ð°ÐºÐ¾": 1787,
      "ĠÐ´ÑĢÑĥÐ³Ð°": 1788,
      "ĠÐ¾Ð¿ÑıÑĤÑĮ": 1789,
      "ĠÐ½Ð¸ÐºÑĤÐ¾": 1790,
      "ĠÐĽÐ¾Ð½Ð´": 1791,
      "Ð°ÑĤÐµÐ»ÑĮÐ½Ð¾": 1792,
      "ĠÐ½ÑĥÐ¶Ð½Ð¾": 1793,
      "ĠÑģÐ¾Ð³Ð»Ð°Ñģ": 1794,
      "ÑıÑħ": 1795,
      "Ð½Ð¸Ñħ": 1796,
      "ĠÐ¿Ð¾ÑģÑĤÑĥÐ¿": 1797,
      "Ð¾Ð±Ð½Ð¾": 1798,
      "Ð¸Ð²Ð°ÑıÑģÑĮ": 1799,
      "ĠÑģÑĤÐ°Ð»Ð¾": 1800,
      "ĠÐ¾Ð±Ð¾": 1801,
      "ĠÑĪÐµÐ¿": 1802,
      "ĠÑģÐ¿ÑĥÑģÑĤ": 1803,
      "ĠÑģÐ¿Ð¾ÐºÐ¾Ð¹": 1804,
      "ÐµÑģÑĤÑĥÐ¿": 1805,
      "ĠÐ¾Ð´Ð½Ð°": 1806,
      "ĠÐ¾Ð´Ð½Ñĥ": 1807,
      "ĠÐ¢Ð²Ð¸": 1808,
      "ĠÐ¢Ð¾Ð±Ð¸": 1809,
      "ĠÑģÐ¾Ð±ÑģÑĤÐ²ÐµÐ½": 1810,
      "ÑģÑĤÐ²Ð¾Ð²Ð°Ð»": 1811,
      "ÐµÑĢÑĤÐ²": 1812,
      "ĠÐ³ÑĢÐ¾Ð±Ð¾Ð²": 1813,
      "ĠÐ³Ð»ÑĥÐ±Ð¾Ðº": 1814,
      "ĠÑģÐ¾Ð¾Ð±Ñī": 1815,
      "Ð»Ð°Ð³": 1816,
      "ÑĥÐ»ÑĮ": 1817,
      "Ð²Ð°Ð»": 1818,
      "Ð»Ð¸Ð½Ð³": 1819,
      "Ð½ÑĥÑĤÑĮÑģÑı": 1820,
      "ĠÐºÐ°ÐºÑĥÑİ": 1821,
      "ĠÑģÐ²Ð¾ÐµÐ¼": 1822,
      "ĠÐ²ÐµÑĢÐ½Ð¾": 1823,
      "ÑĢÐ°Ð·Ð¸Ð»": 1824,
      "ÐľÐ¾Ð»ÑĩÐ°Ð»Ð¸Ð½": 1825,
      "ĠÑĤÑĢÐµÐ²": 1826,
      "Ð¢Ð°Ðº": 1827,
      "ĠÐºÐ¾ÑĢÐ¾ÑĤ": 1828,
      "ĠÐ´ÑĢÐ¾Ð¶": 1829,
      "ĠÐ´ÑĢÑĥÐ·": 1830,
      "ĠÐ³ÑĢÑıÐ·": 1831,
      "Ð»ÑģÑı": 1832,
      "Ð½ÐµÐ³Ð¾": 1833,
      "ĠÐºÑĢÑĭ": 1834,
      "ĠÐ´Ð°Ð²": 1835,
      "ÐµÐ´Ð¾Ð¼": 1836,
      "ĠÐ¾ÑĤÐ´": 1837,
      "ÑĢÐ°ÑĦ": 1838,
      "ĠÐ³ÑĥÐ±": 1839,
      "ĠÐ²ÑģÑİ": 1840,
      "ĠÐļÑĤÐ¾": 1841,
      "Ð¾Ð¿ÑĭÑĤ": 1842,
      "ĠÐŀÐ»Ð¸Ð²ÐµÑĢÑĥ": 1843,
      "ÐĿÐ¾": 1844,
      "ĠÐĵÐ°ÑĢÑĢÐ¸": 1845,
      "ĠÐ´Ð¾Ð¼Ðµ": 1846,
      "ĠÑĥÐºÐ°Ð·": 1847,
      "ĠÐ²Ð¾ÑģÐ¿": 1848,
      "ĠÐ½Ð¾Ð³Ð¸": 1849,
      "ĠÐ¿ÑĢÐµÐ¶Ð´Ðµ": 1850,
      "ÑĢÐ¸ÑĤÐ»Ñģ": 1851,
      "II": 1852,
      "ÐµÐµÑĤÑģÑı": 1853,
      "ĠÑģÐ±": 1854,
      "ĠÐ½Ð°Ð³": 1855,
      "ĠÐ²Ð»Ð°": 1856,
      "ĠÐ¾Ð¶": 1857,
      "ÑĪÑĥÑİ": 1858,
      "ĠÐ¿ÑĢÐµÑģÑĤÑĥÐ¿": 1859,
      "ĠÐ¿Ð¾Ð»Ð¸": 1860,
      "ĠÐ¿Ð¾ÑĢÑĥ": 1861,
      "ĠÑģÑĤÑĥÐ»": 1862,
      "ÑģÑĤÐ²ÐµÐ½Ð½Ð¾": 1863,
      "ĠÑįÑĤÐ¸Ð¼Ð¸": 1864,
      "ĠÐ¿Ð¾Ð´Ð½Ð¸Ð¼": 1865,
      "ĠÐºÐ¾ÑĤÐ¾ÑĢÐ¾Ðµ": 1866,
      "ÑıÑĤÐµÐ»ÑĮ": 1867,
      "ĠÐ·Ð½Ð°ÑĤÑĮ": 1868,
      "ĠÐ³ÑĢÐ°Ð±": 1869,
      "ÐĲÑħ": 1870,
      "ÐĽÐ¸Ð·Ð°": 1871,
      "ĠÑģÐ¼ÐµÑĢÑĤÐ¸": 1872,
      "Ð°Ñī": 1873,
      "ĠÑģÐµÑĢ": 1874,
      "ĠÑģÑĩÐ°": 1875,
      "ĠÐ½ÐµÐ³Ð¾Ð´": 1876,
      "ĠÐºÐ°Ð·": 1877,
      "ĠÐ¼Ð°Ð»Ð¾": 1878,
      "ĠÐ±ÑĥÐ¼": 1879,
      "Ð¾Ð²Ð°Ð»": 1880,
      "ĠÐ¿ÑĢÐµÐ·": 1881,
      "Ð½Ð¾Ñİ": 1882,
      "Ð¸Ð¼Ð¾Ð¼Ñĥ": 1883,
      "ĠÐ²ÑģÐµÐ³Ð¾": 1884,
      "ĠÐľÐ¸ÑģÑĤÐµÑĢ": 1885,
      "ÑĥÐ¶Ðµ": 1886,
      "ÑĪÐµÐµ": 1887,
      "ĠÑĢÑĥÐºÐ¾Ð¹": 1888,
      "Ð¸ÑĤÐµÑģÑĮ": 1889,
      "ĠÐ²Ð¾Ð·Ð¼Ð¾Ð¶": 1890,
      "ÐĴÐ¾ÑĤ": 1891,
      "ĠÐ½ÐµÑĤÐµÑĢÐ¿": 1892,
      "ĠÑĩÐ°ÑģÑĤÐ¾": 1893,
      "ĠÐ·Ð°Ð±Ð¾ÑĤ": 1894,
      "ĠÑģÑĤÐ°ÑĢÑĥ": 1895,
      "ĠÐ·Ð°Ð´ÑĥÐ¼": 1896,
      "ĠÐ²Ð¾Ð»Ð¾Ñģ": 1897,
      "ĠÐ´Ð¾Ð»Ð¶Ð½Ñĭ": 1898,
      "ĠÐ»ÐµÑģÑĤÐ½Ð¸ÑĨÐµ": 1899,
      "ĠÑģÐ»ÑĥÑĩÐ°Ðµ": 1900,
      "Ð°Ð½Ð¾": 1901,
      "ÑıÐ»Ð¸": 1902,
      "ÑĭÐ¿": 1903,
      "ÑĭÑģÐº": 1904,
      "ĠÑģÑĥÐ¼": 1905,
      "ĠÐ²Ð½Ð¸Ð·": 1906,
      "Ð²Ð¾Ð·": 1907,
      "ĠÐ¾ÐºÐ¾": 1908,
      "Ð°Ð»Ð¾Ð·": 1909,
      "ÐµÐ½Ð½Ð¾Ð³Ð¾": 1910,
      "ĠÐ±Ð¾Ð¶Ðµ": 1911,
      "ĠÐ¿ÑĢÐµÐ²": 1912,
      "ĠÐ¿ÑĢÐ¾Ñĩ": 1913,
      "Ð°ÐºÐ¾Ð½ÐµÑĨ": 1914,
      "Ð±Ð°": 1915,
      "Ð½Ð¾ÑģÑĤÑĮÑİ": 1916,
      "ĠÐ¿Ð¾Ð½Ð¸Ð¼": 1917,
      "Ð°ÑĢÐ»": 1918,
      "Ð°Ð½Ð´": 1919,
      "ĠÑĤÐ°ÐºÐ¸Ðµ": 1920,
      "Ð¾ÑģÑĤÐ°Ð²": 1921,
      "ÑīÐµÐµ": 1922,
      "ĠÐ¿ÑĢÐµÐ´ÑģÑĤÐ°Ð²": 1923,
      "ĠÐ¿ÑĢÐµÐ´Ð»Ð¾Ð¶": 1924,
      "ĠÐ¸Ð¼Ðµ": 1925,
      "ĠÐ¾ÐºÐ½Ð°": 1926,
      "ĠÐłÐ°Ð·": 1927,
      "ĠÐ£Ð¶": 1928,
      "ÐĵÐ»Ð°Ð²Ð°": 1929,
      "ĠÐ½Ð°Ð²ÐµÑĢ": 1930,
      "ĠÐ½ÐµÐ·Ð½Ð°ÐºÐ¾Ð¼": 1931,
      "ĠÐºÐ½Ð¸Ð³": 1932,
      "ĠÐ¸Ð´ÑĤÐ¸": 1933,
      "ĠÐ±Ð¸Ð´Ð»": 1934,
      "ĠÐ¿ÑĢÐ¾ÐºÐ»Ñı": 1935,
      "ÑĢÐ¾ÑĩÐµÐ¼": 1936,
      "Ð°Ð»Ð¾Ð·ÑĥÐ±": 1937,
      "Ġ.": 1938,
      "Ð¾ÑģÐº": 1939,
      "Ð¸ÑĩÐµÑģÐº": 1940,
      "ÑĢÐµÑģÑĤ": 1941,
      "ĠÑģÐ¾Ð¿": 1942,
      "ĠÐ¿Ð»Ð°": 1943,
      "ĠÐ¿Ð¾Ð»ÑĮÐ·": 1944,
      "ÑĤÐ¾Ð½": 1945,
      "ĠÐ¿ÑĢÐ¾Ð³": 1946,
      "ĠÑĤÑĢÐ¾": 1947,
      "ĠÑĤÑĥÐ´Ð°": 1948,
      "Ð±Ñĭ": 1949,
      "Ð¹ÑĤÐ¸": 1950,
      "ĠÐ»Ð¸ÑĪ": 1951,
      "ĠÐ¿ÐµÑĢÐµÐ±": 1952,
      "ÑĥÑĪÐºÐ°": 1953,
      "ĠÐ±ÑĥÐ´Ñĥ": 1954,
      "ĠÑģÐ°Ð¼Ð¾Ð³Ð¾": 1955,
      "ĠÐĺÐ·": 1956,
      "ĠÐ¼ÑĭÑģÐ»Ð¸": 1957,
      "ĠÐ¼Ð¾Ð³Ð»Ð¸": 1958,
      "ĠÑĦÑĥÐ½": 1959,
      "ĠÑģÐ¿ÑĢÐ¾ÑģÐ¸Ð»Ð°": 1960,
      "ĠÐ·Ð°Ð³Ð¾Ð²Ð¾ÑĢ": 1961,
      "Ð½Ð°ÑĩÐ°Ð»Ð°": 1962,
      "Ð°ÑģÐº": 1963,
      "Ð¸ÑĨ": 1964,
      "ĠÐ½ÑĢÐ°Ð²": 1965,
      "ÑĩÐµÐ¼": 1966,
      "ĠÐºÐ¸Ð²": 1967,
      "ÐµÑĢÑģ": 1968,
      "Ð°ÐºÐ¸": 1969,
      "ĠÐ·Ð½": 1970,
      "ĠÑĥÑħ": 1971,
      "Ð·Ð°": 1972,
      "Ð³Ð¸Ð½Ñı": 1973,
      "ĠÐ»Ð°Ð²": 1974,
      "ĠÐºÐ°ÐºÐ¸Ð¼": 1975,
      "ĠÑģÑĤÐµÐ½": 1976,
      "ĠÐĳÑĢÐ¸ÑĤÐ»Ñģ": 1977,
      "Ð½ÑıÑĤÑĮ": 1978,
      "ĠÐļÐ½Ñı": 1979,
      "ĠÑĢÐ°ÑģÐ¿Ð¾Ð»Ð¾Ð¶": 1980,
      "ĠÐ²Ð¸Ð´ÐµÑĤÑĮ": 1981,
      "ĠÐ¼ÑĭÑģ": 1982,
      "ĠÐ²Ð¾Ð·Ð´Ñĥ": 1983,
      "ĠÑħÐ¾ÑĤÐ¸ÑĤÐµ": 1984,
      "ĠÐ¿Ð¾ÑĩÐµÐ¼Ñĥ": 1985,
      "ĠÐ¼ÐµÑģÑĤÐµ": 1986,
      "ĠÐ¿ÑĢÐ¾Ð¸Ð·Ð½ÐµÑģ": 1987,
      "ĠÑĤÐ¾ÑĢÐ¶Ðµ": 1988,
      "Ð»ÐµÐºÑģ": 1989,
      "Ð¸Ð¶Ñĥ": 1990,
      "Ð°Ð¿Ð¸ÑĤÐ°Ð½": 1991,
      "Ð°ÑĢÐ»Ð¾ÑĤÑĤ": 1992,
      "ĠÐĸ": 1993,
      "ÑĤÐ¾Ð¼": 1994,
      "Ð½ÐµÐ¼": 1995,
      "ÑĢÐ°Ð»": 1996,
      "ÑĢÐ¾Ðº": 1997,
      "ĠÐ²ÑģÑĤ": 1998,
      "ĠÐ²ÑĤÐ¾ÑĢ": 1999,
      "ĠÐ²Ð°Ð¶": 2000,
      "ÐµÐ½Ð½Ð¾Ð¹": 2001,
      "ĠÐ¿Ð¾ÑģÑĤÐ°Ð²": 2002,
      "ĠÐ¿Ð¾ÑĢÑıÐ´": 2003,
      "Ð½ÑĥÐ»Ð¸ÑģÑĮ": 2004,
      "ÑģÐºÐ¾ÑĢ": 2005,
      "ÑģÐºÐ¸Ñħ": 2006,
      "ĠÑģÐ²ÐµÑĤÐµ": 2007,
      "Ð°Ð½Ð½ÑĭÐ¹": 2008,
      "ÐµÑĩÐµÐ½Ð¸Ðµ": 2009,
      "ÐºÑĥÑİ": 2010,
      "ĠÐļÐ»ÐµÐ¹": 2011,
      "ĠÐ¿ÐµÑĢÐµÐ²": 2012,
      "Ð°Ð½Ð¸ÐµÐ¼": 2013,
      "ĠÐ´Ð²ÑĥÑħ": 2014,
      "ĠÐ¾Ð¿ÑĥÑģÑĤ": 2015,
      "ĠÐ¼Ð¾Ð»Ð¾Ð´Ð°Ñı": 2016,
      "Ð¾ÑħÐ¾ÑĤ": 2017,
      "ĠÐ½ÐµÐ¿ÑĢÐ¸": 2018,
      "ĠÐ¼ÐµÑģÑĤÐ°": 2019,
      "ÑĤÐµÑĢÐµÑģ": 2020,
      "ĠÐ¶ÐµÐ½ÑīÐ¸Ð½Ñĭ": 2021,
      "ĠÐ²ÑĭÑģÐ¾Ðº": 2022,
      "ĠÑģÐ¾Ð²ÐµÑĢÑĪÐµÐ½Ð½Ð¾": 2023,
      "ĠÐ²Ð¾Ð·Ð²ÑĢÐ°Ñī": 2024,
      "Ð²Ð¸Ð´Ð¸Ð¼Ð¾Ð¼Ñĥ": 2025,
      "ĠÐļÐ»ÐµÐ¹Ð¿Ð¾Ð»": 2026,
      "\".": 2027,
      "ÐŃ": 2028,
      "ĠX": 2029,
      "Ð²Ðµ": 2030,
      "ĠÐºÐ°": 2031,
      "ÐµÑĢÐº": 2032,
      "ÑİÐ±": 2033,
      "ÑİÑģÑĮ": 2034,
      "Ð½Ð¸Ñĩ": 2035,
      "ĠÐ½Ð°ÑĪ": 2036,
      "Ð¾Ð±Ð¾Ð´": 2037,
      "Ð¾ÑģÐ¾Ð±": 2038,
      "ĠÐ¾Ð±Ð²": 2039,
      "ĠÐ³Ð¾ÑģÐ¿": 2040,
      "ĠÐļÐ°Ð·": 2041,
      "ÑĥÐ¼ÐµÐµÑĤÑģÑı": 2042,
      "ĠÐ¿Ð¾Ð»Ñĥ": 2043,
      "ĠÐĲÐ»ÐµÐºÑģ": 2044,
      "ĠÐ´Ð²Ð¾ÑĢ": 2045,
      "ĠÐ¼Ð¾Ð³Ð»Ð°": 2046,
      "ĠÐ²ÐµÑĢÐ½ÑĥÐ»ÑģÑı": 2047,
      "ĠÐ¨Ð°ÑĢÐ»Ð¾ÑĤÑĤ": 2048,
      "ĠÐ¼ÐµÑĢÐµ": 2049,
      "ĠÑĤÑıÐ¶ÐµÐ»": 2050,
      "ĠÐ½Ð°Ð´Ð·Ð¸ÑĢÐ°ÑĤÐµÐ»ÑĮÐ½Ð¸ÑĨÐ°": 2051,
      "ÑĢÐµÑĨ": 2052,
      "ĠÐ¿Ñĥ": 2053,
      "ĠÐ½Ð°Ð»": 2054,
      "ÑĩÐ°Ð¹": 2055,
      "Ð²Ñĭ": 2056,
      "Ð´ÐµÑĢÐ¶": 2057,
      "Ð¾Ð¼Ð½": 2058,
      "ĠÐ¿ÑĢÐ¾Ð¿": 2059,
      "ĠÐ½ÐµÑİ": 2060,
      "Ð½Ð¸Ð¸": 2061,
      "Ð¾ÑģÐ±": 2062,
      "ĠÐ¶Ð°ÑĢ": 2063,
      "ĠÐ¶ÐµÑģÑĤ": 2064,
      "ĠÑģÐ²ÑıÐ·": 2065,
      "ĠÐ¿Ð¾Ð´Ð¾Ð±": 2066,
      "Ð½ÑıÑĤ": 2067,
      "ÑĢÑĭÑĤ": 2068,
      "Ð°Ð½Ð¸Ð¹": 2069,
      "ĠÐĵÐ´Ðµ": 2070,
      "ĠÐĽÐ¾ÑģÐ±": 2071,
      "ĠÑģÐ»ÑĥÑĩÐ°Ð¹": 2072,
      "ÐµÑİÑģÑĮ": 2073,
      "ĠÐ¿Ð¾ÑģÐ¼Ð¾ÑĤÑĢÐµÐ»": 2074,
      "ĠÐ³Ð¾ÑģÐ¿Ð¾Ð´": 2075,
      "Ð»Ð°Ðº": 2076,
      "ÑıÐ»Ð°": 2077,
      "ĠÑģÑĥÑīÐµ": 2078,
      "ĠÐ¿Ð°Ð»ÑĮ": 2079,
      "ĠÐ²Ð¾ÑĪÐµÐ»": 2080,
      "Ð¼Ñĭ": 2081,
      "Ð¼Ð°Ð½": 2082,
      "ĠÐ¼Ð¾ÑĢ": 2083,
      "ÐµÑĤÑĥ": 2084,
      "ĠÐ¿ÑĢÑıÐ¼": 2085,
      "ĠÑĩÐ°Ð¹": 2086,
      "ÐµÐ»ÐµÐ½": 2087,
      "Ð¾Ð¹ÑĤÐ¸": 2088,
      "ĠÑĢÐµÐ·": 2089,
      "Ð°Ð²Ð¸Ð»": 2090,
      "ĠÐ¾ÑĤÐ²ÐµÑĢ": 2091,
      "Ð°Ð´Ð¸": 2092,
      "ÑĤÐ¾ÑĢÐ¾Ð¶": 2093,
      "ĠÑģÑĤÐ°Ðº": 2094,
      "ÐºÑĥÐ´Ð°": 2095,
      "ÑĢÐ¸ÑĩÐ°Ð»": 2096,
      "ÑĩÐ¸Ð½Ñĭ": 2097,
      "ÑĥÐ¶ÐµÐ»Ð¸": 2098,
      "ĠÑģÑĤÐ¾ÑıÐ»": 2099,
      "ĠÐ¿ÑĢÐ¾Ð¸Ñģ": 2100,
      "ĠÐ»ÑİÐ±Ð¾Ð¿ÑĭÑĤ": 2101,
      "ĠÑĥÑĤÑĢÐ¾Ð¼": 2102,
      "Â».": 2103,
      "ĠÑĥÐ»Ð¸ÑĨÐµ": 2104,
      "ĠÑĤÑĢÑĥÐ´": 2105,
      "ĠÐ¸ÑģÑĤÐ¾ÑĢ": 2106,
      "ĠÐ²Ð½Ð¸Ð¼Ð°Ð½Ð¸Ðµ": 2107,
      "ĠÐ²Ð½Ð¸Ð¼Ð°Ð½Ð¸Ñı": 2108,
      "ĠÐ´Ð»Ð¸Ð½": 2109,
      "ĠÐ¾ÑĤÑĩÐ°Ñı": 2110,
      "ĠÐļÐ°Ð·Ð±": 2111,
      "),": 2112,
      "Ð°Ð½Ñĭ": 2113,
      "ÑĤÐ°Ð»": 2114,
      "Ð»ÐµÐ¶": 2115,
      "ÑĢÐµÐ´Ð¸": 2116,
      "ÑĭÑĤÑĮ": 2117,
      "ĠÐ½ÐµÐ»ÑĮÐ·Ñı": 2118,
      "ĠÐ´Ð¾Ð³": 2119,
      "ĠÐ±Ð¾ÑĢ": 2120,
      "Ð¾Ð»Ñĩ": 2121,
      "Ð¾Ð»ÑĤÐµÑĢ": 2122,
      "Ð½Ð¸Ð²": 2123,
      "Ð½Ð¸ÑĤÐµ": 2124,
      "ÑģÐºÐ¸Ð¼": 2125,
      "Ð¸Ð½ÑģÑĤÐ²ÐµÐ½": 2126,
      "ĠÐ²ÑĭÑĢÐ°Ð¶": 2127,
      "ĠÐ¡Ð¿": 2128,
      "ĠÑģÐ²Ð¾ÐµÐ¼Ñĥ": 2129,
      "ĠÐ·Ð½Ð°ÑĩÐ¸ÑĤ": 2130,
      "ĠÐ¿Ð¾ÑĤÐµÑĢ": 2131,
      "ĠÐ²Ð¾Ð·ÑĢÐ°Ð·Ð¸Ð»": 2132,
      "ĠÐ»ÑİÐ±ÐµÐ·": 2133,
      "ÑıÑĤÑĮÑģÑı": 2134,
      "ĠÐµÐ²ÑĢÐµÑı": 2135,
      "ĠÑģÐ´ÐµÐ»Ð°ÑĤÑĮ": 2136,
      "ĠÐ¿ÑĢÐ¸Ð½ÐµÑģ": 2137,
      "Ð°ÑĩÐµÐ¼": 2138,
      "ĠÐ²Ð·Ð´Ð¾Ñħ": 2139,
      "ĠÑģÑĤÐ¾ÑĢÐ¾Ð½Ñĭ": 2140,
      "ĠÑĥÐ´Ð°ÑĢ": 2141,
      "ĠÐ±ÐµÑģÐ¿Ð¾ÐºÐ¾Ð¹": 2142,
      "ĠÐºÐ¾Ð½ÐµÑĩÐ½Ð¾": 2143,
      "ĠÐŁÐµÑĩÐ¾ÑĢÐ¸Ð½": 2144,
      "ĠÑģÐµÐºÑĥÐ½": 2145,
      "ĠÐ²Ð¾Ð·Ð´ÑĥÑħ": 2146,
      "Ð°ÑĤÐ¾": 2147,
      "ÑĢÐµÐ¿": 2148,
      "ĠÑģÐ¶": 2149,
      "ĠÐ½ÐµÐ½": 2150,
      "ĠÐ²Ð¸Ñģ": 2151,
      "ĠÐ¾Ð³Ð¾": 2152,
      "Ð¼Ð¸ÑĤ": 2153,
      "ĠÐ´Ð°Ð²Ð½Ð¾": 2154,
      "Ð°ÐºÑĤÐ¸": 2155,
      "ĠÐ·Ð°Ñı": 2156,
      "ĠÑĥÐ³Ð¾Ð»": 2157,
      "Ð±Ñĥ": 2158,
      "Ð·Ñĭ": 2159,
      "ĠÐ¿Ð¾ÑģÐ¿": 2160,
      "Ð°Ð²ÑĪÐ¸ÑģÑĮ": 2161,
      "ĠÐ¾ÑĤÑģ": 2162,
      "Ð¾Ð±Ð¾Ð¹": 2163,
      "ĠÑģÐºÐ¾Ð»ÑĮÐºÐ¾": 2164,
      "Ð¾Ð·ÑĢ": 2165,
      "ĠÑĤÐ¾ÑĩÐ½Ð¾": 2166,
      "Ð°Ð½Ð°Ð²": 2167,
      "Ð»Ð¾ÑģÑĮ": 2168,
      "ĠÐ¿Ð¾ÐºÐ°Ð·Ð°Ð»": 2169,
      "ĠÑģÐ°Ð¼Ð¾Ð¹": 2170,
      "ĠÐ¼Ð¾ÐµÐ³Ð¾": 2171,
      "ĠÐ¼Ð¾Ð¶ÐµÑĤÐµ": 2172,
      "ĠÐ´ÐµÐ»Ð°": 2173,
      "ĠÐ´ÐµÐ»Ð°ÑĤÑĮ": 2174,
      "ĠÐ³Ð¾Ð²Ð¾ÑĢÐ¸ÑĤ": 2175,
      "ĠÐ¡Ð°Ð¹ÐºÑģÐ°": 2176,
      "ĠÐ¾ÐºÐ½Ð¾": 2177,
      "ĠÐ·Ð°ÐºÐ»ÑİÑĩ": 2178,
      "ĠÑĥÐ´Ð¾Ð²Ð¾Ð»ÑĮ": 2179,
      "ĠÐ´Ð¾Ð»Ð¶Ð½Ð¾": 2180,
      "ĠÐ¾ÑģÐ¾Ð±ÐµÐ½Ð½Ð¾": 2181,
      "ĠÑĥÐ²Ð¸Ð´ÐµÐ»": 2182,
      "ÑĭÐ½ÑĩÐµ": 2183,
      "ĠÑĪÐ¸": 2184,
      "ÑĢÐ¾Ð³": 2185,
      "ĠÑģÐµÐ¼": 2186,
      "Ð²Ð¾Ð»": 2187,
      "ĠÐºÐ°Ñģ": 2188,
      "ĠÐ¼ÐµÑĪ": 2189,
      "ĠÐ±Ð°ÑĢ": 2190,
      "ĠÐ·Ð´Ð¾ÑĢÐ¾Ð²": 2191,
      "ÑĨÐµÐ²": 2192,
      "ÑĨÐ¸Ð¸": 2193,
      "ÑģÐºÐ¸": 2194,
      "ĠÐ³Ð»ÑıÐ´": 2195,
      "ĠÑıÑĢ": 2196,
      "ĠÐ¾Ð±ÑģÑĤÐ¾": 2197,
      "ÐµÐ½ÑĮÐµ": 2198,
      "ĠÐ¼Ð¸ÑģÑĤÐµÑĢÑĥ": 2199,
      "ĠÑģÐ¼ÐµÑĪ": 2200,
      "ĠÐ·Ð½Ð°Ñĩ": 2201,
      "Ð½Ð¸ÑĨÑĭ": 2202,
      "ĠÐ´Ð¾Ð»Ð³": 2203,
      "ĠÑĥÐ¼Ð°": 2204,
      "ĠÑĤÐµÐ¼Ð½Ð¾": 2205,
      "ĠÐ¿Ð¾ÑĩÑĤ": 2206,
      "ĠÐ½Ð°Ð·ÑĭÐ²": 2207,
      "ĠÐºÐ¾Ð½ÑĨÐµ": 2208,
      "ĠÐ½Ð°Ð¼ÐµÑĢ": 2209,
      "ĠÐ¾Ð±ÑĬÑıÐ²": 2210,
      "ĠÐ²ÐµÑģÐµÐ»": 2211,
      "ĠÐ¾ÐºÐ¾Ð½": 2212,
      "ĠÐ·Ð°ÑıÐ²": 2213,
      "Ð¸Ð¾Ð½": 2214,
      "ĠÑĤÐµÑĢ": 2215,
      "ĠÑĤÐµÑĩÐµÐ½Ð¸Ðµ": 2216,
      "Ð±Ð»Ð°": 2217,
      "Ð¾Ð»Ð¾": 2218,
      "Ð½Ð°ÑĩÐµ": 2219,
      "ÑĨÐ¾Ð²": 2220,
      "ÑģÐºÐ¸Ðµ": 2221,
      "ĠÐ³Ð°Ð»": 2222,
      "Ð¾ÐºÐ°": 2223,
      "Ð¾Ð¶ÐµÑĤ": 2224,
      "ĠÑģÐ»ÐµÐ¿": 2225,
      "ÐµÐ²Ð½Ð°": 2226,
      "ĠÑħÑĥÐ¶Ðµ": 2227,
      "ĠÑĤÐ°ÐºÐ¾Ð³Ð¾": 2228,
      "ĠÐ²ÑģÐµÐ¹": 2229,
      "ĠÐĳÐ¾Ð»ÑĤÐµÑĢ": 2230,
      "ĠÐ½Ð¸Ð·": 2231,
      "Ð½ÑıÑı": 2232,
      "ÐµÑĪÐµÐ½": 2233,
      "Ð¾Ð½Ñĩ": 2234,
      "ĠÑģÐ¼ÐµÑħ": 2235,
      "Ð¸ÑĤÐµÐ»ÑĮÐ½ÑĭÐ¹": 2236,
      "Ð¸ÑĤÐµÐ»ÑĮÐ½ÑĭÐ¼": 2237,
      "Ð¡Ðº": 2238,
      "ĠÐºÐ¾Ð¼Ð¿": 2239,
      "ÐŁÐ¾Ñģ": 2240,
      "ĠÐ³ÑĢÐ¾Ð·": 2241,
      "ĠÐ¿ÑĢÐ°Ð²Ð¾": 2242,
      "ĠÑģÑĤÑĢÐ°ÑĪ": 2243,
      "ĠÐ¸ÑģÐ¿ÑĥÐ³": 2244,
      "Ð°Ð³Ð¾ÑĢÐµÑĨ": 2245,
      "ĠÐ»Ð¾ÑĪÐ°Ð´ÑĮ": 2246,
      "ĠÐ¾ÑģÐ²ÐµÐ´Ð¾Ð¼": 2247,
      "ĠÐ¾Ð±ÑĢÐ°Ð·Ð¾Ð¼": 2248,
      "Ð²Ð¾Ð·ÑĮ": 2249,
      "ĠÐ¾Ð±ÑģÑĤÐ¾ÑıÑĤÐµÐ»ÑĮ": 2250,
      "Ð°Ð³Ð¾ÑĢÐµÑĨÐºÐ¸Ð¹": 2251,
      "ÑĢÐµÐ·": 2252,
      "Ð´Ð¾": 2253,
      "Ð¾Ð²Ð¾": 2254,
      "ÐµÑĤÐµÐ»ÑĮ": 2255,
      "Ð½Ð¾ÑĪ": 2256,
      "Ð¾Ð»Ð¾ÑĤ": 2257,
      "Ð³Ðµ": 2258,
      "ĠÐ»Ð°ÑģÐº": 2259,
      "Ð¾ÑĢÐ°": 2260,
      "Ð¸Ð²ÑĪÐ¸Ð¹": 2261,
      "ĠÐŀÐ±": 2262,
      "ĠÑģÑĤÐ°Ð²": 2263,
      "Ð²ÐµÑĢÐ¶": 2264,
      "ĠÑģÐ»Ð°Ð²": 2265,
      "ÐµÐºÐ¸": 2266,
      "ĠÑĪÑĤ": 2267,
      "ĠÑģÐ¿ÑĢÐ°Ð²": 2268,
      "ĠÐ¿ÐµÑĢÐµÐ¼": 2269,
      "ĠÑĢÑĥÐº": 2270,
      "ĠÐ±ÑĥÐ´ÑĮ": 2271,
      "ĠÐ´ÑĢÑĥÐ³Ð¸Ðµ": 2272,
      "ĠÑģÑĤÐ¾Ð»ÑĮÐºÐ¾": 2273,
      "ĠÐ¼Ð¾Ñİ": 2274,
      "ĠÐ»Ð¸ÑĨÐµ": 2275,
      "ĠÐºÐ°ÑĢÐ¼Ð°": 2276,
      "ĠÐ²Ð¾Ð»Ð½": 2277,
      "ĠÐ¿ÐµÑĢÐ²ÑĭÐ¹": 2278,
      "ĠÐ²ÐµÑĩÐµÑĢÐ¾Ð¼": 2279,
      "ĠÐ²ÑģÑĤÑĢÐµÑĩ": 2280,
      "ĠÑıÐ²Ð»Ñı": 2281,
      "ĠÑģÐºÐ¾ÑĢÐ¾": 2282,
      "ĠÑģÐºÐ¾ÑĢÐµÐµ": 2283,
      "ÑĭÐºÐ½Ð¾Ð²": 2284,
      "ĠÐºÐ½ÑıÐ¶Ð½Ð°": 2285,
      "ĠÐ´Ð°Ð»ÑĮÑĪÐµ": 2286,
      "Ð¾ÑıÑĤ": 2287,
      "ÑĢÐ¾ÑĪ": 2288,
      "Ð²Ð°ÑĤÑĮ": 2289,
      "Ð²Ð°Ð½": 2290,
      "ĠÐ¾Ð³Ð»Ñı": 2291,
      "ĠÐºÑĢÑĥÐ³": 2292,
      "ĠÐ¼ÑĥÑĩ": 2293,
      "ĠÐ´ÑĭÐ¼": 2294,
      "ĠÐ¿ÑĢÐ¾Ð¼": 2295,
      "ĠÑĤÐ²Ð¾": 2296,
      "Ð¾Ð±ÑĢÐ°Ð¶": 2297,
      "ÑĢÐ°ÑĤÑĮÑģÑı": 2298,
      "ĠÐ²ÑģÐ»ÐµÐ´": 2299,
      "ĠÐ·Ð°Ð½Ð¸Ð¼": 2300,
      "ĠÑģÐ¿Ð¾ÑģÐ¾Ð±": 2301,
      "ĠÐ§Ð°ÑĨÐºÐ¸Ð¹": 2302,
      "Ð±Ð»Ñİ": 2303,
      "ĠÐ¸Ð¼Ñı": 2304,
      "ĠÐĳÐ°Ð¼Ð±Ð»Ð°": 2305,
      "ÐµÑĢÑĮÐµÐ·": 2306,
      "ĠÐ·Ð°Ð¿ÐµÑĢ": 2307,
      "ĠÐ½Ð¾ÑĩÐ¸": 2308,
      "ĠÐ´ÑĥÐ¼Ð°Ñİ": 2309,
      "ĠÑĢÐ°Ð´Ð¸": 2310,
      "ĠÐ¿ÑĢÐ¸Ð·Ð½Ð°": 2311,
      "ĠÑİÐ½ÑĭÐ¹": 2312,
      "ĠÑħÐ¾ÑĤÐµÐ»Ð¾ÑģÑĮ": 2313,
      "ĠÐ¿ÑĢÐ¸ÑģÑĤÐ°Ð»ÑĮÐ½Ð¾": 2314,
      "ĠÐ½ÐµÐ¾Ð±ÑħÐ¾Ð´": 2315,
      "!\"": 2316,
      "ĠÐ¸Ð½Ð°ÑĩÐµ": 2317,
      "ĠÐ±Ð°Ð»": 2318,
      "ÑİÐ¼": 2319,
      "ĠÑĤÐ¾Ð¶Ðµ": 2320,
      "ĠÑĤÐ¾Ð²Ð°ÑĢ": 2321,
      "ĠÑĤÐ²ÐµÑĢÐ´": 2322,
      "ĠÑĩÐµÑģÑĤÑĮ": 2323,
      "ÐµÐ»Ñİ": 2324,
      "ĠÐ·ÑĥÐ±": 2325,
      "Ð¾Ð´Ð½Ð¾": 2326,
      "Ð½Ð¸ÐºÐ¾Ð²": 2327,
      "ĠÐ¿ÑĢÐ¸Ñĩ": 2328,
      "ĠÐĿÐ°ÐºÐ¾Ð½ÐµÑĨ": 2329,
      "ĠÐĳÐ°ÑĢ": 2330,
      "ĠÐ·Ð°Ñħ": 2331,
      "ĠÐŁÑĢÐ¾": 2332,
      "ĠÐºÐ¾ÑĤÐ¾ÑĢÑĭÐ¼": 2333,
      "Ð°Ð½Ð¸Ñİ": 2334,
      "ĠÐ§Ð¸ÑĤ": 2335,
      "ĠÐ¼Ð¾Ð»Ð¸": 2336,
      "ĠÑģÑĤÐ°ÑĢÐ¾Ð³Ð¾": 2337,
      "ÑĢÐ°Ð·Ñĥ": 2338,
      "ĠÐ³Ð»Ð°Ð·Ð°Ñħ": 2339,
      "ĠÐ»ÑİÐ±Ð¾Ð²": 2340,
      "ĠÐ·Ð°ÐºÑĢÑĭ": 2341,
      "ĠÐ¼Ð¸Ð»Ð°Ñı": 2342,
      "Ð¾Ð½ÐµÑĩÐ½Ð¾": 2343,
      "ĠÐ±Ð¾Ð»ÐµÐ·": 2344,
      "ĠÑĥÐ³ÑĢ": 2345,
      "ĠÐ±ÐµÐ´Ð½Ñı": 2346,
      "ĠÐ²ÐµÐ»Ð¸ÑĩÐ°Ð¹": 2347,
      "ĠÑĥÑģÐ¸Ð»Ð¸": 2348,
      "ĠÑĢÐ°ÑģÑģÐºÐ°Ð·": 2349,
      "ĠÐ¾Ð±ÑĬÑıÑģ": 2350,
      "ĠÑģÐ¾ÑģÑĤÐ¾Ñı": 2351,
      "ĠÐ¿Ð¾Ð²ÑĤÐ¾ÑĢÐ¸Ð»": 2352,
      "ĠÐ½Ð°Ð±Ð»Ñİ": 2353,
      "ĠÐ¿ÑĢÐ¸ÑĤÐ²Ð¾ÑĢ": 2354,
      "ĠÐ±ÐµÑĢÐµÐ³": 2355,
      "ĠÐ´ÐµÐ¹ÑģÑĤÐ²": 2356,
      "ĠÑĢÐ°Ð·Ð¼ÑĭÑĪ": 2357,
      "ĠÑģÑĤÐ°ÐºÐ°Ð½": 2358,
      "?\"": 2359,
      "Ð¸ÐµÐ¼": 2360,
      "Ð½ÐµÐ·": 2361,
      "ĠÑģÐµÑĢÑĮÐµÐ·": 2362,
      "ĠÐ¼ÐµÐ½": 2363,
      "ĠÑĤÐ¾Ð±Ð¾Ð¹": 2364,
      "ĠÑĩÐµÑĤÑĭ": 2365,
      "Ð¾Ð±ÑĢ": 2366,
      "Ð´Ð°Ð½": 2367,
      "ĠÑģÑĤÑĢÐ°Ð´": 2368,
      "Ð°Ð½Ð½Ð¾Ð¹": 2369,
      "ĠÑĤÐ°ÐºÐ¾Ð¼": 2370,
      "ĠÐ²ÑģÑĳ": 2371,
      "ÑĪÐ¸Ð±": 2372,
      "ÐµÐ¿ÐµÑĤÐ¸Ð»": 2373,
      "ÐµÐ»Ð¸Ð²Ð¾": 2374,
      "ĠÑģÐ¼Ðµ": 2375,
      "ĠÐ´ÑĢÑĥÐ³ÑĥÑİ": 2376,
      "ĠÐºÑĢÐµÑģ": 2377,
      "ĠÐ¾ÑģÐ½Ð¾Ð²": 2378,
      "ĠÐ¼Ð°Ð»ÑĮÑĩÐ¸ÑĪ": 2379,
      "ĠÐ³Ð¾Ð²Ð¾ÑĢÑİ": 2380,
      "ÐµÑħÐ°Ð»": 2381,
      "ĠÑģÐ¾Ð²ÐµÑĤ": 2382,
      "ĠÐ²Ð¿ÐµÑĩÐ°ÑĤ": 2383,
      "ÑİÑĤÑģÑı": 2384,
      "ĠÑģÐ¸Ð´ÐµÐ»Ð¸": 2385,
      "ĠÐ¿Ð¾Ð¶ÐµÐ»": 2386,
      "ĠÐ¿Ð¾Ð¶Ð°Ð»ÑĥÐ¹": 2387,
      "Ð½ÑİÑİ": 2388,
      "ĠÐ²ÑģÑĤÑĢÐµÑĤ": 2389,
      "ĠÐ¿ÑĢÐ¾Ð¸Ð·Ð²": 2390,
      "ÑĢÐµÐºÐ¸ÑĤ": 2391,
      "ĠÐľÐ°ÐºÑģÐ¸Ð¼ÑĭÑĩ": 2392,
      "ĠÐ¸Ð½ÑĤÐµÑĢÐµÑģ": 2393,
      "ĠÑħÐ»ÐµÐ±": 2394,
      "ĠÐ´ÑĥÑĪÐ¸": 2395,
      "ĠÐ½Ð°Ð²ÐµÑĢÑħ": 2396,
      "ĠÐĲÐ»ÐµÐºÑģÐ°Ð½Ð´": 2397,
      "ĠÐ¿Ð¾ÑģÐ¿ÐµÑĪ": 2398,
      "ÑĢÐµÑģ": 2399,
      "ĠÑģÐ¾ÑĢ": 2400,
      "ĠÐ¿ÑĥÑĤÑĮ": 2401,
      "ĠÐ²ÐµÐ´": 2402,
      "ĠÐ²ÐµÑī": 2403,
      "ÑĪÐµÐ¼Ñĥ": 2404,
      "ĠÐ±ÑĢÐ°ÑĤ": 2405,
      "ÑģÐºÐ°Ñı": 2406,
      "Ð¸Ð²Ð¾": 2407,
      "Ð°Ð´Ð½Ð¾": 2408,
      "ĠÑģÐºÐ²Ð¾Ð·ÑĮ": 2409,
      "ĠÐ¿ÑĢÐ¸Ð³": 2410,
      "ĠÐ¿ÑĢÐ¸ÑĪÐµÐ»": 2411,
      "Ð°ÑĤÐ°Ð»ÑĮ": 2412,
      "ĠÐ¾Ð±Ð°": 2413,
      "ĠÑģÐ²Ð¸Ð´": 2414,
      "ĠÐ¡Ð»": 2415,
      "ĠÑģÐ¿ÑĥÑģÐº": 2416,
      "Ð¾Ð½ÑĮ": 2417,
      "ÐĿÐ°": 2418,
      "ÐĿÐ¸": 2419,
      "ĠÐ¿Ð¾Ð»Ð¾Ð²": 2420,
      "ĠÐ¿Ð¾ÐºÐ»Ð¾Ð½": 2421,
      "ĠÐ³Ð»ÑĥÑħ": 2422,
      "ĠÐ´ÑĢÑĥÐ³Ð¸Ñħ": 2423,
      "ĠÐ²Ð¸Ð´Ð½Ð¾": 2424,
      "ĠÐ¾Ð¿ÑĢÐ°Ð²": 2425,
      "ĠÐ¿Ð¾Ð¼Ð¾Ð³": 2426,
      "ĠÑĩÐµÑĢÑĤ": 2427,
      "ĠÐ¤ÐµÐ´Ð¶Ð¸Ð½Ð°": 2428,
      "ĠÐ´ÑĥÐ¼Ð°Ð»": 2429,
      "Â»,": 2430,
      "ĠÑģÐ»ÑĭÑĪÐ°Ð»": 2431,
      "ĠÐ¾ÑģÑĤÐ°Ð½Ð¾Ð²Ð¸Ð»ÑģÑı": 2432,
      "ĠÐ¿Ð¾Ð´ÑĥÐ¼Ð°Ð»": 2433,
      "ĠÐ¸Ð·Ð²ÐµÑģÑĤÐ½Ð¾": 2434,
      "ĠÐ·Ð°Ð²ÑĤÑĢÐ°": 2435,
      "ĠÐ¶ÐµÐ½ÑīÐ¸Ð½": 2436,
      "ĠÐ¼ÐµÐ½ÐµÐµ": 2437,
      "ÐµÐ¿ÐµÑĤÐ¸Ð»Ð¾Ð²": 2438,
      "ĠÑģÐ°Ð´": 2439,
      "ÑĩÐµÑĢÐ°": 2440,
      "Ð´Ð¸": 2441,
      "ĠÐ¼Ð°ÑĤÑĮ": 2442,
      "ĠÐ´Ð¾Ð²": 2443,
      "Ð±Ðµ": 2444,
      "ÑĢÑĥÐ¶ÐµÐ½": 2445,
      "ĠÑģÑĤÑĥÐ¿": 2446,
      "ĠÐ¾Ð±Ðµ": 2447,
      "ĠÑħÐ²Ð°ÑĤ": 2448,
      "ĠÐ¿Ð¾Ð´Ð¾Ð·ÑĢ": 2449,
      "Ð¾Ð»ÑĮÐ½Ð¾": 2450,
      "ĠÐ¸Ð·ÑĥÐ¼": 2451,
      "ĠÐ°Ð½Ð³": 2452,
      "ĠÐļÑĢÐµÐºÐ¸ÑĤ": 2453,
      "ÑıÑĤÑģÑı": 2454,
      "ĠÐ»ÑİÐ±Ð»Ñİ": 2455,
      "ĠÑģÐ°Ð¼Ð¾Ðµ": 2456,
      "ĠÑģÐ¼ÐµÑĢÑĤ": 2457,
      "ÑĦÐ¸Ð»": 2458,
      "ÑīÐ¸ÐºÐ°": 2459,
      "ĠÐĵÑĢÐ¸": 2460,
      "ĠÐ·Ð½Ð°ÐµÑĪÑĮ": 2461,
      "ĠÐ¾ÑģÐ¼Ð¾ÑĤÑĢ": 2462,
      "ĠÐ¸Ð¼ÐµÐ»": 2463,
      "ĠÐ²ÐµÑĢÑħ": 2464,
      "ĠÑĦÐ¾Ð½Ð°": 2465,
      "ĠÐ½Ð¸ÐºÐ¾Ð³Ð¾": 2466,
      "ĠÑĤÑĢÐ°ÐºÑĤÐ¸": 2467,
      "ĠÐ½ÐµÐ¼ÐµÐ´Ð»ÐµÐ½Ð½Ð¾": 2468,
      "ĠÐ¸ÑģÐ¿Ð¾Ð»Ð½": 2469,
      "ĠÐ½Ð¾ÑĩÑĮÑİ": 2470,
      "ÑģÑĤÐ²Ð¾Ð²Ð°ÑĤÑĮ": 2471,
      "ĠÐ´Ð¾ÑĢÐ¾Ð³Ðµ": 2472,
      "ĠÐ´Ð¾ÑĢÐ¾Ð³Ð°Ñı": 2473,
      "ĠÑĥÐ±ÐµÐ´": 2474,
      "ÑĭÑĩÐ°Ð¹": 2475,
      "ĠÐ´Ð¾ÑģÑĤÐ¾Ð¹": 2476,
      "Ð¾Ð¹Ð´Ñı": 2477,
      "ĠÐºÑĢÐµÐ¿ÐºÐ¾": 2478,
      "ĠÐ¿ÑĢÐµÐ·ÑĢ": 2479,
      "ĠÐļÐ°Ð·Ð±Ð¸Ñĩ": 2480,
      "Ð½ÐµÐ·Ð°Ð¿": 2481,
      "ÑģÐ°": 2482,
      "ÑĢÐµÑĪ": 2483,
      "ÑĢÐ°Ð±": 2484,
      "ĠÑģÐ°Ð¼Ð¸": 2485,
      "ĠÐ¿Ð°Ð´": 2486,
      "ĠÐ½ÑĭÐ½ÑĩÐµ": 2487,
      "ĠÐ²Ð½ÐµÐ·Ð°Ð¿": 2488,
      "ÑĩÑĤÐ¾": 2489,
      "ĠÐ¼Ð¾Ð¼": 2490,
      "ĠÐ¼ÐµÐ´Ð»ÐµÐ½Ð½Ð¾": 2491,
      "ĠÐ¼ÑĢÐ°Ñĩ": 2492,
      "ÐµÑĢÑĭ": 2493,
      "ÐµÑĢÐ½Ð¾": 2494,
      "Ð»Ð¸Ð·": 2495,
      "Ð¾Ð´ÑĥÑĪ": 2496,
      "ĠÐ½ÐµÐ¸Ð·": 2497,
      "ĠÑĢÐµÐ²": 2498,
      "Ð½Ð°ÑĢÑĥÐ¶": 2499,
      "ĠÐ»Ð¾Ð²": 2500,
      "ĠÐºÐ°ÐºÐ¾Ð³Ð¾": 2501,
      "ĠÐºÐ¾ÑģÑĤ": 2502,
      "ĠÐ¾Ð±ÐµÐ´": 2503,
      "ĠÐ¿Ð¾Ð´ÑĤ": 2504,
      "ĠÐ¿Ð¾Ð´Ð¾ÑĪÐµÐ»": 2505,
      "ÐµÐ»ÑĮÑİ": 2506,
      "ĠÐĳÐ»ÐµÑĤ": 2507,
      "ĠÐ¸Ð·Ð¼": 2508,
      "ĠÐŁÑĢÐ°Ð²": 2509,
      "ĠÐľÐ¾ÑģÐº": 2510,
      "ĠÐºÐ¾ÑĤÐ¾ÑĢÐ¾Ð¼": 2511,
      "ÑģÐ»Ð¾Ð²": 2512,
      "ĠÐ¿ÐµÑĢÐµÑģ": 2513,
      "ĠÐĶÐ¼Ð¸ÑĤ": 2514,
      "Ð¾ÑĪÐ»Ð¸": 2515,
      "ĠÐ³Ð»Ð°Ð²": 2516,
      "ĠÐ¿ÑĢÐ¾ÑħÐ¾Ð´": 2517,
      "ĠÐ¾ÑģÑĤÐ¾ÑĢÐ¾Ð¶": 2518,
      "ĠÑģÑĤÐ°ÑĢÐ¸Ðº": 2519,
      "ĠÑĩÐ°ÑģÑĭ": 2520,
      "ĠÐ²Ð¿Ð¾Ð»": 2521,
      "ĠÑģÐ¸Ð´ÐµÐ»Ð°": 2522,
      "ĠÑĥÐ·Ð½Ð°Ð»": 2523,
      "ĠÐ´ÐµÐ½ÑĮÐ³Ð¸": 2524,
      "ĠÐ´Ð¾ÑģÑĤÐ°Ð²": 2525,
      "ĠÐ´Ð¾ÑģÑĤÐ°ÑĤÐ¾": 2526,
      "ĠÐ¿ÑĢÐ¸Ð´Ð²Ð¸": 2527,
      "ĠÐ¡ÐºÐ°Ð¶": 2528,
      "ĠÐ´ÐµÑģÑıÑĤÑĮ": 2529,
      "ĠÐ¼Ð°ÑĤÐµÑĢÐ¸": 2530,
      "ĠÐ³Ð¾ÑĢÑıÑĩ": 2531,
      "ĠÐ¢Ð²Ð¸ÑģÑĤ": 2532,
      "ÑĢÐ°ÑĦÐ¸Ð½Ñı": 2533,
      "ĠÑģÑĩÐ°ÑģÑĤÑĮ": 2534,
      "ĠÐ±ÑĥÐ¼Ð°Ð³": 2535,
      "ĠÐ¿ÑĢÑıÐ¼Ð¾": 2536,
      "ĠÐ§Ð¸ÑĤÐ»Ð¸Ð½Ð³": 2537,
      "ĠÐĳÐ»ÐµÑĤÐµÑĢÑģ": 2538,
      "ĠÐ´Ð¾ÑģÑĤÐ°ÑĤÐ¾ÑĩÐ½Ð¾": 2539,
      "Ġ[": 2540,
      "Ð»ÑĭÐ¹": 2541,
      "Ð»ÐµÐ½Ð¸ÐµÐ¼": 2542,
      "ÑĢÐ¾ÑĤ": 2543,
      "ĠÑģÑĬ": 2544,
      "ĠÐ¾Ð·": 2545,
      "Ð¼ÐµÑĪ": 2546,
      "ĠÐºÐ»ÑİÑĩ": 2547,
      "ĠÐ¼ÐµÐ»": 2548,
      "ĠÐ¼ÐµÑģÑı": 2549,
      "ĠÐ¼Ð½Ð¾Ñİ": 2550,
      "ĠÐ´Ð¾Ñĩ": 2551,
      "ĠÐ´Ð¾Ð¼Ñĥ": 2552,
      "ĠÐ±ÐµÐ³": 2553,
      "ĠÑĩÐµÐ¼Ñĥ": 2554,
      "ÐµÐ»ÑģÑı": 2555,
      "Ð¾Ð»Ð²": 2556,
      "ĠÑĢÐ°Ð²": 2557,
      "ÑĨÐµÐ¼": 2558,
      "ÑĢÐ°ÑĤÑĮ": 2559,
      "Ð¸Ð²Ð°ÐµÑĤ": 2560,
      "Ð³Ð¾ÑĤÐ¾Ð²": 2561,
      "ĠÐ²ÑĭÑĢÐ°Ð·": 2562,
      "ĠÐ¿ÑĢÐ¸Ð¿": 2563,
      "ĠÐ¿ÑĢÐ¸Ð½Ð¸Ð¼": 2564,
      "ĠÐºÐ¾Ðµ": 2565,
      "Ð°Ð½Ð½ÑĭÐµ": 2566,
      "ĠÐĴÐµÐ´ÑĮ": 2567,
      "ÑĢÐ¸Ð¿": 2568,
      "Ð¸ÑģÑģ": 2569,
      "ÑĥÑİÑĤ": 2570,
      "ĠÑĢÑĥÐºÐµ": 2571,
      "ĠÐ´ÑĢÑĥÐ³Ð¾Ð³Ð¾": 2572,
      "ĠÑģÑĤÐ¾Ð¸ÑĤ": 2573,
      "Ð¡ÑĤ": 2574,
      "ĠÐºÑĢÐ°Ð¹": 2575,
      "ĠÐ´Ð¾Ð±ÑĢÑĭ": 2576,
      "ĠÐ´Ð¾ÑĢÐ¾Ð³Ð¾Ð¹": 2577,
      "ĠÐ²Ð°ÑĪÐ°": 2578,
      "ĠÐ¿ÑĢÐ¾ÑģÑĤÐ¾": 2579,
      "ĠÐºÑĢÐ¾Ð²Ð°ÑĤÐ¸": 2580,
      "ĠÑģÐ»ÐµÐ·Ñĭ": 2581,
      "ĠÐºÐ°Ð¶Ð´ÑĭÐ¹": 2582,
      "ĠÑĤÐ¸ÑħÐ¾": 2583,
      "ĠÐ²ÐµÑĤÐµÑĢ": 2584,
      "ĠÑģÑĤÐ°ÑĢÑĥÑħ": 2585,
      "ĠÐĽÐ¾ÑģÐ±ÐµÑĢÐ½": 2586,
      "Ð°ÑĤÐ°Ð»ÑĮÑı": 2587,
      "Ð¸Ð±": 2588,
      "Ð¸Ð½Ñĭ": 2589,
      "Ð½ÐµÐ¼Ñĥ": 2590,
      "ĠÑģÐ¾Ð´": 2591,
      "ĠÑģÑĢÐµÐ´Ð¸": 2592,
      "ĠÑģÑĢÐ°Ð·Ñĥ": 2593,
      "ÑģÑĤÐµÐ¹": 2594,
      "ĠÐ¼Ð¾ÑģÑĤ": 2595,
      "ÐµÐ½Ð½Ð¾Ð¼": 2596,
      "ÑħÐ¾": 2597,
      "ĠÐ±ÐµÐ¶": 2598,
      "Ð·ÑĮ": 2599,
      "ĠÐ¿Ð¾ÑĪÐµÐ»": 2600,
      "ĠÐ±ÑĭÑģÑĤÑĢ": 2601,
      "ĠÐ¾ÑĤÐºÑĥÐ´Ð°": 2602,
      "ĠÐ¾ÑĤÐ½Ð¾ÑĪ": 2603,
      "Ð¸Ð²Ð°Ð»Ð¸": 2604,
      "ĠÑģÐºÑĢÑĭ": 2605,
      "ĠÐ²ÑĭÑħÐ¾Ð´": 2606,
      "ĠÐºÐ°ÐºÐ°Ñı": 2607,
      "ĠÑģÑĤÑĢÐµÐ¼": 2608,
      "ÑģÑĤÐ²Ñĥ": 2609,
      "ĠÐ¾Ð±Ð¼Ð°": 2610,
      "ĠÐĿÐ¸": 2611,
      "ĠÐ²ÑģÐ¿Ð¾Ð¼": 2612,
      "ĠÐ·Ð°ÑģÑĤ": 2613,
      "ĠÐŁÐ¾Ð¶": 2614,
      "ÑĢÐ¸ÐµÐ²Ð½Ð°": 2615,
      "ĠÐ¿ÐµÑĢÐµ": 2616,
      "ĠÑĢÑĥÐºÐ°Ð¼Ð¸": 2617,
      "ĠÐ´Ð²Ð°Ð´ÑĨÐ°ÑĤÑĮ": 2618,
      "ĠÐ¤ÑįÐ½": 2619,
      "ĠÐ³Ð¾Ð²Ð¾ÑĢÑı": 2620,
      "ĠÐ³Ð»Ð°Ð·Ð°Ð¼Ð¸": 2621,
      "ÐľÐ½Ðµ": 2622,
      "ĠÐ»ÑİÐ±Ð²Ð¸": 2623,
      "ĠÑĩÐ°ÑģÐ°": 2624,
      "Ð°Ð¹ÑĤÐµÑģÑĮ": 2625,
      "ĠÑĤÐ¾ÑĤÑĩÐ°Ñģ": 2626,
      "ĠÐºÐ°ÑĢÐ¼Ð°Ð½": 2627,
      "ĠÑĥÐ¿Ð¾Ð¼": 2628,
      "ĠÑĥÐ³Ð¾Ð´Ð½Ð¾": 2629,
      "ĠÐºÐ¾Ð½Ñĩ": 2630,
      "Ð½ÑİÐ´ÑĮ": 2631,
      "ĠÑĤÑĢÑĥÐ±": 2632,
      "ĠÐ¼Ð°Ð»ÐµÐ½ÑĮÐºÐ¸Ð¹": 2633,
      "Ð¾Ð¹Ð´ÐµÑĤ": 2634,
      "ĠÐ¸ÑģÑĩ": 2635,
      "ĠÑģÐ¼ÐµÑĢÑĤÑĮ": 2636,
      "ĠÐ½Ð¸ÐºÐ°ÐºÐ¸Ñħ": 2637,
      "ĠÑĪÐ»ÑıÐ¿Ñĥ": 2638,
      "ĠÑĤÑĢÐµÐ²Ð¾Ð³": 2639,
      "ĠÐ½ÐµÐ³Ð¾Ð´Ñı": 2640,
      "ĠÐ½ÐµÐ½Ð°Ð²": 2641,
      "ĠÐ³Ð»ÑıÐ´Ñı": 2642,
      "ĠÐ¼Ð¾Ð¼ÐµÐ½ÑĤ": 2643,
      "ĠÐĶÐ¼Ð¸ÑĤÑĢÐ¸ÐµÐ²Ð½Ð°": 2644,
      "Ġ2": 2645,
      "Ð»ÐµÑĩ": 2646,
      "ÑĢÑıÑĤ": 2647,
      "ĠÐ½ÐµÑĢ": 2648,
      "ĠÐ²ÐµÐº": 2649,
      "ĠÑĢÑıÐ´": 2650,
      "ĠÐ¾ÑĤÐ½ÑİÐ´ÑĮ": 2651,
      "Ð¾Ð±ÑĢÐ°Ð·": 2652,
      "Ð³Ð¾Ðµ": 2653,
      "Ð¾Ð·Ð¼Ð¾Ð¶": 2654,
      "ĠÐ¾Ð±ÐµÑī": 2655,
      "ĠÑĤÐ¾Ð½Ð¾Ð¼": 2656,
      "Ð°Ð·Ð°Ð»Ð°": 2657,
      "Ð°Ð½Ð½ÑĭÑħ": 2658,
      "ĠÐ¡Ð¾ÑĦ": 2659,
      "Ð°Ð¶Ñĥ": 2660,
      "ĠÐľÐ¾Ð»ÑĩÐ°Ð»Ð¸Ð½": 2661,
      "ÐµÐ½ÑĮÐºÐ¾": 2662,
      "ĠÑĪÐµÑİ": 2663,
      "ÐĿÐ¸Ðº": 2664,
      "Ð°ÑİÑģÑĮ": 2665,
      "ÑĤÐµÑģÑĮ": 2666,
      "ĠÐ±ÑĥÐ´ÑĥÑĤ": 2667,
      "Ð¸Ð·Ð¸Ð¾Ð½": 2668,
      "ĠÐĲÐ·": 2669,
      "ĠÐ¾Ð¿Ð¸Ñģ": 2670,
      "ĠÑģÐ¾Ñħ": 2671,
      "ĠÐ³Ð¾Ð»Ð¾Ð²Ðµ": 2672,
      "ÑĢÐ¾Ð²Ð¸Ñĩ": 2673,
      "ÑĥÐ³Ð°": 2674,
      "ĠÐ¼Ð¸Ð½ÑĥÑĤÑĭ": 2675,
      "Ð»ÐµÐ½Ñĭ": 2676,
      "ĠÐ¸ÑģÐ¿ÑĭÑĤ": 2677,
      "ĠÐ´Ð¾ÑĢÐ¾Ð³Ñĥ": 2678,
      "ĠÐ²Ð¾ÑģÑĤÐ¾ÑĢ": 2679,
      "ĠÑĥÐ»Ð¸ÑĨÑĭ": 2680,
      "ĠÐ²Ð·Ð´ÑĥÐ¼": 2681,
      "ĠÐ±Ð¾Ð»ÑĮÑĪÐ¾Ð¹": 2682,
      "ĠÐ²ÑģÐºÐ¾Ñĩ": 2683,
      "Ð¾ÑİÑģÑĮ": 2684,
      "ĠÐ²Ð¾Ð»Ð¾ÑģÑĭ": 2685,
      "ĠÐ¼ÑĭÑģÐ»ÑĮ": 2686,
      "ĠÐ¤ÑįÐ½Ð³": 2687,
      "Ð¸Ð·Ð¸Ð¾Ð½Ð¾Ð¼": 2688,
      "Ð°ÐµÑĪÑĮ": 2689,
      "Ð½Ð¸Ð»": 2690,
      "Ð½Ð°Ð²": 2691,
      "ÑĢÐ¾Ð±": 2692,
      "ÑĢÐ°Ð»Ð¸": 2693,
      "ÑĥÐºÐ¸": 2694,
      "ÑĭÐ»Ð¸": 2695,
      "ĠÑģÐ¾Ð»Ð½": 2696,
      "ĠÑģÐ½Ð°ÑĩÐ°Ð»Ð°": 2697,
      "ĠÐ¿ÐµÑģ": 2698,
      "ÑĩÐµÑĤ": 2699,
      "ĠÐ±Ð°ÑĤ": 2700,
      "ĠÑĤÐµÐ»": 2701,
      "ĠÑĢÐ°Ð²Ð½Ð¾": 2702,
      "Ð°Ð¼Ð°ÑĤ": 2703,
      "ĠÐ»Ð¾Ð¶": 2704,
      "ÑģÐºÐ¾Ð»ÑĮÐºÐ¾": 2705,
      "Ð¸Ð²Ð°Ð»ÑģÑı": 2706,
      "Ð¸Ð¼Ð°Ñı": 2707,
      "ĠÑıÑģ": 2708,
      "ÑģÑĤÐ²ÑĥÑİÑī": 2709,
      "ĠÐ¼Ð¸ÑĢ": 2710,
      "ĠÐ¾Ð±Ð¼": 2711,
      "Ð»ÑıÐ»": 2712,
      "ĠÑħÑĥÐ´": 2713,
      "ĠÑĤÐ°ÐºÐ¸Ñħ": 2714,
      "ĠÐ·Ð°ÑĩÐµÐ¼": 2715,
      "ĠÑĢÐ°Ð·Ð³": 2716,
      "Ð¾Ð¿Ð¾Ð»": 2717,
      "ĠÐ¿Ð¾Ð»Ð°Ð³": 2718,
      "ÑĭÐ²Ð°ÑĤÑĮ": 2719,
      "ÑĭÐ²Ð°ÐµÑĤ": 2720,
      "ĠÐ³Ð»ÑĥÐ¿": 2721,
      "ĠÑĢÐ°ÑģÑģÑĤ": 2722,
      "ĠÑĢÐ°ÑģÑģÐµ": 2723,
      "ĠÐ²Ð¾Ð·Ð»Ðµ": 2724,
      "ĠÐ¼Ð¾Ð³ÑĥÑĤ": 2725,
      "ÐĴÑģÐµ": 2726,
      "ĠÐ¿ÑĢÐ¾Ñī": 2727,
      "ĠÐ¸Ð¼ÐµÐ½Ð½Ð¾": 2728,
      "ĠÐ²ÐµÑĢÐ¾ÑıÑĤ": 2729,
      "ĠÐ¼Ð¾Ð»ÑĩÐ°": 2730,
      "ĠÑĥÐ´Ð°Ð»": 2731,
      "ĠÐ¿Ð¾ÑĩÑĥÐ²": 2732,
      "ĠÑĥÐ³Ð»Ñĥ": 2733,
      "ĠÐ´ÑĥÐ¼Ð°ÐµÑĤÐµ": 2734,
      "ĠÑĥÐ»Ð¸ÑĨ": 2735,
      "ĠÑĥÑģÐ»Ð¾Ð²": 2736,
      "Ð»ÐµÑĤÐ²Ð¾ÑĢ": 2737,
      "ĠÐºÑĢÐ¾Ð²ÑĮ": 2738,
      "ĠÐºÐ½Ð¸Ð³Ð¸": 2739,
      "ĠÑģÑħÐ²Ð°ÑĤÐ¸Ð»": 2740,
      "ĠÐŀÐ´Ð½Ð°ÐºÐ¾": 2741,
      "ĠÐ½ÐµÑĤÐµÑĢÐ¿ÐµÐ»Ð¸Ð²Ð¾": 2742,
      "ĠÑģÐ¾Ð¿ÑĢÐ¾Ð²": 2743,
      "ĠÐĲÐ·Ð°Ð¼Ð°ÑĤ": 2744,
      "Ð»Ñĳ": 2745,
      "ĠÑģÐµÐ»": 2746,
      "ĠÐ¿Ð°Ð¼": 2747,
      "ÐºÐ°Ð·": 2748,
      "ĠÐ²Ð¾Ð²": 2749,
      "ĠÐºÐ¾Ð¼Ñĥ": 2750,
      "ĠÐºÑĥÑģÑĤ": 2751,
      "ĠÐ´Ð¾Ð²ÐµÑĢ": 2752,
      "ĠÐ±ÐµÑĪÐµÐ½": 2753,
      "Ð¾Ð²Ð»ÐµÑĤÐ²Ð¾ÑĢ": 2754,
      "ĠÐ¿ÑĢÐ¸Ð»": 2755,
      "ĠÑĤÐ°Ð±": 2756,
      "Ð¿ÑĢÐ¾ÑĩÐµÐ¼": 2757,
      "Ð¾Ð´Ñĥ": 2758,
      "Ð½Ð¸ÐµÐ¼": 2759,
      "ĠÑĢÑĭ": 2760,
      "ĠÐ½Ð°ÑĢÐ¾Ð´": 2761,
      "ÑģÐºÐ¾Ð¼": 2762,
      "ĠÐ²ÑĭÐ´": 2763,
      "ĠÐ¿ÑĢÐ¸ÑģÐ»ÑĥÑĪ": 2764,
      "ĠÑħÐ¸ÑĤ": 2765,
      "ÐµÑģÐµÐ´": 2766,
      "ĠÑĪÐ¸Ð½": 2767,
      "ĠÐ»Ð¸ÑĪÑĮ": 2768,
      "ĠÐ¿ÐµÑĢÐµÐ½": 2769,
      "ĠÐ¾ÑĤÐ²ÑĢÐ°ÑĤ": 2770,
      "ĠÐ²Ð·ÑıÐ»": 2771,
      "ĠÐ¢ÐµÐ¿ÐµÑĢÑĮ": 2772,
      "ĠÐ¿ÑĢÐ¾Ñħ": 2773,
      "ĠÐ¾ÑĩÐ°Ð³": 2774,
      "ÐŀÐ½Ð°": 2775,
      "ĠÐ³Ð¾Ð²Ð¾ÑĢÐ¸ÑĤÐµ": 2776,
      "ĠÑĤÑĢÐµÐ±": 2777,
      "Ð³Ð»ÑıÐ´": 2778,
      "ĠÐķÐ³Ð¾": 2779,
      "ÑĢÐ°ÑģÐ½Ð¾": 2780,
      "ĠÑģÑĤÑĢÐ°Ñħ": 2781,
      "ÐķÑģÐ»Ð¸": 2782,
      "ĠÐ±ÐµÑģÐµÐ´": 2783,
      "ĠÑģÐµÑĢÐ´ÑĨÐ°": 2784,
      "ĠÑĤÐ¾Ð»ÑģÑĤ": 2785,
      "ĠÐ½ÐµÐ¿Ð¾Ð´": 2786,
      "Ð°ÑİÑīÐ¸Ñħ": 2787,
      "ĠÐ½Ð°ÑĩÐ¸Ð½": 2788,
      "ĠÑĤÐ¾ÑĢÐ¾Ð¿": 2789,
      "ĠÑĥÑģÐ¿Ð¾ÐºÐ¾": 2790,
      "ĠÑģÐ¾Ð±Ð°ÐºÐ°": 2791,
      "ĠÐ´ÑĥÑħÐ°": 2792,
      "ĠÑĪÐµÐ¿Ð¾ÑĤÐ¾Ð¼": 2793,
      "ĠÐ³ÑĢÐ¾Ð±Ð¾Ð²ÑīÐ¸Ðº": 2794,
      "ĠÐ´ÑĢÑĥÐ·ÐµÐ¹": 2795,
      "ĠÑĦÑĥÐ½ÑĤÐ¾Ð²": 2796,
      "ĠÐĳÐ°ÑĢÐ½Ð¸": 2797,
      "Ð¸ÑģÑģÐ¸Ñģ": 2798,
      "Ð»ÑĳÑģÑĤ": 2799,
      "Ð¸Ð½ÑĥÑĤ": 2800,
      "ÑģÐ¾Ð²": 2801,
      "Ð»ÐµÐ³": 2802,
      "ÑĭÐ»Ð°": 2803,
      "ĠÑģÐ¾Ð»": 2804,
      "ĠÐ¿ÑĭÑĤ": 2805,
      "Ð´ÐµÑĤ": 2806,
      "ÑĤÐ¾Ðµ": 2807,
      "ÑĤÐ¾ÑĢÐ°": 2808,
      "ĠÐ´Ð¾Ð¶Ð´": 2809,
      "ĠÐ¿ÑĢÐ¾Ð²Ð¾ÑĢ": 2810,
      "ĠÑĤÐµÑĢÐ¿": 2811,
      "Ð¾Ð´Ð°": 2812,
      "Ð½Ð¸ÐºÐ¸": 2813,
      "ĠÑĢÐµÑĩ": 2814,
      "ĠÐ²ÑĭÑģÑĤÑĢ": 2815,
      "ĠÐ¾Ð±ÑĭÐºÐ½Ð¾Ð²": 2816,
      "ĠÑģÐ²ÐµÐ¶": 2817,
      "Ð»ÑıÑĤÑĮ": 2818,
      "ĠÐŁÐ¾Ð¼": 2819,
      "ĠÐ°Ð²": 2820,
      "Ð¾ÑĩÐµÐ¼Ñĥ": 2821,
      "ÐµÐ½ÑĮÑı": 2822,
      "ĠÑĪÐµÑģÑĤÑĮ": 2823,
      "Ð°Ð±Ñģ": 2824,
      "ÑĢÐ¾ÑģÐ¸Ð»": 2825,
      "ĠÐ´ÑĢÑĥÐ³Ð¾Ð¼": 2826,
      "ÑĢÑıÐ¼": 2827,
      "ĠÐ¿Ð¾Ð²ÐµÐ´": 2828,
      "ĠÐ¼Ð°Ð»ÑĮÑĩÐ¸ÑĪÐºÐ°": 2829,
      "ĠÑĦÐ¸Ð·Ð¸Ð¾Ð½Ð¾Ð¼": 2830,
      "ĠÑĥÐ¼Ðµ": 2831,
      "ĠÑĥÐ¼Ð¾Ð»": 2832,
      "ĠÑĨÐµÐ¿": 2833,
      "ĠÐ»ÑİÐ±Ð¸ÑĤ": 2834,
      "ĠÑĥÐ´Ð¾Ð²Ð»ÐµÑĤÐ²Ð¾ÑĢ": 2835,
      "Ð²Ð¸Ð¶": 2836,
      "Ð¾ÑģÑĤÐ¸Ð³": 2837,
      "ĠÐ¸ÑģÐ¿Ð¾Ð»": 2838,
      "ĠÐ¿Ð¾Ð¿ÑĭÑĤ": 2839,
      "ĠÐ½ÐµÑģÐºÐ¾Ð»ÑĮ": 2840,
      "ĠÐ½ÐµÐ²Ð¾Ð»ÑĮÐ½Ð¾": 2841,
      "ĠÐ´Ð¾Ð»Ð¶Ð½Ð°": 2842,
      "ĠÐ¿Ð¾ÑģÐ»ÐµÐ´Ð½Ð¸Ð¹": 2843,
      "ĠÐ¼ÑĥÐ¶Ñĩ": 2844,
      "ĠÐŁÐ»ÑĥÑĤÐ°": 2845,
      "ĠÐ²ÐµÑĩÐµÑĢÐ°": 2846,
      "ĠÐ¿ÑĢÐ¸ÐºÐ°Ð·": 2847,
      "Ð¿Ð¾Ð¼Ð¸Ð½Ð°": 2848,
      "ĠÑĥÐ²ÐµÑĢÐµÐ½": 2849,
      "Ð¼Ð¾ÑĤÑĢÑı": 2850,
      "ĠÐŁÐ¾ÑģÐ»ÑĥÑĪ": 2851,
      "ĠÑģÐ¾Ð·Ð´Ð°": 2852,
      "ĠÐ¿Ð»Ð°ÑĤÐ¾Ðº": 2853,
      "ĠÑĤÑİÑĢÑĮ": 2854,
      "ĠÐ´Ð¾Ð³Ð°Ð´": 2855,
      "Ð°Ð½Ð°Ð²Ð»Ð¸Ð²": 2856,
      "Ð¡ÐºÐ°Ð»Ð¾Ð·ÑĥÐ±": 2857,
      "ÑĦÐ¸Ð»Ð´": 2858,
      "ĠÐĵÑĢÐ¸Ð³Ð¾": 2859,
      "ĠÐ¸ÑģÑĩÐµÐ·": 2860,
      "Ð»ÑĳÑģÑĤÐ¾Ð²Ð°": 2861,
      ").": 2862,
      "ÑĤÐ¾Ð³Ð¾": 2863,
      "Ð¸ÑĪ": 2864,
      "ÑĭÑģÐ»": 2865,
      "ĠÐ¿ÐµÐ½": 2866,
      "ĠÐ¿Ð¾Ð¹": 2867,
      "ĠÐ¿ÑĮÑı": 2868,
      "ĠÐ½Ñĥ": 2869,
      "ÐºÐ¾Ð¼Ñĥ": 2870,
      "ĠÐ²Ð¸Ð¶Ñĥ": 2871,
      "ÑĩÐºÐ°": 2872,
      "ĠÐ¾ÑħÐ¾ÑĤ": 2873,
      "ĠÐ¸ÑģÑĤ": 2874,
      "ĠÐºÐµÐ¼": 2875,
      "ĠÐ¼Ð³": 2876,
      "ÐµÑĢÐ³": 2877,
      "ÐµÐ½Ð¾Ðº": 2878,
      "ÐµÐ½Ð½Ð°Ñı": 2879,
      "ĠÐ´Ð¾Ð¿": 2880,
      "ĠÐ±Ð°ÑĪ": 2881,
      "ĠÐ¿ÑĢÐµÑģ": 2882,
      "ĠÑĤÑĥÐ¼": 2883,
      "ĠÐ·Ð°Ð¶": 2884,
      "ĠÐ·Ð½Ð°Ðº": 2885,
      "ĠÑĥÐ³Ð¾": 2886,
      "ĠÑĢÐµÐ¼": 2887,
      "ĠÑĢÐ¾ÑģÑĤ": 2888,
      "ĠÐ¿Ð¾ÑĪ": 2889,
      "Ð°Ð²ÑĪÐ¸Ñħ": 2890,
      "Ð¾ÑĢÐ¼Ð¾ÑĤ": 2891,
      "ĠÑģÑĤÐ°Ð»Ð¸": 2892,
      "ĠÑģÑĤÐµÐ¿": 2893,
      "ĠÐ¾Ð±ÑıÐ·": 2894,
      "ĠÐĿÐ°Ð´": 2895,
      "ĠÐĿÐ¸Ðº": 2896,
      "ĠÑĪÐ°Ð¿": 2897,
      "ÑįÐ¼": 2898,
      "ÑĩÐ¸Ðº": 2899,
      "ÑıÑĤÐ¸": 2900,
      "ÐĿÐ°ÑĤÐ°Ð»ÑĮÑı": 2901,
      "ĠÐ¢Ð°Ð¼": 2902,
      "ÑĦÑĦ": 2903,
      "ĠÐ²Ð¸Ð´Ðµ": 2904,
      "ĠÐ½Ð°Ð´Ðµ": 2905,
      "ÐµÐ½Ð¸ÑıÐ¼Ð¸": 2906,
      "ÐŁÐ¾": 2907,
      "ĠÐ¾ÐºÐ¾Ð»Ð¾": 2908,
      "ĠÑĥÐ´ÐµÑĢÐ¶": 2909,
      "ĠÐĹÐ°ÑĩÐµÐ¼": 2910,
      "ĠÐ´Ð¾ÐºÐ°Ð·": 2911,
      "ĠÐ¿ÑĢÐ¸Ð²ÑĭÐº": 2912,
      "ĠÐ¿Ð¾Ð·Ð´Ð½Ð¾": 2913,
      "Ð°ÑĤÐµÐ»ÑĮÑģÑĤÐ²Ð¾": 2914,
      "Ð¢Ñĭ": 2915,
      "ĠÑĥÐ±Ð¸Ð¹": 2916,
      "ĠÑĥÐ·Ð½Ð°ÑĤÑĮ": 2917,
      "ĠÑģÑĤÐ¾ÑĢÐ¾Ð½": 2918,
      "ĠÑĥÐ»Ð¸ÑĨÑĥ": 2919,
      "ĠÑģÐ»ÐµÐ´Ð¾Ð²": 2920,
      "ĠÐ²ÐµÑīÐ¸": 2921,
      "ĠÑĢÐµÑĪÐ¸ÑĤÐµÐ»ÑĮÐ½Ð¾": 2922,
      "ĠÐ¿Ð¾ÑĢÑĤ": 2923,
      "ĠÑħÐ¾ÑĩÐµÑĤ": 2924,
      "ĠÑģÑĤÐ¾Ð»Ñĥ": 2925,
      "ĠÐ±Ð¾Ð»ÑĮÑĪÐ¸Ð¼": 2926,
      "ĠÑĢÐ°Ð·Ð´Ð°Ð»ÑģÑı": 2927,
      "ÑĩÐ¸Ð²Ð¾": 2928,
      "ĠÑĥÐ¼ÐµÑĢÐµÑĤÑĮ": 2929,
      "ĠÐ²ÐµÑģÐµÐ»Ð¾": 2930,
      "ĠÐ±Ð»Ð¸Ð·": 2931,
      "ĠÑģÐ²ÐµÑĩÑĥ": 2932,
      "ĠÑĢÐµÐ±ÐµÐ½Ð¾Ðº": 2933,
      "ĠÑĢÐµÐ±ÐµÐ½ÐºÐ°": 2934,
      "ĠÐ·Ð°Ð½ÑıÑĤ": 2935,
      "ĠÐ±ÐµÐ»Ð¾Ð¼": 2936,
      "ĠÐ¼Ð½Ð¾Ð³Ð¸Ðµ": 2937,
      "ĠÐ¿ÐµÑĩÐ°Ð»ÑĮ": 2938,
      "ĠÐ½Ð°Ð¹ÑĤÐ¸": 2939,
      "ĠÑģÐµÑĢÐµÐ±": 2940,
      "ĠÐ¿Ð¾Ð»ÑĮÐ·Ñĥ": 2941,
      "!Â»": 2942,
      "Ð¸ÐºÑĥ": 2943,
      "ÑĢÐ¾Ð¹": 2944,
      "ÑıÐ½ÑĥÑĤ": 2945,
      "ĠÑģÑĢÐµÐ´": 2946,
      "ÐºÐ¸Ð¼Ð¸": 2947,
      "ĠÐ²Ð¾Ð½": 2948,
      "ĠÐ¾ÑĤÐ¾": 2949,
      "ĠÐºÑĢÑĥ": 2950,
      "ĠÐºÑĢÑĥÐ¶": 2951,
      "ĠÐ¼ÐµÐ»ÑĮ": 2952,
      "ĠÐ´Ð°Ð¼": 2953,
      "ĠÐ´Ð°ÑĤÑĮ": 2954,
      "ĠÐ´Ð¾ÑģÑĤÐ¸Ð³": 2955,
      "ĠÑĤÐµÑĤ": 2956,
      "Ð½Ð¸ÑĤ": 2957,
      "ÑģÑıÑĤ": 2958,
      "Ð°Ð²ÑĪÐµÐ¹": 2959,
      "Ð¸Ð¼ÑģÑı": 2960,
      "Ð¸Ð½Ñģ": 2961,
      "Ð¾ÑģÑħÐ¾Ð´": 2962,
      "ĠÑģÐºÑĢÐ¾Ð¼": 2963,
      "ĠÑģÐºÑĢÑĭÐ²": 2964,
      "ĠÐ²ÑĭÐ³": 2965,
      "ĠÐ¿ÑĢÐ¸Ð³Ð¾ÑĤÐ¾Ð²": 2966,
      "ĠÑģÑĤÑĥ": 2967,
      "ĠÑģÑĤÐ°Ð½": 2968,
      "ĠÑģÐ²ÐµÐ´": 2969,
      "ĠÐ¿Ð¾Ð´Ð±": 2970,
      "ĠÐ·Ð°ÑĪ": 2971,
      "ĠÐŁÐµÑĤ": 2972,
      "Ð»Ð°ÑĤÐ¾Ð½": 2973,
      "ĠÑĢÐ°Ð·Ð°": 2974,
      "ĠÐľÐ¸Ñħ": 2975,
      "ÑĥÑİÑīÐ¸Ð¹": 2976,
      "ĠÐ¿Ð¾ÐºÐ°Ð·": 2977,
      "ĠÐ¿Ð¾ÐºÑĢÐ°Ñģ": 2978,
      "ĠÐ´ÑĢÑĥÐ³Ñĥ": 2979,
      "ĠÐ¿ÑĢÐµÐ´ÑĥÐ¿": 2980,
      "Ð´ÑĥÐ¸Ð½": 2981,
      "ĠÐ¿Ð¾Ð¼ÐµÑĪ": 2982,
      "ĠÑĨÐ²ÐµÑĤ": 2983,
      "ÑĢÐ°ÑıÑģÑĮ": 2984,
      "ĠÐ·Ð°ÐºÑĢÐ¸ÑĩÐ°Ð»": 2985,
      "ĠÐĹÐ´ÐµÑģÑĮ": 2986,
      "ĠÐ½ÐµÐ¼Ð½": 2987,
      "ĠÐ½ÐµÐ¼Ð½Ð¾Ð³Ð¾": 2988,
      "ĠÐ½Ð°Ð·Ð½Ð°Ñĩ": 2989,
      "Ð²Ð¾Ð»Ð¸": 2990,
      "ĠÐ±ÑĢÐ¾ÑģÐ¸Ð»": 2991,
      "ĠÐ±ÑĢÐ¾ÑģÐ¸Ð»ÑģÑı": 2992,
      "ĠÐ¿ÑĢÐ¾Ð±Ð¾ÑĢÐ¼Ð¾ÑĤ": 2993,
      "ĠÐ½Ð¸ÐºÐ°ÐºÐ¾Ð³Ð¾": 2994,
      "ÑĢÐµÐ¶Ð½ÐµÐ¼Ñĥ": 2995,
      "ĠÐ¿ÑĢÐ¸ÑģÑĥÑĤ": 2996,
      "ĠÐ´Ð°Ð»ÐµÐºÐ¾": 2997,
      "ĠÐ¿ÑĥÑĤÐ¸": 2998,
      "ĠÐ¿Ð»Ð¾Ñī": 2999,
      "ĠÐĳÑįÐ´ÑĥÐ¸Ð½": 3000,
      "ĠÐ¿Ð¾ÑĢÑĥÑĩ": 3001,
      "ĠÐºÐ¸Ð²Ð½ÑĥÐ»": 3002,
      "ĠÐ½ÐµÐ¿ÑĢÐ¸ÑıÑĤ": 3003,
      "ĠÑĤÐ¾Ð²Ð°ÑĢÐ¸Ñī": 3004,
      "ĠÐ±Ð°ÑĤÑİ": 3005,
      "ĠÐľÐ¸ÑħÐ°Ð¹": 3006,
      "Ð°ÑĢÐ°": 3007,
      "Ð½ÐµÐ»": 3008,
      "Ð½ÐµÑĤÑģÑı": 3009,
      "ĠÑģÐ¾Ð½": 3010,
      "ĠÐ²ÑģÑĤÐ°Ð²": 3011,
      "ĠÐ²ÑĩÐµÑĢÐ°": 3012,
      "ÑĩÑĥ": 3013,
      "ÑĩÐµÐ½ÑĮ": 3014,
      "ÑĩÐ°Ð»Ð°": 3015,
      "Ð´Ð°Ð»Ð¸": 3016,
      "ÑĤÐ¾Ð»ÐµÑĤ": 3017,
      "ÑģÑĤÐ½Ð¾": 3018,
      "ĠÐºÐ°Ð»": 3019,
      "ĠÐºÐ°Ð¿Ð¸ÑĤÐ°Ð½": 3020,
      "ĠÐ¼ÐµÑĢÑĤÐ²": 3021,
      "ĠÐ±Ñĥ": 3022,
      "Ð¾Ð²ÑĭÑħ": 3023,
      "Ð¾Ð²ÐµÑĢÑĪ": 3024,
      "Ð¾Ð»Ð³Ð¾": 3025,
      "ĠÐµÑħ": 3026,
      "Ð¿ÑĢÐµÐ¶Ð½ÐµÐ¼Ñĥ": 3027,
      "ĠÑĢÐ¾Ð¼": 3028,
      "ĠÑĢÐ¾Ð¶Ð´": 3029,
      "ĠÐ½Ð°ÑĪÐ¸": 3030,
      "Ð¸ÑĤÐµÐ»Ñı": 3031,
      "Ð¸ÑĤÐµÐ»ÐµÐ¹": 3032,
      "ÑĨÐµÐ¹": 3033,
      "Ð¾ÑĤÑĥ": 3034,
      "Ð¸Ð²Ð°": 3035,
      "ĠÐ³Ð°Ð·": 3036,
      "Ð¾ÑģÐµÑĢÐ´": 3037,
      "Ð¾Ð¶Ð¸Ð´Ð°": 3038,
      "ĠÐ²ÑĭÐ²": 3039,
      "ĠÐ²ÑĭÑģÐº": 3040,
      "ĠÐ²ÑĭÑģÐ»ÑĥÑĪ": 3041,
      "ĠÐ¿ÑĢÐ¸ÑģÑı": 3042,
      "ĠÐ¾Ð±Ð½Ð°ÑĢÑĥÐ¶": 3043,
      "Ð»ÑıÑı": 3044,
      "ĠÑĤÐ°ÐºÐ°Ñı": 3045,
      "ĠÐ¸Ð·Ð¼ÐµÐ½": 3046,
      "ĠÐ³Ð¾ÑĢÐ°Ð·": 3047,
      "Ð½ÑıÐ²": 3048,
      "ĠÑĢÐ°Ð·ÑĢÐµÑĪ": 3049,
      "ĠÐ¼Ð¸ÑģÑĤÐµÑĢÐ¾Ð¼": 3050,
      "ÐµÐ»Ð¸ÑĤÑĮ": 3051,
      "ĠÐ²Ð·Ð¾ÑĢ": 3052,
      "ĠÐ³Ð¾Ð»Ð¾Ð²Ð°": 3053,
      "ĠÐ¼Ð¾Ð¸Ñħ": 3054,
      "ĠÑģÐ¾Ð±ÐµÑģÐµÐ´": 3055,
      "ÑĤÐ°Ñī": 3056,
      "ĠÑģÐ½ÐµÐ³": 3057,
      "ĠÐ¶Ð¸Ð·Ð½": 3058,
      "ĠÑĥÐ¿Ð°Ð»": 3059,
      "ĠÐºÐ¾Ð»ÐµÐ½Ð¸": 3060,
      "ĠÐºÐ¾Ð»ÐµÐ±": 3061,
      "ĠÑĥÐ·Ð½Ð°": 3062,
      "ĠÐ·Ð°Ð´ÐµÑĢÐ¶": 3063,
      "ÐĵÑĢÐ°ÑĦÐ¸Ð½Ñı": 3064,
      "Ð¾ÑĢÐ¾ÑĪÐ¾": 3065,
      "ĠÐ±ÑĢÐ¾ÑģÐ¸Ð²": 3066,
      "ĠÐ²Ð·Ð´ÑĢÐ¾Ð³": 3067,
      "ĠÐ¿ÑĢÐ¾ÑĪÑĥ": 3068,
      "ĠÐ³ÑĢÑĥÐ±": 3069,
      "ĠÑħÐ¾ÑĩÐµÑĪÑĮ": 3070,
      "ĠÐ½ÐµÐ±Ð¾Ð»ÑĮ": 3071,
      "ĠÑĥÐ»ÑĭÐ±ÐºÐ¾Ð¹": 3072,
      "ĠÐ²ÑģÐºÑĢÐ¸": 3073,
      "ĠÐ¾ÑĤÐ¾Ð·Ð²Ð°Ð»Ð°ÑģÑĮ": 3074,
      "ĠÑĥÑģÐ¿ÐµÐ»": 3075,
      "ĠÐ²ÑģÐµÐ¼Ð¸": 3076,
      "ĠÐ´ÑĢÑĥÐ³Ð¾Ðµ": 3077,
      "ĠÑģÐ¾ÑģÐµÐ´": 3078,
      "ÐĹÐ°Ð³Ð¾ÑĢÐµÑĨÐºÐ¸Ð¹": 3079,
      "ÐłÐµÐ¿ÐµÑĤÐ¸Ð»Ð¾Ð²": 3080,
      "ĠÑģÐ¾Ð·Ð½Ð°": 3081,
      "ĠÐ»ÐµÐ³ÐºÐ¾": 3082,
      "ĠÐ¶Ð¸Ð»ÐµÑĤÐµ": 3083,
      "ĠÐ¿Ð¸ÑģÑĤÐ¾Ð»ÐµÑĤ": 3084,
      "ĠÐ¿Ð¾Ð¼Ð¾ÑīÑĮ": 3085,
      "ĠÐºÐ°Ð·Ð°Ðº": 3086,
      "ĠÐ¸Ð¼ÐµÐµÑĤ": 3087,
      "ĠÐ¾ÑģÐ²ÐµÐ´Ð¾Ð¼Ð¸Ð»ÑģÑı": 3088,
      "ĠÐ½ÐµÐ¾Ð±ÑħÐ¾Ð´Ð¸Ð¼": 3089,
      "ĠÐ²Ð¿ÐµÑĩÐ°ÑĤÐ»ÐµÐ½Ð¸Ðµ": 3090,
      "ÐµÑĥ": 3091,
      "ÑģÐ¼ÐµÐ½": 3092,
      "ÑıÐ½ÑĥÐ»": 3093,
      "ÑĮÑĤÐµ": 3094,
      "ĠÑģÑĨ": 3095,
      "ĠÐ¿Ð¾Ð²Ð¾ÑĢ": 3096,
      "ĠÐ¿ÑĥÐ³": 3097,
      "ĠÐ½Ð¾Ð¶": 3098,
      "Ð´ÑĢÑĥÐ³": 3099,
      "ÑĪÐµÐ¼": 3100,
      "ÐµÑĢÑĥ": 3101,
      "ÐµÑĢÐµÐ´Ð¸": 3102,
      "ÐµÐ½Ð½ÑĥÑİ": 3103,
      "ĠÐ·ÑĢ": 3104,
      "ĠÐ·Ð¾Ð»Ð¾ÑĤ": 3105,
      "ĠÑĥÐ½Ñĭ": 3106,
      "Ð½Ð¸ÑĤÐµÐ»ÑĮ": 3107,
      "Ð°Ð²Ð¾Ðº": 3108,
      "Ð°Ð²ÑĪÐ¸Ðµ": 3109,
      "Ð¾ÑĢÐ¾": 3110,
      "ĠÐ¾ÑĤÑĨÐ°": 3111,
      "ĠÐ¾ÑĤÐµÑĨ": 3112,
      "ĠÐ¾ÑĤÑĭÑģÐº": 3113,
      "ÐµÐ¹ÑĩÐ°Ñģ": 3114,
      "Ð¸Ð½ÐºÑĥ": 3115,
      "ĠÑģÐºÑĥÑĩ": 3116,
      "ĠÐ²ÑĭÑĪÐµ": 3117,
      "ĠÐ²ÑĭÑĪÐ»Ð¸": 3118,
      "ĠÐ¿ÑĢÐ¸ÑĪ": 3119,
      "ĠÐ¿ÑĢÐ¸ÑĢÐ¾Ð´": 3120,
      "ĠÐ¿ÑĢÐ¸Ð¿Ð¾Ð´": 3121,
      "ĠÑģÐ»Ð¾Ð¶": 3122,
      "Ð°Ð¹ÑģÑı": 3123,
      "ĠÐ¿Ð¾Ð´ÑħÐ²Ð°ÑĤ": 3124,
      "ĠÐĴÐ¾": 3125,
      "ĠÐĴÑģ": 3126,
      "ĠÐĴÐ¿ÑĢÐ¾ÑĩÐµÐ¼": 3127,
      "ĠÐ³Ð¾ÑģÑĤÐ¸": 3128,
      "Ð°Ð¶Ð´": 3129,
      "Ð°Ð¶Ð´Ñĭ": 3130,
      "ĠÑģÐ¿ÑĥÑĤ": 3131,
      "ÐµÑģÑĤÐ½Ð¾": 3132,
      "ĠÐ¾Ð´Ð½Ð¸Ð¼": 3133,
      "ÐµÐ³ÐºÐ°": 3134,
      "ĠÐ¢Ð¾Ð»ÑĮÐºÐ¾": 3135,
      "ĠÑģÐ°Ð¼ÑĭÐµ": 3136,
      "ĠÐ§ÑĤÐ¾Ð±": 3137,
      "ÑĦÐ¸ÑĨ": 3138,
      "ĠÐ²Ð¸Ð´Ñĥ": 3139,
      "ĠÐĵÑįÐ¼": 3140,
      "ĠÐ¼Ð¾Ð³Ð¸Ð»": 3141,
      "ÐŁÑĢ": 3142,
      "Ð²ÑĢÐµÐ¹": 3143,
      "ĠÑĨÐµÐ»Ð¸": 3144,
      "ĠÑĨÐµÐ»ÑĮÑİ": 3145,
      "ĠÐ²ÑĢÐµÐ¼ÐµÐ½": 3146,
      "ĠÐ¾ÑģÑĤÐ°Ð»ÑĮ": 3147,
      "ĠÑĥÑĤÑĢÐ¾": 3148,
      "ĠÑĥÐ±ÐµÐ¶": 3149,
      "ĠÐ³Ð¾ÑĢÐ´": 3150,
      "ĠÐ¿Ð¾Ð¶Ð°Ð»": 3151,
      "ĠÐ±ÐµÐ´Ð½ÑĭÐ¹": 3152,
      "ĠÐ¥Ð¾ÑĤ": 3153,
      "ĠÐ²Ð¾Ð´Ñĭ": 3154,
      "ĠÐ²Ð¾Ð´Ð¾Ð¹": 3155,
      "ĠÐ½Ð°ÑĩÐ°Ð»Ð°": 3156,
      "ĠÑĢÐ°ÑģÑģÐºÐ°Ð·ÑĭÐ²": 3157,
      "ĠÐ½ÐµÑģÐ¼Ð¾ÑĤÑĢÑı": 3158,
      "ÑĢÐ°Ð½ÑĨ": 3159,
      "ĠÑģÐ¼Ð¾ÑĤÑĢÐµÑĤÑĮ": 3160,
      "ĠÐ±Ð¸Ð´Ð»Ð°": 3161,
      "ÐłÐ°Ð·": 3162,
      "ĠÐ¿ÑĢÐµÐºÑĢÐ°ÑģÐ½Ð¾": 3163,
      "ĠÐ±ÑĭÐ²Ð°Ð»Ð¾": 3164,
      "ĠÐ±Ð»Ð°Ð³Ð¾ÑĢÐ¾Ð´": 3165,
      "ĠÐ¸Ð·Ð±Ð°Ð²": 3166,
      "ĠÐ´ÑĢÑĥÐ·ÑĮÑı": 3167,
      "ĠÐ½ÐµÐ·Ð½Ð°ÐºÐ¾Ð¼ÐµÑĨ": 3168,
      "ĠÐ¿ÑĥÑģÑĤÑĮ": 3169,
      "ĠÐĲÐ»ÐµÐºÑģÐ°Ð½Ð´ÑĢÐ¾Ð²Ð¸Ñĩ": 3170,
      "Ð»ÑĥÐ¶": 3171,
      "ÑĢÐ°Ð»ÑģÑı": 3172,
      "ÑĥÐ»Ñı": 3173,
      "ÑĮÐ¼Ð¸": 3174,
      "ĠÐ½Ð°Ð¼Ð¸": 3175,
      "ĠÐ¾ÑĪÐ¸Ð±": 3176,
      "Ð¼ÐµÑĢ": 3177,
      "ĠÐºÑĥÑĢ": 3178,
      "ĠÐ¼ÐµÐ´": 3179,
      "ÑĪÐ¸Ð¼Ð¸": 3180,
      "ÐµÐ½Ñĥ": 3181,
      "ĠÐ´Ð¾ÑĩÑĮ": 3182,
      "Ð¾Ð²Ð°Ð½": 3183,
      "Ð»Ð¸Ñı": 3184,
      "Ð»Ð¸Ð¹": 3185,
      "ÐµÑĤÐ²ÐµÑĢ": 3186,
      "ÑİÑĢ": 3187,
      "ĠÐ·Ð´": 3188,
      "ĠÐ·ÐµÐ»ÐµÐ½": 3189,
      "Ð¸Ð»ÑĥÐ¹": 3190,
      "ĠÑĢÐ°Ð½": 3191,
      "ĠÐ½Ð°ÑĪÐ¸Ñħ": 3192,
      "Ð°Ð¼ÐµÐ½": 3193,
      "ĠÐ¿Ð¾Ð½": 3194,
      "Ð°Ð²ÑĪÐµÐ³Ð¾": 3195,
      "ĠÐ»ÑĮ": 3196,
      "ÑĨÐµÐ¿": 3197,
      "ĠÐ¾ÑĤÐ»Ð¸Ñĩ": 3198,
      "Ð¾ÑĤÑĭ": 3199,
      "ÑģÐºÐ¾Ðµ": 3200,
      "ĠÐ³ÑĥÑģÑĤ": 3201,
      "Ð¸Ð½Ð¾Ð¼": 3202,
      "ĠÐ¶Ð¸ÑĤÑĮ": 3203,
      "ÑģÑĤÐ²Ð°Ñħ": 3204,
      "ÑģÑĤÐ²Ð¸Ð¸": 3205,
      "ÑģÑĤÐ²ÑĥÐµÑĤ": 3206,
      "ÑģÑĤÐ²Ð¸ÐµÐ¼": 3207,
      "ĠÑģÐ»ÐµÐ³ÐºÐ°": 3208,
      "ÐµÐ²Ð¾": 3209,
      "ĠÐŁÐ¾Ð»": 3210,
      "ĠÐĴÐ¸Ð´": 3211,
      "ĠÑĢÐ°Ð·Ñĥ": 3212,
      "ĠÑĢÐ°Ð·ÑĥÐ¼ÐµÐµÑĤÑģÑı": 3213,
      "ÐµÑĪÐµ": 3214,
      "ĠÑģÐ¿Ð°Ñģ": 3215,
      "ĠÑģÐ¿Ð°ÑĤÑĮ": 3216,
      "ĠÐºÐ¾ÑĤÐ¾ÑĢÐ¾Ð¼Ñĥ": 3217,
      "ÑĥÑĤÑĭÐ»": 3218,
      "Ð¾ÑĪÐ»Ð°": 3219,
      "ĠÐ¿Ð¾ÐºÐ¾Ð¹": 3220,
      "ĠÐ¿Ð¾ÐºÐ¾Ð½Ñĩ": 3221,
      "ĠÑģÐ°Ð¼Ð°": 3222,
      "ĠÑģÐ°Ð¼ÑĭÐ¼": 3223,
      "ĠÑģÐ°Ð¼ÑĭÑħ": 3224,
      "Ð¸ÑĤÐµÐ»ÑĮÐ½Ð¾Ð¹": 3225,
      "ĠÐ²Ð¾Ð·Ð±": 3226,
      "ÐŀÑĤ": 3227,
      "ĠÑĦÐ¾ÑĢ": 3228,
      "ĠÑĤÑĢÐµÑħ": 3229,
      "ĠÑĨÐµÑĢ": 3230,
      "ĠÐ¿Ð»Ð°Ðº": 3231,
      "ĠÐ½Ð°Ð¿Ð¾Ð¼": 3232,
      "ĠÐºÐ°ÑĢÐµÑĤÑĭ": 3233,
      "Ð¼Ð¾ÑĤÑĢÐ¸ÑĤÐµ": 3234,
      "ĠÐ¿ÑĢÐ¸Ð½ÑıÐ»": 3235,
      "ĠÑĥÐ³Ð°Ð´": 3236,
      "ĠÑĤÐ¾Ð»ÐºÑĥ": 3237,
      "ĠÐ²Ð¾ÑģÐ¿Ð¾Ð¼Ð¸Ð½Ð°": 3238,
      "ĠÐ²Ð·Ð³Ð»ÑıÐ´Ð¾Ð¼": 3239,
      "ĠÑĤÑĢÑĥÐ´Ð½Ð¾": 3240,
      "ĠÑĩÑĥÐ²ÑģÑĤÐ²Ð°": 3241,
      "ĠÐ¿ÑĢÐ¾ÑĪÐµÐ¿": 3242,
      "ĠÐ¼ÑĥÐ¶ÑĩÐ¸Ð½Ð°": 3243,
      "ĠÐ²ÑģÑĤÑĢÐµÑĤÐ¸Ð»": 3244,
      "ĠÑĤÐ¾ÑĢÐ³": 3245,
      "ĠÐ±Ð¾Ð³Ð°": 3246,
      "ĠÐ´ÐµÑĢÐ·": 3247,
      "ĠÑĪÐ°Ð³Ð¾Ð²": 3248,
      "ĠÐ¾Ð³ÑĢÐ¾Ð¼": 3249,
      "ĠÐ´ÑĥÑĪÐµ": 3250,
      "ĠÑĥÐ¼ÐµÑĢÐ»Ð°": 3251,
      "ĠÑĢÐ°Ð·Ð²Ðµ": 3252,
      "Ð¥Ð»ÑĳÑģÑĤÐ¾Ð²Ð°": 3253,
      "ĠÐ¸Ð½Ð¾Ð³Ð´Ð°": 3254,
      "ĠÐ±Ð»Ð¸Ð¶Ðµ": 3255,
      "ĠÐ³Ð¾ÑĢÐ¾Ð´Ð°": 3256,
      "Ð»Ð°Ð³Ð¾Ð´Ð°ÑĢ": 3257,
      "ĠÐ¿ÑĢÐµÐ²Ð¾ÑģÑħÐ¾Ð´": 3258,
      "ĠÑĦÐ¾Ð½Ð°ÑĢÑĮ": 3259,
      "ĠÐ±ÑĥÐ¼Ð°Ð³Ð¸": 3260,
      "ÑĢÐ¾ÑĤÐ¸Ð²": 3261,
      "ĠÐ²ÐµÑĢÐ¾ÑıÑĤÐ½Ð¾": 3262,
      "ĠÐĵÑĢÐ¸Ð³Ð¾ÑĢÐ¸": 3263,
      "ĠÑĢÐµÐ¼ÐµÑģ": 3264,
      "ĠÐ³Ð¾ÑĢÐ°Ð·Ð´Ð¾": 3265,
      "Ġ3": 3266,
      "ÑĤÐ°Ðº": 3267,
      "ÑĤÐ°ÐºÐ¸": 3268,
      "Ð¸Ð¿": 3269,
      "Ð¸ÐµÐ¹": 3270,
      "Ð»Ð¾Ð¿": 3271,
      "Ð½Ð°Ð´ÑĨÐ°ÑĤÑĮ": 3272,
      "ÑĢÐ°Ð³": 3273,
      "ÑĥÑı": 3274,
      "ÑĮÐ¸": 3275,
      "ÑĭÐ³": 3276,
      "ĠÑģÐ¾ÑģÑĤÐ°Ð²": 3277,
      "ĠÐ¿Ð°Ð»": 3278,
      "ĠÐ¿Ð¸ÑĤ": 3279,
      "ĠÐ²ÐµÐ»": 3280,
      "ĠÐ²ÑĢÑıÐ´": 3281,
      "ĠÐ¾ÑģÐ»": 3282,
      "ĠÐ¾ÑģÐºÐ¾ÑĢ": 3283,
      "ÑģÑĤÑģÑı": 3284,
      "ĠÐºÐ¾Ñģ": 3285,
      "ĠÐºÐ°Ð±": 3286,
      "ĠÐ´Ð°ÑĢ": 3287,
      "ĠÐ´ÑĢÑĥÐ¶": 3288,
      "ĠÐ±ÑĢ": 3289,
      "ĠÐ±ÑĢÐ°": 3290,
      "ĠÐ±ÑĢÐ¾Ð´": 3291,
      "ĠÑĩÑĥÐ¶": 3292,
      "ĠÑĩÐ¸ÑģÑĤ": 3293,
      "ĠÑĩÑĢÐµÐ·": 3294,
      "ĠÑĩÐµÑĤÐ²ÐµÑĢ": 3295,
      "ÐµÐ»ÐµÐ¼": 3296,
      "ĠÐ·Ð¾Ð²": 3297,
      "ĠÑĥÑħÐ¾Ð´": 3298,
      "ĠÑĥÑĩÐ°": 3299,
      "ĠÑĢÐµÑĩÑĮ": 3300,
      "ĠÐ¿Ð¾ÑĤÐ¾Ð»": 3301,
      "ĠÐ¿Ð¾Ð½ÑıÑĤÑĮ": 3302,
      "Ð½ÑĥÐ¶": 3303,
      "ĠÐ¾ÑĤÐ±": 3304,
      "Ð´Ð°Ñı": 3305,
      "ĠÑıÐ·": 3306,
      "Ð¾Ð¶Ð°Ð»": 3307,
      "ĠÐºÐ°ÐºÐ¸Ñħ": 3308,
      "ĠÑģÑĤÐ°Ð½Ð¾Ð²": 3309,
      "Ð°ÑĤÐµÐ¼": 3310,
      "Ð°ÑĤÐµÐ»ÐµÐ¹": 3311,
      "ĠÑĤÐ¾Ð½": 3312,
      "ĠÑģÐ²Ð¾Ð±Ð¾Ð´": 3313,
      "ĠÑħÑĢÐ°Ð±": 3314,
      "ĠÐ¿Ð¾Ð´Ð²ÐµÑĢ": 3315,
      "ÐµÐ·Ð´": 3316,
      "ĠÐ¡Ð°Ð¼": 3317,
      "ÑĪÐ¸ÐµÑģÑı": 3318,
      "Ð»Ð°Ñĩ": 3319,
      "ÐµÑģÑģÐ¸": 3320,
      "ĠÑģÐ¿Ð°Ð»": 3321,
      "ĠÑģÐ¿ÑĢÑıÑĤ": 3322,
      "ĠÐ»Ð¸Ñħ": 3323,
      "ĠÑģÐ²Ð¾Ð¸Ð¼Ð¸": 3324,
      "ÐµÐ»Ð¸Ð²": 3325,
      "ÑĩÐ¸ÐºÐ°": 3326,
      "ĠÐĶÐ¸Ðº": 3327,
      "ÐĿÐ°Ð´": 3328,
      "Ð°ÑİÑīÐ¸Ð¹": 3329,
      "ĠÐ¿Ð¾ÐºÐ¾ÑĢ": 3330,
      "ĠÐ´ÑĢÑĥÐ³Ð¸Ð¼": 3331,
      "ÑĢÑıÑħ": 3332,
      "ĠÐ¿Ð¾ÑĤÑĢÐµÐ±": 3333,
      "ĠÐ¿ÑĢÐµÐ´Ð¼ÐµÑĤ": 3334,
      "Ð½Ð¸ÑĨÑĥ": 3335,
      "ĠÐ²ÐµÑĢÐ½ÑĥÑĤÑĮÑģÑı": 3336,
      "ĠÐ³Ð¾Ð²Ð¾ÑĢÐ¸Ð»Ð°": 3337,
      "ĠÐ±ÐµÐ·Ð¼": 3338,
      "ĠÑĥÐ´Ð°Ð»Ð¾ÑģÑĮ": 3339,
      "ĠÐ³Ð¾Ð»Ð¾Ð²Ñĭ": 3340,
      "ĠÐ´Ð¾Ð±Ð°Ð²Ð¸Ð»": 3341,
      "ĠÐķÑīÐµ": 3342,
      "ĠÐ¾ÑģÑĤÐ°Ð»ÑģÑı": 3343,
      "ĠÑģÐ´ÐµÐ»Ð°Ð»Ð°": 3344,
      "ĠÑĥÑĤÐµÑĪ": 3345,
      "ĠÐ¿ÑĢÐ¸Ð²ÑĭÑĩ": 3346,
      "ĠÐ²Ð¾ÑģÐºÑĢÐµÑģ": 3347,
      "ĠÐ´ÐµÐ²ÑĥÑĪÐºÐ¸": 3348,
      "ĠÐ¿Ð¾Ð·Ð²Ð¾Ð»": 3349,
      "ĠÐ¼Ð°Ð»ÐµÐ¹": 3350,
      "ĠÐºÐ¾ÑĢÐ¸Ð´": 3351,
      "ĠÐ¿ÑĢÐ¸Ð·Ð½Ð°Ðº": 3352,
      "ĠÑĢÐ°ÑģÑģÑĤÐ¾Ñı": 3353,
      "ĠÑĥÐ»ÑĭÐ±Ð½ÑĥÐ»ÑģÑı": 3354,
      "ĠÑĢÐ°Ð±Ð¾ÑĤÐ½Ð¾Ð³Ð¾": 3355,
      "ĠÐ¸ÑģÐºÐ»ÑİÑĩ": 3356,
      "ĠÑĢÐ°Ð·Ð´ÑĢÐ°Ð¶": 3357,
      "ĠÐ»ÐµÐ¶Ð°Ð»": 3358,
      "ĠÐ³Ð¾Ð´Ð°": 3359,
      "ĠÑģÐ¼Ð¾ÑĤÑĢÐµÐ»": 3360,
      "ĠÐ¿ÑĢÐ¸ÑıÑĤÐµÐ»ÑĮ": 3361,
      "ĠÐ¿Ð°ÑĢÐµÐ½ÑĮ": 3362,
      "ĠÑģÐ»ÐµÐ·Ð°Ð¼Ð¸": 3363,
      "ĠÐ³ÑĢÐ¾Ð¼ÐºÐ¾": 3364,
      "ĠÑģÐ¸Ð»Ñĭ": 3365,
      "ĠÐ´Ð¾ÑģÐ°Ð´": 3366,
      "ĠÐ¿ÑĥÑĤÐµÑĪÐµ": 3367,
      "ĠÐ²Ð°ÑĪÐ¸": 3368,
      "ĠÑĥÑĩÐµÐ½Ð¸": 3369,
      "----------------": 3370,
      "ĠÐ½Ð°Ð¹Ð´": 3371,
      "ĠÑģÐ¿Ð¾ÐºÐ¾Ð¹Ð½Ð¾": 3372,
      "ĠÐ¶ÐµÑģÑĤÐ¾Ðº": 3373,
      "ĠÑĪÑĤÐ°Ð±Ñģ": 3374,
      "ĠÐ¼Ð¾Ð»Ð¸ÑĤ": 3375,
      "ĠÐ²Ð½ÐµÐ·Ð°Ð¿Ð½Ð¾": 3376,
      "ĠÐ²Ð¿Ð¾Ð»Ð½Ðµ": 3377,
      "ĠÐŁÐ¾Ð¶Ð°Ð»ÑĥÐ¹": 3378,
      "ĠÐ½ÐµÑģÐºÐ¾Ð»ÑĮÐºÐ¸Ñħ": 3379,
      "ĠÐ¼ÑĥÐ¶ÑĩÐ¸Ð½": 3380,
      "ĠÐ¼Ð³Ð½Ð¾Ð²": 3381,
      "Ð¾Ð²ÐµÑĢÑĪÐµÐ½Ð½Ð¾": 3382,
      "Ð°ÑģÑĤÑĮ": 3383,
      "Ð¸Ð½ÑĥÐ»": 3384,
      "Ð»ÑĭÐ¼": 3385,
      "ÑĢÐµÑħ": 3386,
      "ÑĥÑģÑĮ": 3387,
      "ĠÑģÐµÐ´": 3388,
      "ĠÑģÐ¾Ð¼Ð½": 3389,
      "ĠÐ½ÐµÐº": 3390,
      "ÐºÐ°ÑĤ": 3391,
      "ÐºÐ°Ð»Ð¸": 3392,
      "ÑĤÐ¾Ð¸Ð½": 3393,
      "ÐµÑĢÐµ": 3394,
      "ĠÐ´Ð¶": 3395,
      "ĠÐ±ÑĥÑĤÑĭÐ»": 3396,
      "Ð¾Ð²ÑĭÐµ": 3397,
      "ĠÐ¿ÑĢÐ¾Ð¶": 3398,
      "ĠÐ¿ÑĢÐ¾ÑĩÑĮ": 3399,
      "ĠÑĤÑĥÑģÐº": 3400,
      "Ð¾Ð´Ð¸Ð»": 3401,
      "ĠÑĢÐ¾ÑĤ": 3402,
      "ĠÐ½Ð°ÑĢÑĥÑĪ": 3403,
      "ĠÐ¿Ð¾Ð½ÑıÐ»": 3404,
      "Ð°Ð²ÐºÐ°Ð·": 3405,
      "Ð½ÑĥÑģÑĮ": 3406,
      "Ð¾Ð±Ð°Ð²Ð¾Ðº": 3407,
      "ÑĢÐ°ÑģÑĤ": 3408,
      "Ð¾ÐºÑĤÐ¾ÑĢ": 3409,
      "ĠÐ¿ÑĢÐ¸Ð¶": 3410,
      "ĠÐ¿ÑĢÐ¸ÑĪÐ»Ð°": 3411,
      "Ð»ÑıÐ»Ð¸": 3412,
      "ĠÑĤÐ°ÐºÐ¸Ð¼Ð¸": 3413,
      "ĠÐ¿Ð¾Ð´Ð´ÐµÑĢÐ¶": 3414,
      "ĠÐĳÐ¾Ð³": 3415,
      "ĠÐ¡Ð¾ÑĦÐ¸Ñı": 3416,
      "ĠÐŁÐ¾ÑĤÐ¾Ð¼": 3417,
      "Ð¾ÑĩÐºÑĥ": 3418,
      "ĠÐ¾Ð´Ð½Ð¾Ð¼": 3419,
      "ĠÐ¾ÑĤÐ²Ð¾ÑĢ": 3420,
      "ĠÐ¢ÑĥÑĤ": 3421,
      "ĠÐ±ÑĥÐ´ÐµÑĪÑĮ": 3422,
      "ĠÐ³Ð¾Ð»Ð¾Ð´": 3423,
      "ĠÑĢÐ°ÑģÑģÐ»": 3424,
      "ĠÐ§ÐµÑĢÑĤ": 3425,
      "Ð¸ÑĤÐµÐ»ÑĮÐ½ÑĭÐµ": 3426,
      "Ð¡Ð»": 3427,
      "ÑĥÑģÑĤÐ¸ÑĤÑĮ": 3428,
      "ĠÑĩÐµÐ»Ð¾Ð²ÐµÑĩ": 3429,
      "ĠÐ¾ÐºÐ°Ð·": 3430,
      "ĠÑĩÐµÑĢÐº": 3431,
      "ĠÐ¿ÑĢÐ°Ð²Ð´Ñĥ": 3432,
      "ĠÑĥÑĤÑĢÐ°": 3433,
      "ĠÐ»ÑİÐ´ÑıÐ¼": 3434,
      "Ð»ÐµÐ½Ð½ÑĭÐ¹": 3435,
      "ĠÐ¿ÑĢÐ¸Ð½Ñı": 3436,
      "ĠÐ¿ÑĢÐ¸Ð½Ð°Ð´": 3437,
      "ĠÐºÐ¾Ð½ÑĨÐ°": 3438,
      "ÑģÑĤÑĥÐ¿Ð¸Ð»": 3439,
      "ĠÐ¶ÐµÐ»ÐµÐ·": 3440,
      "ĠÐ¼Ð°Ð»ÐµÐ½ÑĮÐºÐ¾Ð¹": 3441,
      "ĠÐµÐ´Ð¸Ð½ÑģÑĤÐ²ÐµÐ½": 3442,
      "Ð¤ÐµÐ´Ð¶": 3443,
      "ĠÐ½ÐµÑģÑĩÐ°ÑģÑĤ": 3444,
      "ĠÑĪÐ°Ð³Ð¸": 3445,
      "ĠÐ¸Ð´ÐµÑĤ": 3446,
      "ĠÐ¡ÐºÐ°Ð»Ð¾Ð·ÑĥÐ±": 3447,
      "Ð¸ÑĢÐ°ÑĤÑĮ": 3448,
      "ĠÐŁÐ¾ÑģÐ»Ðµ": 3449,
      "Ð¸ÑģÐºÐ¸": 3450,
      "ĠÑģÑĤÐ°ÑĢÐ°ÑıÑģÑĮ": 3451,
      "ĠÐºÐ¾Ð½ÐµÑĨ": 3452,
      "ĠÐ²Ð°ÑĪÐµ": 3453,
      "ĠÐ±Ð»Ð°Ð³Ð¾Ð´Ð°ÑĢÑı": 3454,
      "ĠÐ¿Ð¾Ð¼Ð¾ÑīÑĮÑİ": 3455,
      "ĠÐ·ÐµÐ¼Ð»Ñİ": 3456,
      "ĠÐ½Ð°Ð´ÐµÐ¶Ð´Ñĭ": 3457,
      "ĠÐ·Ð°Ð²ÑĤÑĢÐ°Ðº": 3458,
      "ĠÑĤÑİÑĢÐµÐ¼": 3459,
      "ĠÑģÐ¾Ð³Ð»Ð°ÑģÐ¸Ð»ÑģÑı": 3460,
      "ĠÐ³ÑĥÐ±Ñĭ": 3461,
      "ĠÐ²Ð¾ÑģÐ¿Ð¸ÑĤ": 3462,
      "ĠÐ¿ÑĢÐ¾Ð³ÑĥÐ»": 3463,
      "ĠÐ¶Ð°ÑĢÐ¾Ð¼": 3464,
      "ĠÑĪÐ¸ÑĢÐ¾Ðº": 3465,
      "ĠÐ¾ÑģÑĤÐ¾ÑĢÐ¾Ð¶Ð½Ð¾": 3466,
      "ĠÑĢÑıÐ´Ð¾Ð¼": 3467,
      "ĠÐ±Ð°ÑĪÐ¼": 3468,
      "ĠÐ±Ð°ÑĤÑİÑĪÐºÐ°": 3469,
      "ĠÐĵÑįÐ¼ÑĦÐ¸Ð»Ð´": 3470,
      "Ð¸ÑĪÐµ": 3471,
      "Ð»Ð°ÑĤ": 3472,
      "Ð»ÐµÐ½Ð¸Ð¹": 3473,
      "ĠÑģÐ¾Ð¼": 3474,
      "ĠÑģÐ¾Ñĩ": 3475,
      "ĠÑģÑĥÐ¿": 3476,
      "ĠÑģÑĥÑĢ": 3477,
      "ÐºÐ°Ð¼": 3478,
      "ĠÐ²Ð¸Ð½Ð°": 3479,
      "ÑĩÐ°ÑĤ": 3480,
      "Ð°Ð»ÐµÐº": 3481,
      "ĠÐºÐ°Ð¿": 3482,
      "ĠÐºÐ°ÑĪ": 3483,
      "ĠÐºÑĥÑħ": 3484,
      "ĠÐºÑĥÐ»": 3485,
      "ĠÐ±Ð¾ÑİÑģÑĮ": 3486,
      "Ð»Ð¸Ð¸": 3487,
      "Ð°ÐºÐ¾Ð¼": 3488,
      "ĠÑĥÐ¹ÑĤÐ¸": 3489,
      "Ð¾Ð´Ñĭ": 3490,
      "ĠÐ½ÐµÑĩÐµÐ³Ð¾": 3491,
      "ĠÐ½Ð°ÑĤ": 3492,
      "ĠÐ¿Ð¾ÑĨ": 3493,
      "ĠÐ¿Ð¾ÑħÐ¾Ð´": 3494,
      "Ð³Ð°": 3495,
      "Ð¾ÑĢÐ°Ð´": 3496,
      "ÑĨÐ°Ð¼Ð¸": 3497,
      "ĠÐ¾ÑĤÑĪ": 3498,
      "ĠÐ¾ÑĤÐ½Ð¾Ñģ": 3499,
      "Ð¾ÑĤÐ°": 3500,
      "ÑģÐºÐ°": 3501,
      "Ð¸Ð²Ð°Ð»Ð°": 3502,
      "Ð¾ÐºÑĢÐ¾Ð²": 3503,
      "ÑĢÑĥÐ´": 3504,
      "Ð¾ÑģÐ¿Ð¾Ð´": 3505,
      "ĠÑģÐºÐ°Ð¼": 3506,
      "ĠÐ¶Ð°Ð»ÑĮ": 3507,
      "ĠÐ¾Ð±Ð¸ÑĤ": 3508,
      "ĠÐ¾Ð±ÑĭÑĩ": 3509,
      "ĠÑħÐ°ÑĢ": 3510,
      "ĠÐ¿Ð¾Ð´Ðº": 3511,
      "ĠÐ¿Ð¾Ð´ÑĬ": 3512,
      "ĠÐĳÐµÐ´": 3513,
      "Ð¾Ð»ÑĮÑĤÐµ": 3514,
      "ĠÐ³Ð¾ÑĢÑĭ": 3515,
      "ĠÐ°ÑĢ": 3516,
      "ĠÑĪÑĤÑĥ": 3517,
      "ÑĥÐ¼Ñı": 3518,
      "ÑĥÑĩÐ°Ð»": 3519,
      "Ð»Ð¾Ð½Ñı": 3520,
      "ĠÐ¢Ðµ": 3521,
      "ĠÐ¢Ð¾Ð¼": 3522,
      "ĠÑĢÑĥÐ³": 3523,
      "ÑĭÐ²Ð°Ð»Ð¸": 3524,
      "ĠÐ±ÑĥÐ´ÐµÑĤÐµ": 3525,
      "ĠÑģÐ¼Ð¸ÑĢ": 3526,
      "ĠÐ½Ð°Ð´Ð»ÐµÐ¶": 3527,
      "ĠÐĵÐ¾Ð²Ð¾ÑĢ": 3528,
      "ĠÐ¼Ð¾Ð¶ÐµÑĪÑĮ": 3529,
      "ĠÐ´ÐµÐ»Ñĥ": 3530,
      "ĠÐ¿Ð¾Ð²Ð¾Ð·": 3531,
      "ĠÑģÑĤÐ°ÑĢÐ¾Ð¹": 3532,
      "ĠÑĦÐ°Ð¼Ð¸": 3533,
      "ÐµÑħÐ°Ð»Ð¸": 3534,
      "ĠÐ±Ð»ÐµÑģÑĤ": 3535,
      "ĠÐ¾ÐºÑĢÑĥÐ¶": 3536,
      "ĠÑĤÑĢÐ¾Ð¿": 3537,
      "ĠÑĤÑĢÐµÑĥ": 3538,
      "ĠÐ¿Ð»Ð°ÑĤÑĮ": 3539,
      "ĠÐ²Ð¿ÑĢÐ¾ÑĩÐµÐ¼": 3540,
      "ĠÐ½Ð°Ð¿ÑĢÑı": 3541,
      "ĠÐĶÐ°ÑĦÑĦ": 3542,
      "ĠÐ½Ð°ÐºÐ»Ð¾Ð½": 3543,
      "ĠÐºÐ¾Ð½ÑĨÐ¾Ð²": 3544,
      "ĠÐºÐ¾Ð»Ð¾Ðº": 3545,
      "ĠÐ¾ÑĤÐ²ÐµÑĩÐ°Ð»Ð°": 3546,
      "ĠÐ²ÐµÐ»Ð¸Ðº": 3547,
      "ĠÐ¥Ð°": 3548,
      "ĠÑĩÑĥÐ²ÑģÑĤÐ²Ð¾": 3549,
      "ĠÐ¿Ð¾Ð³Ð¾Ð²Ð¾ÑĢ": 3550,
      "ĠÐ¿ÑĢÐ¸ÐºÐ°Ð·Ð°Ð»": 3551,
      "ĠÑĥÐ´Ð°ÑģÑĤÑģÑı": 3552,
      "ĠÐ¿Ð¾ÑģÐ¼Ð¾ÑĤÑĢÐµÑĤÑĮ": 3553,
      "ĠÐ±Ð¾Ð³Ð°ÑĤ": 3554,
      "ĠÑĤÐ°Ñī": 3555,
      "ĠÐ½Ð¸ÐºÐ°ÐºÐ¾Ð¹": 3556,
      "ĠÐ¿Ð¾ÑħÐ¾Ð¶": 3557,
      "ĠÑģÐºÐ°Ð¶Ñĥ": 3558,
      "ĠÑĨÐµÐ»ÑĭÐ¹": 3559,
      "ĠÑģÐ¸Ð»ÑĮÐ½Ð¾": 3560,
      "ĠÑħÐ»Ð¾Ð¿": 3561,
      "Ð»Ð¾Ð²Ð¸Ñĩ": 3562,
      "ĠÑĩÑĥÐ´ÐµÑģ": 3563,
      "ĠÐĽÐ¾Ð½Ð´Ð¾Ð½": 3564,
      "ĠÐ¢Ð²Ð¸ÑģÑĤÐ°": 3565,
      "ĠÐļÐ½ÑıÐ³Ð¸Ð½Ñı": 3566,
      "ĠÐ²ÑģÑĤÐ°Ð»": 3567,
      "ĠÐ²ÑĤÐ¾ÑĢÐ¾Ð¹": 3568,
      "Ð¾Ð»ÑĩÐ°Ð»Ð¸": 3569,
      "ĠÐ²Ð¸ÑģÐµÐ»Ð¸": 3570,
      "ĠÐ¾ÑĤÑģÑİÐ´Ð°": 3571,
      "ĠÑģÐ²Ð¸Ð´ÐµÑĤÐµÐ»ÑĮ": 3572,
      "ĠÑģÑĩÐ°ÑģÑĤÑĮÐµ": 3573,
      "ĠÐ²Ð¾Ð²ÑģÐµ": 3574,
      "ĠÑģÑĤÑĥÐ»Ð°": 3575,
      "ĠÐľÐ¸ÑħÐ°Ð¹Ð»Ð¾Ð²Ð¸Ñĩ": 3576,
      "Ð¤ÐµÐ´Ð¶Ð¸Ð½": 3577,
      "Ð¾Ñı": 3578,
      "Ð¾ÑģÑĤÑĮÑİ": 3579,
      "Ð°ÑĢÑĥ": 3580,
      "Ð°Ð½Ðµ": 3581,
      "Ð½Ð´": 3582,
      "ÑĢÐ°Ð¼": 3583,
      "ÑĥÑģÑĤÑĮ": 3584,
      "ÑĥÐ½ÑĥÐ»": 3585,
      "ÑĭÑĩÐ½Ð¾": 3586,
      "ĠÐ²Ð²": 3587,
      "ĠÐ²Ð½ÑĥÑĤ": 3588,
      "ĠÐ²Ð»Ð°Ð´": 3589,
      "Ð²ÑĭÑĩÐ°Ð¹": 3590,
      "ĠÐ¾ÑĦÐ¸ÑĨ": 3591,
      "ÑģÑĤÐ°ÑĤÐ¸": 3592,
      "ĠÐºÐ¾Ð»ÑĮ": 3593,
      "ĠÐºÑĥÑģ": 3594,
      "ĠÐ¼ÐµÐ½ÑĮ": 3595,
      "ĠÐ´Ð¸": 3596,
      "ĠÐ´Ð¸ÑĤ": 3597,
      "ĠÐ´Ð½ÐµÐ¹": 3598,
      "Ð¾Ð²ÑĥÑİ": 3599,
      "Ð°ÐºÐµÐ¹": 3600,
      "ĠÑĥÑī": 3601,
      "ĠÑĥÑĪÐµÐ»": 3602,
      "ĠÑĥÑĩÐ°ÑģÑĤ": 3603,
      "Ð½Ð¸ÐºÑĥ": 3604,
      "ĠÑĢÐµÐ´": 3605,
      "ĠÐ½Ð°ÑģÑĤ": 3606,
      "Ð½ÑĥÑĩÐºÐ°": 3607,
      "ÑĢÑĥÑĩ": 3608,
      "Ð¾Ð¶ÐºÐ¾": 3609,
      "ĠÑģÐºÐ»Ð°Ð´": 3610,
      "ĠÐ¶Ð´Ð°ÑĤÑĮ": 3611,
      "ĠÐ¶Ð´Ð°Ð»": 3612,
      "ĠÐ¶ÐµÑĢÑĤÐ²": 3613,
      "ĠÐ²ÑĭÑĤ": 3614,
      "ĠÐ²ÑĭÑĢ": 3615,
      "ĠÐºÐ°ÐºÐ¾Ð¼": 3616,
      "ĠÐ¾Ð±ÐµÑĢ": 3617,
      "ÐµÐ²Ð¾Ð¶": 3618,
      "ÐºÐ¾Ñİ": 3619,
      "ĠÐ¿Ð¾Ð´ÑħÐ¾Ð´": 3620,
      "ĠÐĳÐ¾Ð¶Ðµ": 3621,
      "ĠÐ½Ð¸Ñĩ": 3622,
      "ĠÐ½Ð¸Ð¶": 3623,
      "ĠÐ½Ð¸Ñī": 3624,
      "ĠÐĴÐ´ÑĢÑĥÐ³": 3625,
      "Ð»Ð°ÑĪ": 3626,
      "ĠÐ°Ð´": 3627,
      "ĠÑĢÐ°Ð·Ð»Ð¸Ñĩ": 3628,
      "ÐºÑĥÑģ": 3629,
      "Ð¾ÑĩÐºÐ°": 3630,
      "ĠÑģÐ¿Ð¸Ð½Ð¾Ð¹": 3631,
      "ĠÑģÐ¿ÑĢÐ°ÑĪ": 3632,
      "ĠÐļÑĥÐ´Ð°": 3633,
      "ĠÐ»Ð¸Ð±Ð¾": 3634,
      "Ð¸Ð»Ð°Ñħ": 3635,
      "ĠÐŀÐ»Ð¸Ð²ÐµÑĢÐ¾Ð¼": 3636,
      "Ð¾ÑģÑĤÐ¾Ð¹": 3637,
      "ÑįÑĤ": 3638,
      "Ð¾ÑĪÐ»Ð¾": 3639,
      "ÑĤÐµÑĨ": 3640,
      "ĠÐ¿Ð¾Ð»Ð½Ð¾": 3641,
      "ĠÐ§Ð°ÑĨ": 3642,
      "ĠÑģÐ¼ÑĥÑĤ": 3643,
      "ÑĢÑıÑģ": 3644,
      "ĠÐ²Ð¾Ð¾Ð±ÑĢÐ°Ð¶": 3645,
      "ĠÐ¿Ð¾ÑĤÐ¾Ðº": 3646,
      "ĠÑģÑĤÐ¾ÑıÐ²": 3647,
      "ĠÐ¼Ð¾Ð¸Ð¼": 3648,
      "ÑĢÐµÐ¼Ñı": 3649,
      "ĠÐ´Ð²Ð¾Ðµ": 3650,
      "ĠÐ¿Ð¾Ð²Ðµ": 3651,
      "ĠÐ¸Ð¼ÐµÑİ": 3652,
      "ĠÑĤÑĭÑģÑı": 3653,
      "ĠÐ³Ð¾Ð²Ð¾ÑĢÐ¸Ð»Ð¸": 3654,
      "ÐŁÑĢÐ¸": 3655,
      "ĠÑħÐ¾ÑĤÐµÐ»Ð°": 3656,
      "Ð»ÑİÑģÑĮ": 3657,
      "ÐľÐ°Ð»ÑĮÑĩÐ¸": 3658,
      "ÐľÐ¸ÑģÑģÐ¸Ñģ": 3659,
      "ĠÑĤÑĢÐµÐ¿": 3660,
      "ĠÐºÐ¾Ð¼Ð½Ð°ÑĤ": 3661,
      "ĠÐ¼Ð¸Ð»Ð¾ÑģÑĤ": 3662,
      "ĠÐĽÐ¸Ð·Ð°": 3663,
      "ÐµÑĢÐ¶Ð¸ÑĤÐµ": 3664,
      "ĠÑģÐ¾Ð²ÐµÑĤÐ°": 3665,
      "ĠÐĿÐµÑĥÐ¶ÐµÐ»Ð¸": 3666,
      "ĠÐ²Ð¿ÐµÑĢÐµÐ´Ð¸": 3667,
      "ĠÐ¾ÑģÑĤÐ°Ð½Ð°Ð²Ð»Ð¸Ð²": 3668,
      "ÐķÐ²ÑĢÐµÐ¹": 3669,
      "ĠÐ±ÐµÑģÑģ": 3670,
      "ÑĢÐ°Ð¶Ð´": 3671,
      "ĠÐ¼Ð¸Ð½ÑĥÑĤÐºÑĥ": 3672,
      "ÑģÑĤÐ²Ð¾Ð²Ð°Ð»Ð°": 3673,
      "ĠÐºÐ¾Ð»Ð¾Ð´": 3674,
      "ĠÐ¶ÐµÐ»Ð°Ð½Ð¸Ðµ": 3675,
      "ĠÐ¼Ð°Ð»ÐµÐ½ÑĮÐºÐ¾Ð³Ð¾": 3676,
      "ĠÐ¼ÑĥÐ¶ÑĩÐ¸Ð½Ñĭ": 3677,
      "ĠÐ·Ð°ÑģÐ»ÑĥÐ¶": 3678,
      "Ð¾Ð¹Ð´ÐµÐ¼": 3679,
      "ĠÐ¿ÑĢÐ¸Ð´ÐµÑĤ": 3680,
      "ĠÐ³ÑĢÑĥÐ´ÑĮ": 3681,
      "ĠÐĵÑĢÑĥÑĪÐ½Ð¸ÑĨÐºÐ¾Ð³Ð¾": 3682,
      "ĠÑħÐ¾ÑĢÐ¾ÑĪÐµÐ½ÑĮÐºÐ¾": 3683,
      "ĠÐ¿Ð¾Ð»Ð¾Ð¶Ð¸Ð»": 3684,
      "ĠÐºÑĢÐµÐ¿Ð¾ÑģÑĤÐ¸": 3685,
      "Ð°Ð´ÑĨÐ°ÑĤÐ¸": 3686,
      "ĠÑĥÐ¶Ð°ÑģÐ½Ð¾": 3687,
      "ĠÑĢÐ°ÑģÐ¿Ð¾ÑĢ": 3688,
      "ĠÐ¾ÑĤÐ¿ÑĢÐ°Ð²Ð¸Ð»ÑģÑı": 3689,
      "ĠÐ¿Ð¾ÑģÑĤÐµÐ»Ð¸": 3690,
      "ĠÑģÑħÐ²Ð°ÑĤÐ¸Ð²": 3691,
      "ĠÐ¸Ð³ÑĢÐ°": 3692,
      "ĠÐ²Ð°ÑĪÐ¸Ñħ": 3693,
      "ĠÐ¿Ð»ÐµÑĩÐ¾": 3694,
      "ĠÐ¿Ð»Ð¾ÑħÐ¾": 3695,
      "ĠÑĤÑĢÐµÐ²Ð¾Ð¶": 3696,
      "ĠÐ²Ð½Ð¸Ð·Ñĥ": 3697,
      "ĠÐ¿ÐµÑĢÐµÐ±Ð¸Ð»": 3698,
      "ĠÑģÑĤÐµÐ½Ðµ": 3699,
      "ĠÐ·Ð°ÑıÐ²Ð¸Ð»": 3700,
      "ĠÑģÐ»ÐµÐ¿Ð¾Ð¹": 3701,
      "ĠÑĩÐµÑĤÑĭÑĢÐµ": 3702,
      "ĠÐ²ÐµÑīÑĮ": 3703,
      "ĠÑĢÐ°Ð²Ð½": 3704,
      "ĠÑģÐ¾ÑħÑĢÐ°": 3705,
      "ĠÑĢÐ°Ð·Ð³Ð¾Ð²Ð°ÑĢ": 3706,
      "ĠÐ¿ÑĢÐ¾Ð±Ð¾ÑĢÐ¼Ð¾ÑĤÐ°Ð»": 3707,
      "Ð¾Ð¶Ð¸Ð´Ð°Ð½": 3708,
      "ĠÐ¿Ð¾Ð²Ð¾ÑĢÐ°Ñĩ": 3709,
      "ĠÐĵÑĢÐ¸Ð³Ð¾ÑĢÐ¸Ð¹": 3710,
      "ĠÑĤÑĢÐµÑĥÐ³Ð¾Ð»": 3711,
      "Ð°ÑģÑĮ": 3712,
      "ÑĤÐ°ÑĤ": 3713,
      "Ð¸ÐºÐ°": 3714,
      "ÑģÐµÐ´": 3715,
      "ĠÑģÐ¾ÑĤ": 3716,
      "ĠÑģÑħÐ¾Ð´": 3717,
      "ĠÑģÐ¼Ñĥ": 3718,
      "ĠÐ¿Ð¾Ð³Ð¾": 3719,
      "ĠÐ¿Ð¸ÑģÑĮ": 3720,
      "ÐºÐ°Ð¿Ð¸ÑĤÐ°Ð½": 3721,
      "ĠÐ²Ð¸Ð½Ð¾Ð²": 3722,
      "Ð²Ð½ÑĥÑĩÐºÐ°": 3723,
      "ĠÐ¸Ð½Ð¾Ð¹": 3724,
      "ÑģÑĤÐ¸ÑĤÑĮ": 3725,
      "ÑģÑĤÑıÐ¼Ð¸": 3726,
      "ĠÐºÐ°Ð¼Ð¸": 3727,
      "ĠÐ¼Ñĥ": 3728,
      "ÑĪÐµÐ´": 3729,
      "ÑħÑĥ": 3730,
      "ĠÐ±Ð¾Ð¹": 3731,
      "Ð¾Ð²Ñĭ": 3732,
      "Ð¾Ð²ÑĭÐ¼": 3733,
      "ĠÑĤÐ¾Ð¿": 3734,
      "ĠÑĩÐµÑģÑĤ": 3735,
      "ĠÐ·Ð°Ð¹": 3736,
      "ĠÐ½ÐµÑĥÐ´": 3737,
      "ĠÐ½ÐµÐ¾Ð¶Ð¸Ð´Ð°Ð½": 3738,
      "ĠÐ½Ð°Ñħ": 3739,
      "ĠÐ½Ð°ÑĩÐ¸Ð½Ð°": 3740,
      "ÐµÐ¼ÑĮ": 3741,
      "ĠÐ»Ð¾Ð¼": 3742,
      "ĠÐ¾ÑĤÐºÐ¸": 3743,
      "ĠÐ¾ÑĤÐ´ÐµÐ»": 3744,
      "Ð¸Ð²Ð°ÑĤÑĮÑģÑı": 3745,
      "ĠÐ³ÐµÑĢ": 3746,
      "ĠÐ³Ð½ÐµÐ²": 3747,
      "Ð°ÑĢÑĮ": 3748,
      "ĠÐ¿ÑĢÐ¸ÑģÐ»": 3749,
      "Ð½ÐµÑģÐ»Ð¸": 3750,
      "Ð½ÐµÑģÑĤÐ¸": 3751,
      "ĠÑģÑĤÑĥÐº": 3752,
      "ÑģÑĤÐ²ÐµÐ½Ð½Ð¾Ðµ": 3753,
      "ĠÐºÐ¾Ð»Ð¸": 3754,
      "ĠÐ¾Ð±Ð¾ÑĢ": 3755,
      "ÐµÐ²Ð°ÑĤÑĮ": 3756,
      "ÐµÐ²ÑĥÑĪÐºÐ°": 3757,
      "Ð»ÑıÑıÑģÑĮ": 3758,
      "Ð°Ð½Ð½ÑĭÐ¼": 3759,
      "ĠÐ²ÑģÐ¼Ð°ÑĤÑĢÐ¸Ð²": 3760,
      "ĠÐ¡ÐµÐ¹ÑĩÐ°Ñģ": 3761,
      "Ð¾Ð»ÑĮÑĪÐµ": 3762,
      "ĠÐŁÐ¾ÑĩÐµÐ¼Ñĥ": 3763,
      "ĠÐĴÑĥ": 3764,
      "ĠÑģÐºÐ°Ð·Ð°Ð»Ð¸": 3765,
      "ĠÐ°Ð¿": 3766,
      "ĠÐ°ÑĢÐµÑģÑĤ": 3767,
      "ĠÐľÐµÑĢÐ¸": 3768,
      "ĠÐľÐ¾Ð¶ÐµÑĤ": 3769,
      "ĠÐļÐ¾Ð½ÐµÑĩÐ½Ð¾": 3770,
      "ÑĩÐ¸ÑģÐ»": 3771,
      "ĠÑĢÑĥÑģ": 3772,
      "ÑĭÐ²Ð°ÑİÑĤ": 3773,
      "ĠÑģÐ°Ð¼ÑĥÑİ": 3774,
      "ĠÐ§ÐµÑĢ": 3775,
      "Ð¸ÑĤÐµÐ»ÑĮÐ½Ð¾Ðµ": 3776,
      "ĠÐ½Ð°Ð´ÐµÑİÑģÑĮ": 3777,
      "ĠÑģÑĤÐ¾ÑıÐ»Ð°": 3778,
      "ÐµÑĤÐµÑģÑĮ": 3779,
      "ĠÐ¼Ð¾Ð»ÑĩÐ°Ð»": 3780,
      "ÐŀÐ´": 3781,
      "ĠÐ·Ð°Ð¼ÐµÑĪ": 3782,
      "ĠÐ»Ð¸ÑĨÐ¾Ð¼": 3783,
      "ĠÐ´Ð¾Ð±ÑĢÐ¾Ð´": 3784,
      "ĠÐ½Ð°Ð¿Ð¾Ð»": 3785,
      "ĠÐ½Ð°Ð¿Ð¸Ñģ": 3786,
      "ĠÐĹÐ½Ð°": 3787,
      "ĠÐĹÐ°ÑĤÐµÐ¼": 3788,
      "ĠÐĶÐ°ÑĥÐº": 3789,
      "ĠÑĥÐ¿Ð°Ð»Ð°": 3790,
      "ĠÐ³Ð¾Ð»Ð¾ÑģÐ°": 3791,
      "ĠÐ´ÑĥÐ¼Ð°ÑĤÑĮ": 3792,
      "ĠÐ²Ð°ÑĪÐ¸Ð¼": 3793,
      "ĠÐ²Ð¾ÑģÑħ": 3794,
      "Ð¸Ð»ÑĮÐ½Ð¾": 3795,
      "ĠÐ²Ð´Ð¾Ð±Ð°Ð²Ð¾Ðº": 3796,
      "ĠÐ²Ð·Ð´Ð¾ÑĢ": 3797,
      "ĠÑĢÐ°Ð½Ð¾": 3798,
      "ĠÐ¿Ð¾Ð³ÑĢÐµÐ±": 3799,
      "Ð°ÑİÑīÐµÐ¹": 3800,
      "Ð°ÑİÑīÐ¸Ðµ": 3801,
      "ĠÑģÑĥÐ´Ð°ÑĢÑĮ": 3802,
      "ĠÐ¿Ð¾Ð»Ð¾Ð¶ÐµÐ½Ð¸Ðµ": 3803,
      "ĠÐ½ÐµÑģÑĩÐ°": 3804,
      "ĠÑıÐ²Ð½Ð¾": 3805,
      "ĠÐ·Ð²Ð¾Ð½": 3806,
      "ĠÐ¸ÑģÐºÑĥÑģ": 3807,
      "ĠÐ²Ð¼ÐµÑĪ": 3808,
      "ĠÐºÐ°Ð¼ÐµÐ½ÑĮ": 3809,
      "ĠÐŃÑĤÐ°": 3810,
      "ĠÐ»Ð¾ÑĪÐ°Ð´ÐµÐ¹": 3811,
      "ĠÑĥÑģÑĤÑĢÐµÐ¼": 3812,
      "ĠÐ·Ð»Ð¾Ð±": 3813,
      "ĠÐ´ÐµÑĢÐ¶Ð°Ð»": 3814,
      "ĠÐ´Ð¾ÑģÑĤÐ¾Ð¸Ð½": 3815,
      "ĠÑħÐ¾Ð·ÑıÐ¸Ð½Ð°": 3816,
      "ĠÑĩÐ¸ÑĤÐ°Ð»": 3817,
      "ĠÐ¼Ð¾Ð»ÑĩÐ°Ð½Ð¸Ðµ": 3818,
      "ĠÐ¿Ð¾Ð´Ð½ÑıÐ²": 3819,
      "ĠÐ¿Ð¾Ð´Ð½ÑıÐ»ÑģÑı": 3820,
      "ĠÑĥÐºÐ°Ð·ÑĭÐ²Ð°Ñı": 3821,
      "ĠÐ¿Ð¾Ð»Ð¸ÑĨÐµÐ¹": 3822,
      "ĠÐ¿Ð¾Ð»Ð¸ÑģÐ¼ÐµÐ½": 3823,
      "ĠÐ¿ÑĢÐ¾ÐºÐ»ÑıÑĤ": 3824,
      "ĠXX": 3825,
      "Ð¾Ð¼Ð½ÐµÐ½Ð½Ð¾": 3826,
      "ĠÑģÐ»ÑĥÑĩÐ°Ð¹Ð½Ð¾": 3827,
      "ĠÑĤÑĢÑĥÐ´Ð¾Ð¼": 3828,
      "ĠÑĥÐ´Ð°ÑĢÐ¸Ð»": 3829,
      "ĠÐ¾ÐºÐ¾Ð½Ñĩ": 3830,
      "ĠÐºÐ¾Ð¼Ð¿Ð°Ð½Ð¸Ð¸": 3831,
      "ĠÐ»ÑİÐ±Ð¾Ð²ÑĮ": 3832,
      "ĠÐ¡ÐºÐ°Ð¶Ð¸ÑĤÐµ": 3833,
      "ĠÐºÑĢÐ°Ð¹Ð½ÐµÐ¹": 3834,
      "ĠÑģÐ¾Ð´ÐµÑĢÐ¶": 3835,
      "ĠÑĢÐ°ÑģÑģÐµÑıÐ½": 3836,
      "ĠÐ¿Ð°Ð¼ÑıÑĤÐ¸": 3837,
      "ĠÑģÐ²ÐµÐ´ÐµÐ½Ð¸Ñı": 3838,
      "ĠÐ½ÐµÐ¼Ð½Ð¾Ð¶ÐºÐ¾": 3839,
      "ĠÐ¿Ð»Ð¾ÑīÐ°Ð´": 3840,
      "ĠÑĩÑĢÐµÐ·Ð²ÑĭÑĩÐ°Ð¹": 3841,
      "ĠÐ»Ð¸ÑħÐ¾ÑĢÐ°Ð´": 3842,
      "ĠÐ¿ÑĢÐ¸Ð½Ð°Ð´Ð»ÐµÐ¶": 3843,
      "ĠÑħÐ°ÑĢÐ°Ðº": 3844,
      "Ð¾ÑīÐ¸": 3845,
      "Ð°Ð½Ñĥ": 3846,
      "Ð¸ÑģÐ»": 3847,
      "Ð»Ð¾Ð¹": 3848,
      "Ð»Ð°Ð·": 3849,
      "ÑĭÐ»ÑĮ": 3850,
      "ÐºÐ°Ðº": 3851,
      "Ð²Ñĥ": 3852,
      "Ð²ÐµÑĤÐ°": 3853,
      "Ð¼Ð¾": 3854,
      "ĠÐºÑĢÐ°": 3855,
      "ĠÐºÐ»Ð°Ð´": 3856,
      "ĠÐ¼Ð°Ð½": 3857,
      "ĠÐ¼ÑıÐ³": 3858,
      "ÐµÐ½Ð½ÑĭÐ¼Ð¸": 3859,
      "ĠÐ´ÑĭÑħ": 3860,
      "ĠÐ±Ð¾Ð´": 3861,
      "ĠÐ±ÑĥÐº": 3862,
      "ĠÐ±ÑĥÐ»ÑĮ": 3863,
      "Ð»Ð¸Ð¶": 3864,
      "ÑİÑīÐ¸Ð¹": 3865,
      "ĠÐ¿ÑĢÐµÐ¿": 3866,
      "ĠÑĤÑı": 3867,
      "ĠÑĤÐµÑģ": 3868,
      "ĠÑĩÐ°ÑĪ": 3869,
      "ĠÐ·Ð»Ð¾": 3870,
      "Ð¸Ð»ÐµÑĤ": 3871,
      "Ð¸Ð»Ð¾Ñģ": 3872,
      "ĠÑĢÐ¾Ð²": 3873,
      "ĠÑĢÑĥÑĩ": 3874,
      "ĠÑĢÐ°Ð±": 3875,
      "ĠÑĢÐ¸ÑģÐº": 3876,
      "ĠÐ½Ð°ÑģÐ»": 3877,
      "ĠÐ½Ð°ÑĪÐµÐ³Ð¾": 3878,
      "Ð³Ð´Ðµ": 3879,
      "ĠÐ»ÐµÐ½": 3880,
      "Ð¸Ð²Ð°Ð»Ð¸ÑģÑĮ": 3881,
      "Ð³Ð¾ÑĢ": 3882,
      "ÑĢÑĥÐ·": 3883,
      "Ð¾ÑģÐ°": 3884,
      "ĠÐ¶ÐµÐ½Ð¸": 3885,
      "ĠÐ¿ÑĢÐ¸ÑİÑĤ": 3886,
      "ĠÐ¿ÑĢÐ¸ÑĩÐ¸Ð½Ñĭ": 3887,
      "ĠÑģÑĤÐ°Ð»Ð°": 3888,
      "ĠÑģÑĤÐµÐ½Ñĭ": 3889,
      "ĠÑģÐ»ÑĥÑħ": 3890,
      "ĠÑĤÐ¾Ñĩ": 3891,
      "Ð°Ð½ÐºÐ°": 3892,
      "ĠÐ²ÑģÐµÐ¼Ñĥ": 3893,
      "ÑĪÐ¸Ð»Ð¸": 3894,
      "ĠÐŁÐµÑĢ": 3895,
      "ĠÐĴÐµÑĢÐ½": 3896,
      "ÐµÐ½ÑĮÐºÐ¸Ð¹": 3897,
      "ÑĢÐ¸Ðº": 3898,
      "ĠÐ¾Ð´ÐµÐ¶": 3899,
      "ÑĢÑĭÐµ": 3900,
      "ÑĢÑĭÐ³": 3901,
      "ĠÐ²Ð·Ð±": 3902,
      "ĠÐ²Ð·ÑıÐ²": 3903,
      "ĠÑĢÑĥÐºÐ°": 3904,
      "ĠÑĢÑĥÐºÐ°Ñħ": 3905,
      "ĠÐĲÐ½Ð³": 3906,
      "ÑĦÑĢÐ°Ð½ÑĨ": 3907,
      "ĠÑģÑĤÐ¾Ð»Ð°": 3908,
      "ĠÐ´Ð²Ð¸Ð¶": 3909,
      "ĠÐ¼Ð¾Ð³Ð»Ð¾": 3910,
      "Ð¡Ð¾Ð²ÐµÑĢÑĪÐµÐ½Ð½Ð¾": 3911,
      "ĠÐ¸Ð¼ÐµÑĤÑĮ": 3912,
      "ÐŀÐ±": 3913,
      "ÐŀÐ½Ð¸": 3914,
      "ĠÑģÑĤÐ°ÑĢÐ°Ð»ÑģÑı": 3915,
      "ĠÑģÑĤÐ°ÑĢÑĭÐµ": 3916,
      "ĠÐ´Ð¶ÐµÐ½ÑĤÐ»ÑĮÐ¼ÐµÐ½Ñĥ": 3917,
      "ÐŁÐ¾Ð´": 3918,
      "ĠÑĨÐµÑĢÐº": 3919,
      "ĠÐ»ÑİÐ±Ð¸Ð»": 3920,
      "ĠÐ·Ð°ÐºÐ¾Ð½": 3921,
      "ĠÐ»Ð¸ÑĨÑĥ": 3922,
      "ÐļÐ½Ñı": 3923,
      "ĠÐ¼Ð¾Ð»Ð¾Ð´ÑĭÑħ": 3924,
      "ĠÑĥÑĤÐ²ÐµÑĢÐ¶": 3925,
      "ĠÐ±Ð¾Ð»ÑĤ": 3926,
      "ĠÐ½Ð°Ð·Ð²": 3927,
      "ĠÐ·Ð°Ð²ÐµÑī": 3928,
      "ĠÐ¿ÑĢÐ¸Ð½ÑıÑĤÑĮ": 3929,
      "ĠÐ´Ð¾ÑĢÐ¾Ð³Ð¸": 3930,
      "Ð½Ð¾Ð²ÑĮ": 3931,
      "ĠÐ³Ð¾ÑĢÐ»Ð¾": 3932,
      "ĠÐ¿ÑĢÐ¾Ð´Ð¾Ð»Ð¶Ð°Ð»Ð°": 3933,
      "ĠÐ¾ÑĤÐºÑĢÑĭÐ²": 3934,
      "Ð¾Ð¶ÐµÑģÑĤÐ²Ð¾": 3935,
      "ĠÐ½Ð¾Ð³Ð°Ð¼Ð¸": 3936,
      "ĠÐ½ÐµÐ²Ð¾Ð·Ð¼Ð¾Ð¶": 3937,
      "ĠÑĢÐµÑĪÐ¸Ð»": 3938,
      "ĠÑĢÐµÑĪÐµÐ½Ð¸Ðµ": 3939,
      "ĠÐ¥Ð¾ÑĤÑĮ": 3940,
      "ĠÐ¿ÐµÑĢÐ²Ð°Ñı": 3941,
      "ĠÐ¿ÑĢÐ¾ÑĪÐµÐ»": 3942,
      "ĠÐ¿Ð¾Ð±Ð»ÐµÐ´": 3943,
      "ĠÐľÐ¾Ð½ÐºÑģÐ°": 3944,
      "ĠÐ²ÑģÑĤÑĢÐµÐ²Ð¾Ð¶": 3945,
      "ĠÐ²Ð¾Ð´Ñĥ": 3946,
      "ĠÐ·Ð°Ð³Ð»Ñı": 3947,
      "ĠÑĢÐ°ÑģÑģÑĥÐ´": 3948,
      "ĠÑĥÐ»ÑĭÐ±Ð°ÑıÑģÑĮ": 3949,
      "ĠÐ²ÑģÐºÐ¾ÑĢÐµ": 3950,
      "ĠÐ²ÑģÐºÑĢÐ¸ÑĩÐ°Ð»": 3951,
      "ĠÐ²ÑĭÐ¿Ð¸ÑĤÑĮ": 3952,
      "ĠÐ´ÑĥÑĪÑĥ": 3953,
      "ÑĢÐ¸Ð¼ÐµÑĢ": 3954,
      "ĠÐ½Ð¾ÑģÐ¾Ð²Ð¾Ð¹": 3955,
      "ĠÐŃÐ¹": 3956,
      "ĠÐ¾Ð¿Ð°ÑģÐ½Ð¾ÑģÑĤÐ¸": 3957,
      "ĠÐ¾ÑĤÐºÑĢÑĭÑĤ": 3958,
      "ĠÑħÐ¾Ð·ÑıÐ¹": 3959,
      "III": 3960,
      "ĠÐ²Ð»Ð°ÑģÑĤÐ¸": 3961,
      "ĠÐ¾Ð¶Ð¸Ð´Ð°": 3962,
      "ĠÑģÑĤÐ°ÑĢÑĥÑħÐ°": 3963,
      "ĠÐ¿Ð¾Ð½Ð¸Ð¼Ð°Ñİ": 3964,
      "ĠÐłÐ°Ð·Ð²Ðµ": 3965,
      "ĠÐ·Ð½Ð°Ð»Ð°": 3966,
      "ĠÐºÐ°ÑĩÐµ": 3967,
      "ĠÑģÐµÐºÑĥÐ½Ð´Ñĥ": 3968,
      "ĠÐ¾Ð³Ð¾ÑĢ": 3969,
      "ĠÐ¾Ð³Ð¾Ð½ÑĮ": 3970,
      "ĠÐ±Ð°ÑĢÑĭÑĪ": 3971,
      "ĠÐŁÑĢÐ¾Ñī": 3972,
      "ĠÐ±Ð¾Ð»ÐµÐ·Ð½Ð¸": 3973,
      "ĠÐ²ÐµÐ»Ð¸ÑĩÐ°Ð¹ÑĪÐ¸Ð¼": 3974,
      "ĠÐ´ÐµÐ¹ÑģÑĤÐ²Ð¸ÑĤÐµÐ»ÑĮÐ½Ð¾": 3975,
      "ĠÑħÐ»ÐµÐ±Ð°": 3976,
      "ĠÐ¿Ð¾Ð´ÑĤÐ²ÐµÑĢÐ´": 3977,
      "ĠÐ¡Ð¾ÑĦÑĮÑı": 3978,
      "ĠÐ²ÑģÐºÐ¾ÑĩÐ¸Ð»": 3979,
      "ĠÑıÑģÐ½Ð¾": 3980,
      "ĠÐ¿ÑĢÐ¾ÑħÐ¾Ð¶": 3981,
      "ĠÑıÐ·ÑĭÐº": 3982,
      "ĠÐ´Ð¸ÑĤÑı": 3983,
      "ĠÑħÐ°ÑĢÐ°ÐºÑĤÐµÑĢ": 3984,
      "Ð¸Ð»Ð¾ÑģÐ¾ÑĦ": 3985,
      "!!": 3986,
      "\",": 3987,
      "Ð°ÑĦ": 3988,
      "ÑĤÑĢÐ¸": 3989,
      "ÑĥÐºÐ°": 3990,
      "ÑĮÐ±Ñĭ": 3991,
      "ĠÑģÐ¾ÑģÑĤ": 3992,
      "ĠÑģÑİÑĢ": 3993,
      "ĠÐ¿ÑĭÐ»": 3994,
      "ĠÐ²Ð½Ñĥ": 3995,
      "ĠÐ²Ð½Ðµ": 3996,
      "Ð²Ð¾Ð¹": 3997,
      "ĠÐ¾ÑĢ": 3998,
      "Ð´ÐµÐ¼": 3999,
      "ĠÐºÑĥÑĩ": 4000,
      "ĠÐºÑĥÐ¿": 4001,
      "ĠÐºÑĢÐ°Ñı": 4002,
      "ĠÐºÑĥÐ²": 4003,
      "ĠÐºÐ²Ð°ÑĢ": 4004,
      "ĠÐ¼ÐµÑĤ": 4005,
      "ĠÐ´Ð½Ð¸": 4006,
      "ĠÐ±ÑĥÑĢ": 4007,
      "Ð¾Ð²ÐµÑĤ": 4008,
      "Ð¾Ð²Ð°Ð»Ð¸": 4009,
      "Ð¾Ð²Ð°Ð½Ð¸Ñı": 4010,
      "Ð»Ð¸Ðº": 4011,
      "ÐµÑĤÐ½Ð¾": 4012,
      "ĠÑĩÐ¸Ð½Ð¾Ð²": 4013,
      "Ð¾Ð»ÑİÐ±": 4014,
      "ĠÐ½ÐµÐ¸ÑģÑĤ": 4015,
      "ĠÐ½ÐµÑĥÐ¶ÐµÐ»Ð¸": 4016,
      "Ð½Ð¸Ð»Ð¸": 4017,
      "Ð¶ÐºÐ°": 4018,
      "ĠÐ½Ð°ÑĪÐµÐ»": 4019,
      "Ð°Ð¼Ð¿": 4020,
      "ĠÐ¿Ð¾ÑĢÐ°": 4021,
      "ĠÐ¿Ð¾ÑĢÑĭ": 4022,
      "ĠÐ»Ð¾Ð´": 4023,
      "ĠÐ»Ð¾ÑĢ": 4024,
      "ĠÐ»Ð°Ð´": 4025,
      "ĠÐ»ÐµÐ²": 4026,
      "ĠÐ»ÐµÑģ": 4027,
      "ÑīÐ¸ÑĤ": 4028,
      "Ð½ÑĥÑģ": 4029,
      "ÑģÐºÑĥÑİ": 4030,
      "Ð¸Ð²Ð°ÑİÑĤ": 4031,
      "ĠÐ³Ð½ÑĥÑģ": 4032,
      "Ð¸Ð¼ÑĭÐ¼": 4033,
      "ĠÑıÐ·Ñĭ": 4034,
      "ĠÑģÐºÐ°Ð·": 4035,
      "ĠÐ¿ÑĢÐ¸Ð³Ð¾Ð²Ð¾ÑĢ": 4036,
      "Ð½ÐµÑĪÑĮ": 4037,
      "ĠÑģÐ»ÑĥÐ³": 4038,
      "ĠÐ¾Ð±Ñī": 4039,
      "ĠÐ¾Ð±ÑĭÑĩÐ½Ð¾": 4040,
      "ÐµÐ²ÑĪÐ¸Ð¹": 4041,
      "ĠÑģÐ²ÐµÑĤÐ°": 4042,
      "ĠÑģÐ²Ð¸ÑģÑĤ": 4043,
      "ĠÑģÐ²Ð¸Ð´Ð°": 4044,
      "Ð°Ð·Ð°Ð»Ð¾ÑģÑĮ": 4045,
      "Ð»ÑıÐ»ÑģÑı": 4046,
      "ĠÑĤÐ°ÐºÑĥÑİ": 4047,
      "ÑĪÐ¸ÑĪÑĮ": 4048,
      "ĠÑĪÐµ": 4049,
      "ĠÑĪÐ¿": 4050,
      "ĠÑģÐ¿Ð¾ÑĢ": 4051,
      "ĠÑģÐ¿ÐµÑĪ": 4052,
      "ĠÐļÐ¾": 4053,
      "ĠÐºÐ¾ÑĤÐ¾ÑĢÑĭÐ¼Ð¸": 4054,
      "Ð°Ð±ÑĥÑĪÐºÐ°": 4055,
      "ĠÐ¿ÐµÑĢÐµÐ¿": 4056,
      "ĠÐ¿ÐµÑĢÐµÐ³": 4057,
      "Ð»Ð¾Ð½Ð¸Ð²": 4058,
      "ĠÐ²Ð·Ð°Ð´": 4059,
      "ĠÐ²Ð·Ð»Ð¾Ð¼": 4060,
      "ĠÐ¿Ð¾Ð»Ð½Ð¾Ð¼": 4061,
      "ĠÐ§Ð¸ÐºÑĥ": 4062,
      "ĠÐ½Ð°Ð´ÐµÐ»": 4063,
      "ĠÐ¼Ð¾ÐµÐ¼": 4064,
      "ÑĢÐ¾Ñħ": 4065,
      "ĠÐ²Ð¾Ð·Ð½": 4066,
      "ĠÐºÑĢÐ¾ÑĤ": 4067,
      "ĠÐ±Ð¾Ð»ÑĮÐ½Ð°": 4068,
      "ĠÐ±Ð¾Ð»ÑĮÑĪÐ¸Ðµ": 4069,
      "ĠÐ¸Ð¼ÐµÐ½Ð¸": 4070,
      "ĠÐ¾ÑĩÑĥÑĤ": 4071,
      "ĠÑģÑĤÐ°ÑĢÑĭÑħ": 4072,
      "ĠÑĦÐ°Ðº": 4073,
      "ĠÑĦÐ¸Ð³": 4074,
      "ĠÑĦÑĢÐ°Ð½": 4075,
      "ĠÑĦÐ¸Ð»Ð¾ÑģÐ¾ÑĦ": 4076,
      "ĠÐ´Ð¶ÐµÐ½ÑĤÐ»ÑĮÐ¼ÐµÐ½Ñĭ": 4077,
      "ÐŁÑĢÐ°Ð²": 4078,
      "ĠÑħÐ¾ÑĤÐµÐ»Ð¸": 4079,
      "ĠÐ¿Ð¾ÑģÐ»ÑĥÑĪ": 4080,
      "Ð»ÑİÐ´": 4081,
      "ĠÑĤÐµÐ¼Ð¸": 4082,
      "ĠÐ¿ÑĢÐ°Ð²Ð´": 4083,
      "ĠÐĽÐ¸Ð³": 4084,
      "ĠÐ½Ð°ÑģÑĤÐ¾": 4085,
      "ĠÐ½Ð°ÑģÐ¼ÐµÑĪ": 4086,
      "ĠÐ¿Ð¾ÑĩÑĤÐ¾Ð²": 4087,
      "ÐļÐ¾Ð½ÐµÑĩÐ½Ð¾": 4088,
      "ĠÑģÐ»ÑĥÑĩÐ°Ñı": 4089,
      "ĠÐ´Ð¾ÐºÑĤÐ¾ÑĢÐ°": 4090,
      "ĠÐºÐ°ÑĢÐµÑĤÐ°": 4091,
      "ĠÐ¿ÑĢÐ¸Ð²ÑıÐ·": 4092,
      "ĠÐ¿ÑĢÐ¸Ð²Ð»ÐµÐº": 4093,
      "ĠÐ´ÐµÐ²ÑĥÑĪÐºÑĥ": 4094,
      "ĠÐ¿Ð¾Ð·Ð²Ð¾Ð»Ð¸": 4095,
      "ĠÐ·Ð°Ð²ÐµÑĢ": 4096,
      "ĠÐ½ÐµÐ´ÐµÐ»Ð¸": 4097,
      "ĠÐ½ÐµÐ´Ð°Ð²Ð½Ð¾": 4098,
      "ĠÑĥÐ·ÐµÐ»": 4099,
      "ĠÑģÑĤÐ¾ÑĢÐ¾Ð½Ðµ": 4100,
      "ĠÐ²Ð°ÑĪÐµÐ³Ð¾": 4101,
      "Ð²Ð¾ÐµÐ¼": 4102,
      "ĠÐ¿ÑĢÐ¸ÑħÐ¾Ð´ÑģÐºÐ¸Ð¹": 4103,
      "ĠÐĶÐ¶ÐµÐº": 4104,
      "ÑĩÐµÑģÐºÐ¸": 4105,
      "ĠÐ¿Ð¾Ð±Ð»Ð¸Ð·": 4106,
      "ĠÑĥÑģÐ»ÑĥÐ³": 4107,
      "ĠÐ¿ÑĢÐ¸Ð´ÑĥÐ¼": 4108,
      "ĠÐ½Ð¾Ð²Ð¾Ð³Ð¾": 4109,
      "ĠÐ²ÑģÑıÐºÐ¸Ð¹": 4110,
      "ĠÐ²ÑģÑıÐºÐ¾Ð¼": 4111,
      "ĠÐ²ÑģÑıÐºÐ¸Ñħ": 4112,
      "ĠÑĥÐ²Ð¸Ð´ÐµÑĤÑĮ": 4113,
      "ĠÐ½Ð°ÑħÐ¾Ð´Ð¸ÑĤÑģÑı": 4114,
      "ĠÐ»ÐµÐ¶Ð°Ð»Ð°": 4115,
      "ĠÑĥÐ²ÐµÑĢÐµÐ½Ð½Ð¾": 4116,
      "ĠÐ¿Ð¾Ð²ÐµÑĢÐ½ÑĥÐ»ÑģÑı": 4117,
      "ĠÑģÑĥÐ´ÑĮÐ¸": 4118,
      "ĠÐ¿ÑĢÐ¸Ð±Ð°Ð²Ð¸Ð»": 4119,
      "ĠÐ¿ÑĢÐ¸Ð±Ð»Ð¸Ð¶": 4120,
      "ĠÑģÑĤÑĢÐ°Ð½Ð½Ð¾": 4121,
      "ĠÐ±Ð»Ð¸Ð¶": 4122,
      "ĠÑĩÐ°ÑģÑĤÑĮ": 4123,
      "ĠÐ´ÐµÑģÑıÑĤ": 4124,
      "ĠÑĤÐ¾Ð»Ð¿Ðµ": 4125,
      "ĠÑĤÐ¾Ð»Ð¿Ð°": 4126,
      "ĠÐ¿Ð¸ÑģÑĤÐ¾Ð»": 4127,
      "ĠÐ¼Ð¾Ð»ÑĩÐ°Ð½Ð¸Ñı": 4128,
      "ĠÐºÐ»Ð¾Ñĩ": 4129,
      "ĠÑĥÑģÐ»ÑĭÑĪÐ°Ð»": 4130,
      "ĠÐ·ÐµÐ¼Ð»Ðµ": 4131,
      "ĠÑĤÐ°Ð¹Ð½Ñĥ": 4132,
      "ĠÐĳÑįÐ»Ð°": 4133,
      "ĠÐ¶ÐµÐ½ÑīÐ¸Ð½Ðµ": 4134,
      "ĠÐ¿Ð¾Ð´Ð½Ð¸Ð¼Ð°Ñı": 4135,
      "ĠÐ²Ð¾Ð·Ð¼Ð¾Ð¶Ð½Ð¾ÑģÑĤÑĮ": 4136,
      "ĠÐ·Ð°Ð³Ð¾Ð²Ð¾ÑĢÐ¸Ð»": 4137,
      "ĠÐ¼ÑĭÑģÐ»Ñı": 4138,
      "ĠÐ¿Ð¾ÑĢÑıÐ´ÐºÐµ": 4139,
      "ĠÐ¾Ð±ÑģÑĤÐ¾ÑıÑĤÐµÐ»ÑĮÑģÑĤÐ²Ð°Ñħ": 4140,
      "ĠÐ»Ð°ÑģÐºÐ¾Ð²Ð¾": 4141,
      "ĠÐ·ÑĥÐ±Ñĭ": 4142,
      "ÐĿÐ¸ÑĩÐµÐ³Ð¾": 4143,
      "Ð¡ÑĤÐ°ÑĢ": 4144,
      "ĠÑĤÐ°Ð±Ð°Ðº": 4145,
      "ĠÑĪÐ¸Ð½ÐµÐ»ÑĮ": 4146,
      "Ð¸Ð½ÑĥÑĤÐ½Ð¾": 4147,
      "ĠÐŁÐ¾ÑģÐ»ÑĥÑĪÐ°Ð¹": 4148,
      "ÑĤÐ°ÑīÐ¸Ð»": 4149,
      "ĠÐĴÑģÑĳ": 4150,
      "ĠÐ·Ð´ÐµÑĪ": 4151,
      "ĠÐ¿ÑĢÐ¾ÑĪÐµÐ¿ÑĤÐ°Ð»": 4152,
      "ĠÑĤÐ¾ÑĢÐ³Ð¾Ð²": 4153,
      "ĠÐ·Ð¾Ð²ÑĥÑĤ": 4154,
      "ĠÑĩÐµÑĢÐºÐµÑģ": 4155,
      "ĠÑģÑĥÐ¿ÑĢÑĥÐ³": 4156,
      "ĠÐĴÑĥÐ»Ð¸Ñĩ": 4157,
      "ĠÐĽÐ¸Ð³Ð¾Ð²": 4158,
      "ĠÐ¿Ð¾Ð±Ð»Ð¸Ð·Ð¾ÑģÑĤÐ¸": 4159,
      "ĠÐ®": 4160,
      "Ð¸Ð½Ð¾": 4161,
      "Ð¸ÐºÐ¸": 4162,
      "Ð»ÐµÑĩÑĮ": 4163,
      "Ð½ÐµÐ»Ð°": 4164,
      "Ð½Ð°Ð¶Ð´Ñĭ": 4165,
      "ÑĢÐ¸Ð²Ð°Ñı": 4166,
      "ÑĭÐ»Ð¾": 4167,
      "ĠÑģÐµÑģÑĤ": 4168,
      "ĠÑģÐ¸ÑĢ": 4169,
      "ĠÐ¿ÐµÑĤ": 4170,
      "ĠÐ¿Ð¸ÑĤÑĮ": 4171,
      "ĠÐ²Ð°Ð»": 4172,
      "ĠÐ²Ð¾ÑĪÐ»Ð¸": 4173,
      "ĠÐ²ÐºÑĥÑģ": 4174,
      "ĠÐ²Ð½Ð¾Ð²ÑĮ": 4175,
      "Ð²Ð¾Ðµ": 4176,
      "ĠÐ¾ÑģÑĤÑĢ": 4177,
      "ÑģÑĤÑı": 4178,
      "ĠÐ¼ÐµÑĩ": 4179,
      "ĠÐ¼ÑĥÐ½": 4180,
      "ÑĪÐ¸Ð½": 4181,
      "ÐµÐ½Ð½Ð¸": 4182,
      "ĠÐ´ÑĭÑĪ": 4183,
      "ĠÐ¿ÑĢÐµÐ»": 4184,
      "ĠÐ¿ÑĢÐ¾Ð»": 4185,
      "Ð°ÐºÐ¾Ð²": 4186,
      "Ð¾Ð»Ð¾Ð´": 4187,
      "ĠÑĢÑĥÐ¶": 4188,
      "ĠÐ¿Ð¾ÑĢÐ°Ð·": 4189,
      "ÐµÐ´ÐµÑĤ": 4190,
      "ÐµÐ´Ð¸Ð½": 4191,
      "Ð°Ð²Ð°ÑĤÑĮ": 4192,
      "Ð°Ð²ÑĪÐ°Ñı": 4193,
      "ĠÐ»Ð¾Ð±": 4194,
      "ĠÐ¾ÑĤÑĤ": 4195,
      "ĠÐ¾ÑĤÑĩÐµÐ³Ð¾": 4196,
      "ĠÐ¾ÑĤÑģÑĤÑĥÐ¿": 4197,
      "ĠÑįÐ½": 4198,
      "Ð¾ÑĤÐµ": 4199,
      "Ð¾ÑĤÐ¾Ð¹": 4200,
      "Ð´Ð°ÑĤ": 4201,
      "ÑģÐºÐ¾Ð»ÑĮÐ·": 4202,
      "Ð¸Ð²ÑĭÐ¹": 4203,
      "Ð¸Ð¼Ð¾Ð¹": 4204,
      "ĠÑģÐºÐ°Ð»": 4205,
      "ĠÐ¿ÑĢÐ¸ÑĪÐ»Ð¸": 4206,
      "ĠÐŀÑħ": 4207,
      "ĠÐŀÑĩÐµÐ½ÑĮ": 4208,
      "ĠÑģÑĤÑĢÑĥ": 4209,
      "ĠÑģÑĤÐµÐº": 4210,
      "ĠÐ¼Ð¸ÑĢÐµ": 4211,
      "ĠÐ¾Ð±Ð»Ð°Ðº": 4212,
      "ÐµÐ²Ð°Ð»": 4213,
      "ÐµÐ²ÑĪÐ¸Ðµ": 4214,
      "ĠÑģÐ²ÑıÑī": 4215,
      "Ð»ÑıÐµÑĤÑģÑı": 4216,
      "Ð°Ð½Ð½Ð¾Ðµ": 4217,
      "ĠÑħÐ¼Ñĥ": 4218,
      "ĠÐ¿Ð¾Ð´Ñģ": 4219,
      "ĠÐ¿Ð¾Ð´Ð¿": 4220,
      "ĠÐĳÑĥÐ´ÑĮ": 4221,
      "ĠÐ¸Ð·Ð¾Ð±ÑĢÐ°Ð¶": 4222,
      "ĠÐľÐ¾Ð¹": 4223,
      "ĠÐľÐµÐ¶Ð´Ñĥ": 4224,
      "ÑĥÑĩÐ¸ÑģÑĮ": 4225,
      "Ð¾Ð¿Ð°Ñģ": 4226,
      "ÐµÐ»Ð¸Ð»ÑģÑı": 4227,
      "ĠÐ¾Ð´Ð¾Ð±ÑĢ": 4228,
      "ĠÐ¿ÐµÑĢÐµÑģÑĤ": 4229,
      "Ð´ÐµÑģÑıÑĤ": 4230,
      "ĠÐĶÐ»Ñı": 4231,
      "ĠÐ¿Ð¾Ð»Ð°": 4232,
      "ĠÐ¿Ð¾ÐºÑĢÐ¾Ð²": 4233,
      "ĠÑģÐ°Ð¼Ð¾Ð¼Ñĥ": 4234,
      "ÑĦÐµÑģÑģÐ¸": 4235,
      "ĠÐ²Ð¸Ð´Ð°Ð»": 4236,
      "ĠÐ¼ÑĭÑģÐ»": 4237,
      "ÑĢÐµÐ¼ÐµÐ½Ð½Ð¾": 4238,
      "ĠÐ´Ð²Ð¾ÑĢÐµ": 4239,
      "ĠÐ¿ÑĢÐµÐ´Ð¿": 4240,
      "ĠÐ¿ÑĢÐµÐ´Ð²Ð°ÑĢ": 4241,
      "ĠÐ¿Ð¾Ð²Ð¸Ð½Ð¾Ð²": 4242,
      "ĠÐ²ÐµÑĢÐ½ÑĥÐ»Ð¸ÑģÑĮ": 4243,
      "ÑĭÑĪÐ»ÐµÐ½": 4244,
      "ĠÐ´Ð¶ÐµÐ½ÑĤÐ»ÑĮÐ¼ÐµÐ½Ð¾Ð²": 4245,
      "ÐŁÐ»Ð°ÑĤÐ¾Ð½": 4246,
      "ĠÐ´Ð¾Ð¼Ð¾Ð²": 4247,
      "ĠÐĳÐ°Ð¼Ð±Ð»Ñĥ": 4248,
      "ĠÐ¿Ð¾Ð¼Ð½Ñİ": 4249,
      "ĠÐ±ÐµÐ·ÑĥÐ¼": 4250,
      "ÐļÑĤÐ¾": 4251,
      "ĠÐ¾ÑģÑĤÐ°Ð»Ð¾ÑģÑĮ": 4252,
      "ĠÑģÑĤÑĢÐ°ÑħÐ°": 4253,
      "ÑĬÑıÐ²": 4254,
      "ĠÑĥÑĤÐ²ÐµÑĢÐ´": 4255,
      "ĠÐ¿Ð¾Ð·Ð½Ð°ÐºÐ¾Ð¼": 4256,
      "ĠÐ·Ð°Ð±Ð°Ð²": 4257,
      "ĠÑĥÐ¿ÑĢÐµÐº": 4258,
      "ĠÑĥÐ²Ð°Ð¶": 4259,
      "ĠÑģÑĤÐ°ÑĢÐ°": 4260,
      "ÑģÑĤÐ²Ð¾Ð²Ð°Ð»Ð¸": 4261,
      "ĠÐ¿Ð¾Ð¿Ð°Ð´": 4262,
      "ĠÐ´Ð¾ÑĢÐ¾Ð³Ð°": 4263,
      "ĠÑĥÐºÐ°Ð·Ð°Ð»": 4264,
      "ĠÐ²Ð°ÑĪÑĥ": 4265,
      "ĠÑĢÐ°Ð´Ð¾ÑģÑĤÐ¸": 4266,
      "ĠÑģÐ»ÐµÐ´ÑĥÑİÑī": 4267,
      "ĠÑģÐ»ÐµÐ´ÑĥÑİÑīÐ¸Ð¹": 4268,
      "ÑĥÑģÐºÐ°Ñı": 4269,
      "ĠÐ¿Ð¾ÑĢÐ¾Ðº": 4270,
      "ĠÐ¿ÑĢÐ¸Ð·Ð½": 4271,
      "ĠÑİÐ½Ð¾Ð³Ð¾": 4272,
      "ĠÐ¿ÑĢÐ¸Ð´ÐµÑĤÑģÑı": 4273,
      "ĠÐ¾ÑģÑĤÐ°Ð²Ð¸Ð»": 4274,
      "ĠÐ³ÑĢÑĥÐ´Ð¸": 4275,
      "ÑĢÐµÐ´ÐµÐ»": 4276,
      "ĠÑĢÐ°ÑģÑģÐºÐ°Ð·Ð°ÑĤÑĮ": 4277,
      "ÑıÑīÐ¸Ðµ": 4278,
      "ĠÐĶÐ¶Ð°Ð¹Ð»ÑģÐ°": 4279,
      "ĠÐ½ÐµÑģÐ¾Ð¼Ð½ÐµÐ½Ð½Ð¾": 4280,
      "ĠÑĢÐ°Ð±Ð¾ÑĤÑĥ": 4281,
      "Ð°Ð½ÑĮÐµ": 4282,
      "ĠÑĢÐ°Ð·Ð´ÑĥÐ¼": 4283,
      "ĠÐ¾Ð±ÑĢÐ°ÑīÐ°ÑıÑģÑĮ": 4284,
      "Ð¼Ð¾ÑĤÑĢÐ¸": 4285,
      "Ð¼Ð°ÑĤÑĢÐ¸Ð²Ð°Ñı": 4286,
      "ĠÐ»Ð¾ÑĪÐ°Ð´Ð¸": 4287,
      "ĠÑīÐµÐº": 4288,
      "ĠÑĢÐ°Ð·Ð±Ð¾Ð¹": 4289,
      "ĠÐ¿ÑıÑĤÐ¸": 4290,
      "ĠÑĩÐ°ÑģÑĤ": 4291,
      "ĠÐ¾Ð±ÑĢÐ°ÑĤÐ½Ð¾": 4292,
      "ĠÐ±Ð»Ð°Ð³Ð¾ÑģÐ»Ð¾Ð²": 4293,
      "ĠÐŁÐ¾Ð´ÑĥÐ¼": 4294,
      "ÑıÐ³Ð¸Ð²Ð°Ñı": 4295,
      "ĠÑħÐ¾Ð·ÑıÐ¸Ð½": 4296,
      "ĠÐĽÐ¾Ð½Ð´Ð¾Ð½Ðµ": 4297,
      "ĠÐĽÐ¾Ð½Ð´Ð¾Ð½Ð°": 4298,
      "ĠÐ¾Ð±Ð¾Ð¸Ñħ": 4299,
      "ĠÐ³ÑĢÐ°Ð±Ð¸ÑĤÐµÐ»ÑĮ": 4300,
      "ĠÐ»Ð°Ð²ÐºÐ¸": 4301,
      "ĠÐļÐ½ÑıÐ¶": 4302,
      "ĠÐ¾ÑĤÑĩÐ°ÑıÐ½": 4303,
      "ĠÐ¿Ð¾ÐºÐ°Ð·Ð°Ð»Ð¾ÑģÑĮ": 4304,
      "ĠÐ·Ð½Ð°ÑĩÐ¸ÑĤÐµÐ»ÑĮÐ½Ð¾": 4305,
      "Ð¸Ð²ÑĪÐ¸Ð¹ÑģÑı": 4306,
      "ĠÐºÐ°ÑĢÐ¼Ð°Ð½Ð°": 4307,
      "ĠÐºÑĢÑĥÐ³Ð¾Ð¼": 4308,
      "ĠÑģÐ¾ÑģÑĤÐ¾ÑıÐ½Ð¸Ðµ": 4309,
      "ĠÐ¿Ð¾ÐºÐ»Ð¾Ð½Ð¸Ð»ÑģÑı": 4310,
      "ĠÑĤÑĢÐ°ÐºÑĤÐ¸ÑĢ": 4311,
      "ĠÐ¿Ð¾Ð´ÑĤÐ²ÐµÑĢÐ¶": 4312,
      "ĠÐ¸Ð·Ð¼ÑĥÑĩ": 4313,
      "ĠÑģÑĤÐ°ÑĢÑĥÑħÐ¸": 4314,
      "ĠÐ½ÐµÐ³Ð¾Ð´ÑıÐ¹": 4315,
      "ĠÐ²Ð¾ÑģÑĤÐ¾ÑĢÐ³": 4316,
      "ĠÑģÐ¾Ð¿ÑĢÐ¾Ð²Ð¾Ð¶Ð´": 4317,
      "ĠÐ¿ÐµÑĢÐµÐ½ÐµÑģ": 4318,
      "ĠÐ½ÐµÐ¿Ð¾Ð´Ð²Ð¸Ð¶": 4319,
      "ĠÐ¿ÑĢÐµÑģÐ»ÐµÐ´": 4320,
      "ĠÐ¾Ð±ÑıÐ·Ð°Ð½": 4321,
      "ĠÐ¿Ð¾ÑĢÑĤÑĢÐµÑĤ": 4322,
      "ĠÐ½ÐµÐ±Ð¾Ð»ÑĮÑĪ": 4323,
      "ĠÐ±ÑĢÐ°ÑĤÐµÑĨ": 4324,
      "Ð½ÑĥÐ¶Ð´": 4325,
      "ĠÐ¿Ð¾Ð´Ð²ÐµÑĢÐ³": 4326,
      "ĠÐ¾ÑĤÑĪÐ°ÑĤ": 4327,
      "ĠÑĢÐ°ÑģÐ¿Ð¾ÑĢÑıÐ¶": 4328,
      "ĠÐĶÐ°ÑĥÐºÐ¸Ð½Ñģ": 4329,
      "ĠÑĨÐµÑĢÐºÐ²Ð¸": 4330,
      "ĠÑģÑİÑĢÑĤÑĥ": 4331,
      "ĠÑĦÐ¸Ð³Ñĥ": 4332,
      "er": 4333,
      "on": 4334,
      "Ġ4": 4335,
      "Ð°ÑģÑĤÐ¸": 4336,
      "Ð¸ÑģÑĤÑĮ": 4337,
      "Ð¸ÑĢÐ°ÑıÑģÑĮ": 4338,
      "Ð»Ð°Ñı": 4339,
      "Ð½Ð¾Ð²Ð°": 4340,
      "ÑĢÐµÐ»": 4341,
      "ÑĢÐµÑĩ": 4342,
      "ĠÑģÐ°Ð¿": 4343,
      "ĠÑģÐ½ÑıÐ»": 4344,
      "ĠÑģÐ¾Ð¶Ð°Ð»": 4345,
      "ĠÐ¿Ð¸Ð²Ð°": 4346,
      "ĠÐ½ÐµÐ»": 4347,
      "ĠÐ²ÑħÐ¾Ð´": 4348,
      "ĠÐ²Ð»Ñİ": 4349,
      "ÑĩÑĥÐ²": 4350,
      "Ð²ÐµÑĩ": 4351,
      "ĠÐ¾Ñħ": 4352,
      "ĠÐ¼Ð°Ð·": 4353,
      "ĠÐ¼ÑĥÐ´": 4354,
      "ĠÐ¼Ð»Ð°Ð´": 4355,
      "ÐµÑĢÐ¾Ð²": 4356,
      "ÐµÐ½Ð½Ð¾Ð¼Ñĥ": 4357,
      "ĠÐ´Ð°Ð¹ÑĤÐµ": 4358,
      "ĠÐ±Ð°Ð½": 4359,
      "Ð¾Ð²Ð°ÑĤÑĮÑģÑı": 4360,
      "ĠÐ¿ÑĢÐ¾ÑģÑĮ": 4361,
      "ĠÑĤÐµÐ½ÑĮ": 4362,
      "ĠÑĤÑĥÑĩ": 4363,
      "Ð°ÐºÐ°": 4364,
      "ĠÑĩÐ»ÐµÐ½Ñĭ": 4365,
      "ÐµÐ»Ðµ": 4366,
      "Ð±ÐµÐ¶": 4367,
      "Ð±Ð°Ð±ÑĥÑĪÐºÐ°": 4368,
      "ĠÐµÐ¶": 4369,
      "Ð¾Ð´Ñı": 4370,
      "Ð¾Ð´Ð¸ÑĤ": 4371,
      "Ð°Ð·Ð´": 4372,
      "ĠÐ½Ð°ÑĪÐµÐ¹": 4373,
      "ĠÐ¿Ð¾ÑıÑģ": 4374,
      "ĠÐ¿Ð¾ÑĪÐ»Ð¸": 4375,
      "Ð°Ð²Ð°Ð»": 4376,
      "Ð¾ÑĢÐ¾ÑĤ": 4377,
      "ĠÐ¾ÑĤÐ´Ð°Ð»": 4378,
      "Ð´Ð°ÐµÑĤ": 4379,
      "ÑģÐºÐ¾Ð¼Ñĥ": 4380,
      "ÑģÐºÐ¸Ð¼Ð¸": 4381,
      "ÑģÐºÐ¾ÑĢÐµ": 4382,
      "Ð¸Ð½Ð³": 4383,
      "Ð¸Ð½ÐºÐ¸": 4384,
      "Ð¾Ð¶Ð¸Ð²": 4385,
      "ĠÐ²ÑĭÑģÑĤÑĥÐ¿": 4386,
      "ĠÐ¿ÑĢÐ¸ÐµÑħÐ°Ð»": 4387,
      "ĠÑģÑĤÐ°ÑĤÑĮ": 4388,
      "ĠÐºÐ¾Ð½Ñı": 4389,
      "Ð»ÑıÐ²": 4390,
      "Ð»ÑıÐµÑĤ": 4391,
      "Ð»ÑıÑĤÑĮÑģÑı": 4392,
      "ĠÐĿÐ°Ð¿": 4393,
      "ĠÑħÑĢÐ¸Ð¿": 4394,
      "ĠÐ²ÑģÐ¿": 4395,
      "ĠÐ²ÑģÐµÐ²": 4396,
      "ĠÐ¿Ð¾Ð´Ð°ÑĢ": 4397,
      "ÐµÐ·Ð´Ð°": 4398,
      "ĠÐĳÐµÑĤ": 4399,
      "ÐµÐºÑĤ": 4400,
      "ĠÐ¡ÑĤÐ°": 4401,
      "ĠÐ¡ÑİÐ´Ð°": 4402,
      "ĠÐ¡Ð½Ð°ÑĩÐ°Ð»Ð°": 4403,
      "ÐµÑĩÐºÐ¾": 4404,
      "ĠÐŁÐ°Ð²": 4405,
      "ĠÐĴÐ·": 4406,
      "Ð°Ð¶Ð¸": 4407,
      "ÐµÑģÑģ": 4408,
      "ÐµÐ¿ÐµÐ½Ð½Ð¾": 4409,
      "ĠÐľÐµÐ½Ñı": 4410,
      "ĠÑĪÐ»Ð¸": 4411,
      "ĠÑĪÐ¸Ð»": 4412,
      "ĠÑĪÐµÑģÑĤÐ¸": 4413,
      "ĠÐļÐ°ÑĢ": 4414,
      "ÑĢÐ¸ÑıÑĤ": 4415,
      "ÑĥÑĤÑģÑı": 4416,
      "ÐµÐ»Ð¸ÑģÑĮ": 4417,
      "ÑĩÐ¸Ð»Ð¸": 4418,
      "ĠÐ¿ÐµÑĢÐµÐº": 4419,
      "ĠÐ¿ÐµÑĢÐµÑĪ": 4420,
      "ĠÐĶÑĢÑĥÐ³": 4421,
      "ĠÐ¢Ð¾": 4422,
      "ĠÐ¢Ð¾ÑĤ": 4423,
      "ÑĭÐ²Ð°Ð»Ð°": 4424,
      "ĠÐ³Ð»Ð¾ÑĤ": 4425,
      "ĠÐ²Ð¸Ð´Ñı": 4426,
      "ĠÐ²Ð¸Ð´Ð¸ÑĤÐµ": 4427,
      "Ð¸ÑĤÐµÐ»ÑĮÐ½ÑĭÑħ": 4428,
      "ÑĢÐ¾Ð¸Ð·": 4429,
      "Ð¡Ð°Ð¹ÐºÑģ": 4430,
      "ĠÐºÑĢÐ°Ð´": 4431,
      "Ð½Ð¸ÑĨÐµÐ¹": 4432,
      "ĠÐ´ÐµÐ»Ð¾Ð¼": 4433,
      "ĠÐ¿Ð¾Ð²ÐµÐ»": 4434,
      "ĠÑĥÐ¼Ð¸ÑĢÐ°": 4435,
      "ĠÐ¿Ð¾Ð¼Ð¾ÑĩÑĮ": 4436,
      "ĠÑĤÑĢÐ¾Ðµ": 4437,
      "ĠÐłÐ°Ñģ": 4438,
      "ĠÐ±ÐµÐ·Ð·": 4439,
      "ĠÐ±ÐµÐ·Ð¾Ð¿Ð°Ñģ": 4440,
      "ĠÐ¿Ð¾ÑģÑĤÐ¾Ñı": 4441,
      "ĠÐĽÑİÐ±": 4442,
      "ÐµÑĪÑĮÑģÑı": 4443,
      "ĠÐĹÐ°Ð³Ð¾ÑĢÐµÑĨÐºÐ¸Ð¹": 4444,
      "ĠÐ¼Ð¾Ð»Ð¾Ð´Ð¾Ð³Ð¾": 4445,
      "ĠÑģÐ´ÐµÐ»Ð°ÐµÑĤ": 4446,
      "ĠÐ¿ÑĢÐ¸Ð²ÐµÑĤ": 4447,
      "ĠÐ·Ð°Ð¿Ð»Ð°Ðº": 4448,
      "ĠÐ¿Ð¾Ð·Ð°Ð´Ð¸": 4449,
      "ÑģÑĤÐ²ÐµÐ½Ð½Ð¾Ð¹": 4450,
      "ÑĥÑģÑĤÐ¾": 4451,
      "ĠÐ¿ÑĢÐ¸Ð½ÑıÐ»ÑģÑı": 4452,
      "ĠÐ¿Ð¾ÐºÐ°Ñĩ": 4453,
      "ĠÐ³Ð¾ÑĢÑĮ": 4454,
      "Ð¸ÑĢÐ°Ð»ÑģÑı": 4455,
      "ĠÐ²Ð°ÑĪÐµÐ¹": 4456,
      "ĠÐ²Ð°ÑĪÐµÐ¼Ñĥ": 4457,
      "ĠÑĢÐ°Ð´Ð¾ÑģÑĤ": 4458,
      "ÑĪÐ¸ÑħÑģÑı": 4459,
      "ĠÐ²Ð´Ð²Ð¾ÐµÐ¼": 4460,
      "ĠÐºÐ½ÑıÐ³Ð¸Ð½Ñı": 4461,
      "ĠÑĩÑĥÐ²ÑģÑĤÐ²Ð¾Ð²Ð°Ð»": 4462,
      "ĠÐ¶ÐµÐ»Ð°Ñı": 4463,
      "ĠÐ¼Ð°Ð»ÐµÐ½ÑĮÐºÑĥÑİ": 4464,
      "ĠÐ²Ð¾ÑĢÐ°": 4465,
      "ĠÐ¿Ð¾ÑģÐ»ÐµÐ´Ð¾Ð²Ð°Ð»": 4466,
      "ÑĪÐµÐ³Ð¾ÑģÑı": 4467,
      "ĠÐ·Ð°ÑģÐ½ÑĥÐ»": 4468,
      "ĠÐµÐ´Ð¸Ð½": 4469,
      "Ð°ÑİÑīÐ¸Ð¼": 4470,
      "ĠÐ¼Ð½ÐµÐ½Ð¸Ðµ": 4471,
      "ĠÐ¼Ð½Ð¾Ð¶ÐµÑģÑĤÐ²Ð¾": 4472,
      "ĠÑĢÐ°ÑģÑģÐºÐ°Ð·Ð°Ð»": 4473,
      "ĠÐ¿Ð¾ÑģÐ¼Ð¾ÑĤÑĢÐµÐ²": 4474,
      "ĠÐ¿Ð¾Ð»Ð¾Ð¶Ð¸Ð²": 4475,
      "ĠÐ¼Ð½Ð¾Ð³Ð¾ÑĩÐ¸ÑģÐ»": 4476,
      "ĠÑĥÑģÐ¿ÐµÑħ": 4477,
      ".).": 4478,
      "ĠÐ¾Ð³Ð½Ñı": 4479,
      "ĠÐ´ÑĥÑĪÐ°": 4480,
      "ĠÑħÐ¾Ð»Ð¾Ð´Ð½Ð¾": 4481,
      "ĠÐ²Ð¾Ð·Ð²ÑĢÐ°ÑĤ": 4482,
      "ĠÑģÑĥÐ´ÑĮÐ±Ð°": 4483,
      "ĠÐ¸Ð½ÑģÑĤ": 4484,
      "ĠÑĥÑģÑĤÐ°Ð»": 4485,
      "ĠÐ¾ÑģÐ²ÐµÑī": 4486,
      "ĠÐ¾ÑĤÐºÑĢÑĭÐ»": 4487,
      "ĠÑĢÐ°Ð·Ð±ÑĥÐ´": 4488,
      "ĠÐ³ÑĢÑıÐ·Ð¸": 4489,
      "ĠÐ±ÑĭÐ²Ð°ÑİÑĤ": 4490,
      "ĠÑģÐ¸Ð»ÑĮÐ½ÐµÐµ": 4491,
      "ĠÐ¿Ð»ÐµÑĩÐ°Ð¼Ð¸": 4492,
      "ĠÑĤÐ¾Ð»Ð¿Ñĭ": 4493,
      "ÐµÑĢÐ²ÑĭÐµ": 4494,
      "ĠÐ¼Ð½Ð¾Ð³Ð¸Ñħ": 4495,
      "ĠÐ¾Ð±ÑīÐµÑģÑĤÐ²Ð¾": 4496,
      "ĠÐ¾Ð±ÑīÐµÑģÑĤÐ²Ð°": 4497,
      "ĠÑĥÑģÐ»ÑĭÑĪÐ°ÑĤÑĮ": 4498,
      "ĠÐ²Ð¾ÑĢÐ¾ÑĤÐ°": 4499,
      "ĠÐ½ÐµÐºÐ¾ÑĤÐ¾ÑĢÐ¾Ðµ": 4500,
      "ĠÑģÐ¾Ð±ÑģÑĤÐ²ÐµÐ½Ð½Ð¾Ð¹": 4501,
      "ĠÐ³ÑĢÐ¾Ð±Ð¾Ð²ÑīÐ¸ÐºÐ°": 4502,
      "ĠÐºÑĢÑĭÑĪ": 4503,
      "ĠÐ²Ð¾ÑģÐ¿Ð¾Ð»ÑĮÐ·": 4504,
      "ĠÐ±ÑĥÐ¼Ð°Ð¶": 4505,
      "ĠÐ¿ÑĢÐµÐ´Ð»Ð¾Ð¶Ð¸Ð»": 4506,
      "ĠÑĥÑħÐ¼Ñĭ": 4507,
      "ĠÐ¿Ð¾ÑĢÑıÐ´Ð¾Ñĩ": 4508,
      "Ð½ÑıÑĤÐ½Ð¾": 4509,
      "ĠÐ¿ÑĢÐ¾Ð¸ÑģÑħÐ¾Ð´": 4510,
      "ĠÐ¸ÑģÑĤÐ¾ÑĢÐ¸Ñİ": 4511,
      "ĠÑĥÐ´Ð¾Ð²Ð¾Ð»ÑĮÑģÑĤÐ²Ð¸Ðµ": 4512,
      "ĠÐºÐ°ÑģÐ°ÐµÑĤÑģÑı": 4513,
      "ĠÑĤÐµÐ¼Ð½Ð¾ÑĤÐµ": 4514,
      "ĠÑıÐ²Ð»ÑıÐµÑĤÑģÑı": 4515,
      "ĠÐ¿Ð¾ÑģÐ¿ÐµÑĪÐ½Ð¾": 4516,
      "ĠÐ°Ð½Ð³Ð»Ð¸Ð¹": 4517,
      "ĠÐ¿ÑĢÐµÐ·ÑĢÐµÐ½Ð¸ÐµÐ¼": 4518,
      "ĠÐŁÑĢÐ°Ð²Ð¾": 4519,
      "ĠÐľÐ¾ÑģÐºÐ²Ðµ": 4520,
      "ĠÐ±ÐµÐ¶Ð°ÑĤÑĮ": 4521,
      "ĠÐ¿ÐµÑĢÐµÑĥÐ»": 4522,
      "ĠÑĥÐ¿Ð¾Ð¼ÑıÐ½ÑĥÑĤ": 4523,
      "ĠÑĤÐ¾ÑĢÐ¾Ð¿Ð»Ð¸Ð²Ð¾": 4524,
      "ĠÑģÑĤÐµÐ¿ÐµÐ½Ð¸": 4525,
      "ĠÑģÐµÑĢÐµÐ±ÑĢÑı": 4526,
      "ĠÑģÑĤÐ°Ð½ÐµÑĤ": 4527,
      "ĠÐ¿ÑĢÐµÐ´ÑĥÐ¿ÑĢÐµÐ¶": 4528,
      "ĠÑģÐºÑĥÑĩÐ½Ð¾": 4529,
      "ÐłÐ°Ð·ÑĥÐ¼ÐµÐµÑĤÑģÑı": 4530,
      "ĠÑħÑĢÐ°Ð±ÑĢ": 4531,
      "ÐĿÐ°Ð´ÐµÑİÑģÑĮ": 4532,
      "ĠÐºÐ¾ÑĢÐ¸Ð´Ð¾ÑĢ": 4533,
      "ĠÑĥÑīÐµÐ»ÑĮ": 4534,
      "ĠÐ²Ð¾ÑģÑħÐ¸Ñī": 4535,
      "ĠÐ¾Ð³Ð¾ÑĢÑĩ": 4536,
      "ĠÐ²Ð¾Ð·Ð½Ð°Ð³": 4537,
      "ĠÐ¼ÑĥÐ½Ð´": 4538,
      "Ðĸ": 4539,
      "ĠN": 4540,
      "Ġc": 4541,
      "Ġl": 4542,
      "Ġp": 4543,
      "Ð¾Ð»Ð¸": 4544,
      "Ð¾ÑģÑĤÐµÑĢ": 4545,
      "Ð¾ÑĥÐ¼": 4546,
      "ÑĤÐ¾Ð¶": 4547,
      "Ð¸ÑĪÐ¸": 4548,
      "Ð¸ÑīÐ¸": 4549,
      "Ð¸Ð´Ð°ÑĤÑĮ": 4550,
      "ÑĭÑģ": 4551,
      "ÑĭÑĤÐ¸": 4552,
      "ĠÑģÑĢÐ°Ð²": 4553,
      "ĠÑģÑĥÑħ": 4554,
      "ÐºÐµÐ½": 4555,
      "ĠÐ²ÑĤÐ¾": 4556,
      "ĠÐ²ÐµÐ·": 4557,
      "ĠÐ²ÑģÑĤÑĥÐ¿": 4558,
      "ÑĩÑĮ": 4559,
      "Ð²Ð°Ð»Ð¸": 4560,
      "Ð²Ð°Ð»ÑģÑı": 4561,
      "Ð´ÐµÐ²": 4562,
      "ĠÐ¸Ð½ÑĭÐµ": 4563,
      "ĠÐºÐ°ÑĤ": 4564,
      "ĠÐºÐ»Ñı": 4565,
      "ĠÐ¼Ð¸Ð½Ð¾Ð²": 4566,
      "ÐµÑĢÐ¾Ð¼": 4567,
      "ĠÐ´Ñĭ": 4568,
      "ĠÐ±Ð¾Ðº": 4569,
      "Ð¾Ð²Ð¸": 4570,
      "Ð¾Ð²Ð°Ð»Ð°": 4571,
      "Ð¾Ð²Ð¾Ðµ": 4572,
      "Ð¾Ð²Ð°Ð½Ð¸Ðµ": 4573,
      "ĠÐ¿ÑĢÐµÑĢ": 4574,
      "ĠÐ¿ÑĢÐ¾ÑĢ": 4575,
      "ĠÑĤÑĮ": 4576,
      "ĠÑĤÑī": 4577,
      "ĠÐ½ÐµÑĥÐ´Ð°": 4578,
      "Ð½Ð¸ÐºÐ¾Ð¼": 4579,
      "Ð¶Ð°Ð»": 4580,
      "ĠÐ¿Ð¾ÑĤÐµ": 4581,
      "ĠÐ¿Ð¾ÑĤÐ¸": 4582,
      "ĠÐ¿Ð¾ÑģÐºÐ¾ÑĢ": 4583,
      "ÐµÐ¼ÑģÑı": 4584,
      "Ð°Ð²ÑĪÑĥÑİ": 4585,
      "Ð³Ñĥ": 4586,
      "Ð³Ð°Ð´": 4587,
      "ĠÐ»ÐµÐº": 4588,
      "ÑĨÐ¸Ñİ": 4589,
      "Ð¾Ð³Ð¸": 4590,
      "Ð¾Ð³Ñĥ": 4591,
      "Ð¸Ð²ÑĪÐ°Ñı": 4592,
      "Ð¸Ð¼Ð¾Ðµ": 4593,
      "ĠÑģÐºÐ»Ð¾Ð½": 4594,
      "ÑĤÐ¾ÑĢÑĭÐ¹": 4595,
      "ĠÐ¿ÑĢÐ¸Ð¾ÑģÑĤ": 4596,
      "ĠÐ¿ÑĢÐ¸Ð¿Ð¾Ð¼": 4597,
      "ĠÐ¿ÑĢÐ¸Ð¹ÑĤÐ¸": 4598,
      "ÑģÑĤÐ²Ð°Ð¼Ð¸": 4599,
      "ĠÑģÐ»Ð¾": 4600,
      "Ð»ÑıÑİ": 4601,
      "ĠÑħÐ¾ÑħÐ¾ÑĤ": 4602,
      "ĠÐ¿Ð¾Ð´ÑĥÑĪ": 4603,
      "ĠÐ¿Ð¾Ð´Ð²Ð¸": 4604,
      "ĠÐ¿Ð¾Ð´ÑģÐ»ÑĥÑĪ": 4605,
      "ÐµÑĩÐµÐ³Ð¾": 4606,
      "ĠÐ·Ð°ÑīÐ¸ÑĤ": 4607,
      "ĠÐĴÐ°ÑĪ": 4608,
      "Ð°Ð¶ÐµÑĤÐµ": 4609,
      "ĠÐ°Ð»": 4610,
      "ĠÑĢÐ°Ð·Ð¾Ð±": 4611,
      "ĠÑĢÐ°Ð·ÑĥÐ¼": 4612,
      "ĠÑĢÐ°Ð·Ð³Ð»ÑıÐ´": 4613,
      "Ð¾ÑĩÐµ": 4614,
      "ĠÑĪÐ°ÑĢ": 4615,
      "ĠÑĪÐ°ÑĪ": 4616,
      "ĠÐļÐ°Ð²ÐºÐ°Ð·": 4617,
      "Ð°Ð»ÑĮÑĪÐµ": 4618,
      "ÐµÐ»Ð¸Ð»": 4619,
      "ĠÐĶÐ°Ð¹": 4620,
      "ĠÐĶÐ°Ð¶Ðµ": 4621,
      "ĠÐĶÐ¾ÐºÑĤÐ¾ÑĢ": 4622,
      "ĠÐ²Ð·Ð²": 4623,
      "ĠÐ¿Ð¾Ð»ÐµÐ·": 4624,
      "ĠÑĢÑĥÐ±": 4625,
      "ĠÐ¿Ð¾ÐºÑĢÑĭÑĤ": 4626,
      "ÑĭÐ²Ð°ÑıÑģÑĮ": 4627,
      "ĠÑĢÐ°ÑģÑħ": 4628,
      "ĠÐ¼Ð¾ÐµÐ¼Ñĥ": 4629,
      "ÑģÑĤÐ¸Ñı": 4630,
      "ĠÐ²Ð¾Ð·ÑĢÐ°Ð¶": 4631,
      "ĠÐ´Ð²ÑĥÐ¼Ñı": 4632,
      "ÐĴÐ·": 4633,
      "ĠÐ¿ÑĢÐ¾ÑıÐ²": 4634,
      "ĠÐ¿ÑĢÐ¾Ð½Ð¸Ðº": 4635,
      "ĠÐ¿ÑĢÐ¾ÑĦÐµÑģÑģÐ¸": 4636,
      "ĠÐ¿ÑĢÐµÐ´Ð»Ð°Ð³": 4637,
      "ĠÐ¿ÑĢÐµÐ´Ð¾ÑģÑĤÐ°Ð²": 4638,
      "ĠÐ´ÐµÐ»Ð°Ñı": 4639,
      "ĠÐ¾ÑģÐ¼": 4640,
      "ĠÐ¾ÑĩÐµÑĢÐµÐ´": 4641,
      "ĠÑģÐ¾Ð±ÑĢ": 4642,
      "ĠÑģÐ¾Ð±Ð¾Ñİ": 4643,
      "ĠÐ¼Ð°Ð»ÑĮÑĩÐ¸ÐºÐ¸": 4644,
      "ĠÐ³Ð¾Ð²Ð¾ÑĢÑıÑĤ": 4645,
      "ĠÑĥÐ¼ÑĢÑĥ": 4646,
      "ĠÑĩÐµÐ»Ð¾Ð²ÐµÐºÐ¾Ð¼": 4647,
      "ĠÐ·Ð°ÐºÑĢÑĭÐ²": 4648,
      "ĠÑĥÐ´Ð¾ÑģÑĤ": 4649,
      "ĠÐ¿Ð¾ÑģÐ¼Ðµ": 4650,
      "ĠÑģÐ»Ð¾Ð²Ð°Ð¼": 4651,
      "ĠÐ¼Ð¸Ð»ÑĮ": 4652,
      "ĠÐ¿ÑĢÐ°Ð²Ð°": 4653,
      "ĠÐ£Ð±": 4654,
      "ĠÐ£ÑħÐ¾Ð´Ð¸ÑĤ": 4655,
      "Ð¼Ð¸Ð³": 4656,
      "ĠÐ²Ð¿ÐµÑĢÐ²ÑĭÐµ": 4657,
      "ĠÐ¶ÐµÐ½Ð°": 4658,
      "ĠÐķÐµ": 4659,
      "ĠÐķÑģÑĤÑĮ": 4660,
      "ĠÐķÐ¼Ñĥ": 4661,
      "ĠÐ¿Ð¾ÑĩÐ¸ÑĤ": 4662,
      "ĠÐ¾ÑģÑĤÐ°ÑĤÑĮÑģÑı": 4663,
      "ĠÑģÐ´ÐµÐ»Ð°Ð½Ð¾": 4664,
      "ĠÐºÐ°ÑĢÐµÑĤÑĥ": 4665,
      "ĠÐ»ÑİÐ´ÑĮÐ¼Ð¸": 4666,
      "ĠÐ¿ÑĢÐ¸Ð²ÐµÑģÑĤÐ¸": 4667,
      "ĠÐļÐ°ÐºÐ¾Ð¹": 4668,
      "ĠÐļÐ°ÐºÐ¾Ðµ": 4669,
      "ĠÐ¿Ð¾Ð¿ÑĢÐ¾ÑģÐ¸Ð»": 4670,
      "ÐĵÐ´Ðµ": 4671,
      "ĠÐ½Ð°Ð¼ÐµÐº": 4672,
      "ĠÐ±ÐµÐ´Ð°": 4673,
      "ĠÐ²ÐµÐ»Ð¸ÑĩÐµ": 4674,
      "ĠÐºÐ½ÑıÐ·ÑĮ": 4675,
      "ĠÐ¿ÑĢÐ¸ÑħÐ¾Ð´Ð°": 4676,
      "ĠÐ¼Ð°Ð»ÐµÐ½ÑĮÐºÐ¾Ðµ": 4677,
      "ĠÐ¿ÑĢÐ¾ÑĪÐ»Ð¾": 4678,
      "ÑĩÐµÑģÐºÐ¾Ð¹": 4679,
      "ĠÑĢÐ°ÑģÑĤÐµÑĢ": 4680,
      "ĠÐ¿Ð¾ÑģÐ»ÐµÐ´Ð½ÐµÐµ": 4681,
      "Ð¾Ð¹Ð´Ð¸ÑĤÐµ": 4682,
      "ĠÐ·Ð°Ð³Ð»ÑıÐ´": 4683,
      "ĠÐ½ÐµÐ±ÐµÑģ": 4684,
      "ĠÐ½ÐµÐ±ÑĢÐµÐ¶": 4685,
      "ĠÐºÐ°Ð·Ð°Ð»Ð¸ÑģÑĮ": 4686,
      "ĠÐ½Ð¾Ð²ÑĭÑħ": 4687,
      "ÑıÑīÐ¸Ñħ": 4688,
      "ÐµÑıÐ»Ð¾": 4689,
      "ĠÐ¿ÑĢÐµÐ¶Ð½ÐµÐµ": 4690,
      "ĠÑĢÐ°Ð±Ð¾ÑĤÐ½ÑĭÐ¹": 4691,
      "ÑĨÑĥÐ·": 4692,
      "ĠÐ²Ð¼ÐµÑģÑĤÐ¾": 4693,
      "ĠÐ´ÑĥÑĪÐµÐ²": 4694,
      "ĠÐŃÑĤÐ¸": 4695,
      "ÐĹÐ½Ð°": 4696,
      "ĠÑĥÐ²ÐµÑĢÐµÐ½Ð°": 4697,
      "ĠÐ¾ÑģÑĤÐ°Ð½Ð¾Ð²Ð¸Ð»Ð¸ÑģÑĮ": 4698,
      "ĠÑĢÐ°Ð·Ð²ÑıÐ·": 4699,
      "ĠÐ³Ð»ÑĥÐ±Ð¾ÐºÐ¾": 4700,
      "ĠÐ¿Ð¾Ð»ÑĥÑĩÐ¸Ð»": 4701,
      "ĠÑģÐ¾Ð±Ð°ÐºÐ¸": 4702,
      "ĠÐ²ÑĭÐ·Ð²Ð°Ð½": 4703,
      "ĠÑĤÑıÐ¶ÐµÐ»Ð¾": 4704,
      "ĠÐ±ÑĭÐ²Ð°ÐµÑĤ": 4705,
      "ĠÐŁÐµÑĩÐ¾ÑĢÐ¸Ð½Ð°": 4706,
      "ĠÐ´ÐµÐ¹ÑģÑĤÐ²Ð¸Ñı": 4707,
      "ĠÐ·Ð°Ð¼ÐµÑĤÐ¸ÑĤÑĮ": 4708,
      "ÐµÐ·Ð¶Ð°ÐµÑĤ": 4709,
      "ÑĥÐ»ÑĮÑĤÐ°ÑĤ": 4710,
      "ĠÐºÑĢÑĭÐ»ÑĮ": 4711,
      "ĠÐ²Ð»Ð°ÑģÑĤÑĮ": 4712,
      "ĠÐ³ÑĢÐ°Ð±ÐµÐ¶": 4713,
      "ĠÐ²Ð¾Ð·Ð¼Ð¾Ð¶Ð½Ð¾": 4714,
      "ĠÑģÑĥÐ¼Ð°Ñģ": 4715,
      "ĠÑĤÑĢÐ¾ÑģÑĤÑĮ": 4716,
      "ĠÐ·Ð½Ð°Ð»Ð¸": 4717,
      "ĠÐ¿Ð¾ÑģÑĤÐ°Ð²Ð¸Ð»": 4718,
      "ĠÐ³Ð¾ÑģÐ¿Ð¾Ð´Ð°": 4719,
      "ÑĤÐ°Ð»Ðº": 4720,
      "ĠÐ¾ÑĤÑģÑĥÑĤ": 4721,
      "ĠÑģÐµÐ¼ÐµÐ¹": 4722,
      "ÐŁÐ¾ÑģÐ»Ðµ": 4723,
      "ĠÑģÑĤÐ°Ð²Ð½Ð¸": 4724,
      "ĠÑĤÐ²ÐµÑĢÐ´Ð¾": 4725,
      "ĠÐ½Ð°Ð±Ð»ÑİÐ´": 4726,
      "ĠÐ¿Ð¾Ð¶Ð°Ð»ÑĥÐ¹ÑģÑĤÐ°": 4727,
      "ĠÐ½Ð°Ð²ÐµÑĢÑħÑĥ": 4728,
      "ĠÑģÐ²Ð¸Ð´ÐµÑĤ": 4729,
      "Ð¾Ð½ÑĮÐºÐ¾": 4730,
      "ĠÐ¾ÑĤÐ½Ð¾ÑĪÐµÐ½Ð¸Ñı": 4731,
      "ĠÐ¾Ð±Ð¼Ð°Ð½Ñĭ": 4732,
      "ĠÑĤÑĢÑĥÐ±ÐºÑĥ": 4733,
      "ĠÐ¿ÑĢÐ¾Ð²Ð¾ÑĢÑĩÐ°Ð»": 4734,
      "ĠÐŁÐ¾Ð¼Ð¸Ð»ÑĥÐ¹": 4735,
      "ĠÐ°Ð²ÑĤÐ¾ÑĢ": 4736,
      "ĠÐ¶Ð¸Ð·Ð½ÑĮÑİ": 4737,
      "ĠÐ²ÑĢÐµÐ¼ÐµÐ½ÐµÐ¼": 4738,
      "ĠÐĶÐ¸ÐºÐºÐµÐ½": 4739,
      "ĠÑĩÐµÐ»Ð¾Ð²ÐµÑĩÐµÑģÐº": 4740,
      "ĠÐºÐ¾Ð»Ð¾ÐºÐ¾Ð»ÑĮ": 4741,
      "ÐľÐ°Ð»ÑĮÑĩÐ¸Ðº": 4742,
      "ĠÐĴÐµÑĢÐ½ÐµÑĢ": 4743,
      "ĠÐ²Ð½ÑĥÑĪ": 4744,
      "ĠÐ¿Ð¸ÑģÑĤÐ¾Ð»ÐµÑĤÐ°": 4745,
      "ĠÐļÐ½ÑıÐ¶Ð½Ð°": 4746,
      "ĠÑĪÐ¸Ð»Ð»Ð¸Ð½Ð³": 4747,
      "ou": 4748,
      "ĠÐ¦": 4749,
      "Ð¸ÑĤÐ¾": 4750,
      "Ð¸ÑĩÐ°": 4751,
      "Ð»Ð¾Ð³Ð¾": 4752,
      "Ð»ÐµÐ½Ð¸Ð¸": 4753,
      "ÑĢÐµÐ²": 4754,
      "ÑĢÐ¾ÑģÑĤ": 4755,
      "ÑĮÐµÑĤ": 4756,
      "ĠÑģÐ½Ð¸": 4757,
      "ĠÑģÐ·": 4758,
      "ĠÑģÐ¸Ñı": 4759,
      "ĠÑģÐ½Ð¾Ð¼": 4760,
      "ĠÐ¿ÑĥÑģÐº": 4761,
      "ĠÐ²ÐµÑģÑĤÐ¸": 4762,
      "ĠÐ²ÑĨÐµÐ¿": 4763,
      "ĠÐ²ÑĢÐ°Ð³": 4764,
      "Ð²ÑıÐ·": 4765,
      "ĠÐ¾Ð²": 4766,
      "Ð¼ÐµÐ½Ð½Ð¾": 4767,
      "ÑģÑĤÐ°Ð½Ð¾Ð²": 4768,
      "ĠÐºÐ¾ÑĤÑĤ": 4769,
      "ĠÐºÐ°Ð½Ð°Ð²": 4770,
      "ĠÐ¼Ñĩ": 4771,
      "ÐµÑĢÐ³Ð¸": 4772,
      "ĠÐ´ÐµÐ½": 4773,
      "ĠÐ±ÑĢÐ¾ÑĪ": 4774,
      "ĠÐ±Ð¸Ð»ÐµÑĤ": 4775,
      "Ð¾Ð²Ðµ": 4776,
      "Ð¾Ð²ÑĭÐ¹": 4777,
      "ĠÐ¿ÑĢÑĭÐ³": 4778,
      "ĠÑĤÐµÐ½Ð¸": 4779,
      "ĠÑĤÐµÐ¿": 4780,
      "ĠÑĤÐµÐ»Ð¾": 4781,
      "Ð°ÐºÐµ": 4782,
      "Ð±Ð¾Ð¹": 4783,
      "ĠÐ½ÐµÑĩÑĤÐ¾": 4784,
      "ĠÐ½Ð°ÑģÑĤÑĥÐ¿": 4785,
      "Ð°Ð¼ÐµÐ½ÑĮ": 4786,
      "Ð½Ð°Ñħ": 4787,
      "ÐµÐ´Ð¸ÑĤÐµ": 4788,
      "Ð°Ð²ÑĤ": 4789,
      "Ð°Ð²ÑĪÐ¸Ð¼": 4790,
      "Ð¸ÑĤÑĭÐ¹": 4791,
      "Ð¾ÑĤÑı": 4792,
      "Ð¸Ð²Ð°ÐµÑĤÑģÑı": 4793,
      "ĠÐ³Ð¸Ð±": 4794,
      "Ð³Ð¾ÑĢÐ¾Ð´": 4795,
      "Ð¾Ð¶Ð°": 4796,
      "Ð¾Ð¶Ñĥ": 4797,
      "ÐµÐ½Ð¸ÑĤÑĮ": 4798,
      "ĠÑģÐºÐ°Ðº": 4799,
      "ĠÐ¶Ð´Ð°Ð»Ð¸": 4800,
      "ĠÐ²ÑĭÐº": 4801,
      "ĠÐ²ÑĭÐ¼": 4802,
      "ĠÐ²ÑĭÐ¹": 4803,
      "ĠÐ²ÑĭÑģÐ»": 4804,
      "ĠÐ²ÑĭÐ¹ÑĤÐ¸": 4805,
      "Ð½ÐµÑģÑı": 4806,
      "ĠÑģÐ»Ð°Ð´": 4807,
      "ĠÑģÐ»ÑĭÑħ": 4808,
      "Ð°ÑĤÐµÐ»Ð¸": 4809,
      "ĠÐ¾Ð±ÑĥÑĩ": 4810,
      "ĠÐ¾Ð±ÑĢÐ°Ð´": 4811,
      "Ð»ÑıÑİÑĤ": 4812,
      "ĠÐĳÐµÐ·": 4813,
      "ĠÐĳÑĭÑĤÑĮ": 4814,
      "ĠÐ¸Ð·Ð³Ð¾ÑĢÐ¾Ð´": 4815,
      "ĠÐŁÐ¾Ð·Ð²": 4816,
      "ĠÐĴÐ°Ð¼": 4817,
      "ĠÐĴÐµÑĩ": 4818,
      "ĠÐĴÐµÑĢÐ°": 4819,
      "Ð½ÑıÐ¶ÐºÐ°": 4820,
      "ĠÐ°Ðº": 4821,
      "ĠÑĢÐ°Ð·ÑĢÐ°Ð·": 4822,
      "ĠÐľÐ¾Ð»ÑĩÐ°Ð»Ð¸": 4823,
      "ÐµÑĪÐ¸ÑĤÐµÐ»ÑĮÐ½Ð¾": 4824,
      "Ð¸ÑħÐ¾Ð½ÑĮ": 4825,
      "Ð¾ÑģÑĤÐ¸ÑĤÐµ": 4826,
      "ĠÐ¾Ð´Ð½Ð¾Ð¼Ñĥ": 4827,
      "ÑĩÐ¸Ð½Ñĥ": 4828,
      "ĠÐ±ÑĥÐ´ÐµÐ¼": 4829,
      "ĠÐ´ÑĢÑĥÐ³Ð°Ñı": 4830,
      "ĠÐĵÐ¾ÑģÐ¿Ð¾Ð´": 4831,
      "ĠÐĺÐ»Ð¸": 4832,
      "ĠÐ¿Ð¾ÑĤÐ¸ÑħÐ¾Ð½ÑĮ": 4833,
      "ĠÑģÑĤÐ¾Ð»Ðµ": 4834,
      "ĠÐ¿ÑĢÐ¾ÑĨ": 4835,
      "ĠÐ¿ÑĢÐµÐ´Ð¾ÑģÑĤÐµÑĢ": 4836,
      "ĠÐ±Ð¾Ð»ÑĮÐ½Ð¾Ð¹": 4837,
      "ĠÐ¿Ð¾Ð²ÐµÑģ": 4838,
      "ĠÐ¾Ð¿ÐµÑĢ": 4839,
      "ĠÐ¸Ð¼Ð¸": 4840,
      "ĠÐ¤Ð°Ð¼ÑĥÑģÐ¾Ð²": 4841,
      "ĠÐ¼Ð°Ð»ÑĮÑĩÐ¸ÐºÐ¾Ð²": 4842,
      "ĠÑĦÐµÑĢ": 4843,
      "ÑĢÐ°Ð·ÑĥÐ¼": 4844,
      "ĠÐ¿Ð¾ÑģÐ»ÑĥÐ¶": 4845,
      "ĠÐ¿Ð¾ÑģÐ»ÑĭÑĪ": 4846,
      "ÑĥÑģÑĤÐ¸ÑĤÐµ": 4847,
      "Ð»Ð¸Ð²ÑĭÐ¼": 4848,
      "ĠÐ¾ÐºÐ°Ð·Ð°Ð»": 4849,
      "ĠÐ¾ÐºÑĢÐµÑģÑĤ": 4850,
      "ĠÐ¿Ð¾Ð¼Ð¾Ð»Ñĩ": 4851,
      "ĠÑĩÐµÑĢÐ½ÑĭÐµ": 4852,
      "ĠÑĥÐ´Ð¾Ð±": 4853,
      "ĠÐ²ÑĢÐµÐ¼ÐµÐ½Ð°": 4854,
      "ĠÐºÐ¾Ð¼Ð½Ð°ÑĤÐ°": 4855,
      "ĠÐ¼Ð¸Ð»Ð¾ÑģÐµÑĢÐ´": 4856,
      "ĠÐ½Ð°Ð¿ÑĢÐ¸Ð¼ÐµÑĢ": 4857,
      "ĠÑģÑĤÑĢÐ°ÑģÑĤÐ¸": 4858,
      "ĠÑģÐ´ÐµÐ»Ð°Ñİ": 4859,
      "ĠÐºÐ°ÑĢÑĤÐ¸": 4860,
      "ĠÐ¿Ð¾Ð·Ð´": 4861,
      "ĠÐ¿Ð¾Ð·Ð°Ð±": 4862,
      "ĠÐ·Ð°Ð±ÑĭÐ»": 4863,
      "ÑģÑĤÐ²ÐµÐ½Ð½ÑĭÐ¼": 4864,
      "Ð¢ÑĥÑĤ": 4865,
      "Ð¢ÐµÐ¿ÐµÑĢÑĮ": 4866,
      "ÑģÐ¸Ð¸": 4867,
      "ĠÐ¸ÑģÐ¿ÑĢÐ°Ð²": 4868,
      "ĠÐ¿Ð¾Ð¿Ð°Ð»": 4869,
      "ĠÐ½ÐµÐ´ÐµÐ»Ñİ": 4870,
      "ĠÑĤÐ¾Ð»ÐºÐ¾Ð²": 4871,
      "ĠÑĥÐºÑĢÐ°Ð´": 4872,
      "ĠÑĥÐºÑĢÐ°ÑĪ": 4873,
      "ĠÑĢÐ°Ð´Ð¾ÑģÑĤÑĮ": 4874,
      "ĠÐ²Ð¾ÑģÐµÐ¼ÑĮ": 4875,
      "ĠÐ½Ð¾Ð³Ð¾Ð¹": 4876,
      "ĠÐ²Ð¾Ð»Ð¾Ñĩ": 4877,
      "ĠÐºÑĢÐ¸Ðº": 4878,
      "ĠÐ²ÐµÐ»Ð¸ÐºÐ¸Ð¼": 4879,
      "ĠÐ¾ÑĤÐ¿ÐµÑĢ": 4880,
      "ĠÐ¿ÑĢÐ¾ÑģÐ½ÑĥÐ»ÑģÑı": 4881,
      "ĠÐ¿ÑĢÐ¸ÑħÐ¾Ð´ÑģÐºÐ¾Ð³Ð¾": 4882,
      "ĠÐŃÑĤÐ¾ÑĤ": 4883,
      "ĠÐ¾ÑģÑĤÐ°Ð²Ð¸ÑĤÑĮ": 4884,
      "ÑĥÐ¹ÑĤÐµ": 4885,
      "Ð°ÑİÑīÐµÐ³Ð¾": 4886,
      "ĠÐ½ÐµÐ±Ð¾": 4887,
      "ĠÐ¼Ð½ÐµÐ½Ð¸Ñİ": 4888,
      "ĠÐ½ÑĥÐ¶Ð´Ð°": 4889,
      "ÑıÑīÐµÐ³Ð¾": 4890,
      "ĠÑĢÐ°Ð±Ð¾ÑĤÐ½Ð¾Ð¼": 4891,
      "ĠÐ·Ð²ÑĥÐºÐ¸": 4892,
      "ĠÐ³Ð¾Ð´Ñĥ": 4893,
      "ĠÐĳÐµÐ¹ÑĤÑģÐ°": 4894,
      "ĠÑĢÐ°ÑģÐ¿Ð°Ñħ": 4895,
      "ĠÐ¾ÑĤÐ¿ÑĢÐ°Ð²Ð¸Ð»Ð¸ÑģÑĮ": 4896,
      "ĠÐºÐ½ÑıÐ¶Ð½Ðµ": 4897,
      "ĠÐºÐ½ÑıÐ¶Ð½Ð¾Ð¹": 4898,
      "Ð°ÐµÐ¼ÑĭÐ¹": 4899,
      "ĠÐ¿Ð¾Ð²ÐµÑĢÐ½ÑĥÐ»": 4900,
      "ĠÑģÐºÐ°Ð¶ÐµÑĤÐµ": 4901,
      "Ð¸ÑīÐ°": 4902,
      "ĠÐ¿ÑĥÑģÑĤÐ¸Ð»ÑģÑı": 4903,
      "ĠÑĥÑģÑĤÑĢÐ°ÑĪ": 4904,
      "ĠÑīÐµÐ½Ð¾Ðº": 4905,
      "ĠÑģÐ¾Ð±Ð°ÐºÑĥ": 4906,
      "ĠÐ¿Ð¾ÑģÑĤÐµÐ¿ÐµÐ½Ð½Ð¾": 4907,
      "ĠÐ¾ÑĤÐºÑĢÑĭÑĤÑĮ": 4908,
      "ĠÐ¼ÐµÑĢÐ·": 4909,
      "ĠÐ·Ð»Ð¾Ð±Ð½Ð¾": 4910,
      "ĠÐ»ÐµÑģÑĤÐ½Ð¸ÑĨÑĭ": 4911,
      "ĠÐ´ÐµÑĢÐ¶Ð°": 4912,
      "ĠÑĪÑĥÐ¼Ð°": 4913,
      "ĠÑĥÐ´Ð¸Ð²Ð»ÐµÐ½": 4914,
      "ĠÐ¿ÑĢÐ¸ÑģÑĤÐ°Ð½Ð¸": 4915,
      "ĠÑĩÐ°ÑģÑĤÐ¸": 4916,
      "Ð°Ð¿Ð¸ÑĤÐ°Ð½Ð°": 4917,
      "ĠÐ·Ð°Ð¼ÐµÑĩÐ°Ð½Ð¸Ðµ": 4918,
      "ĠÐ·Ð°Ð¼ÐµÑĩÐ°Ð½Ð¸Ñı": 4919,
      "ĠÑĩÑĥÐ²ÑģÑĤÐ²ÑĥÑİ": 4920,
      "ĠÐ¶Ð¸Ð»ÐµÑĤ": 4921,
      "ĠÑĥÑĩÑĤ": 4922,
      "ĠÐ´ÐµÑĤÐµÐ¹": 4923,
      "ĠÐ·Ð°Ð¼ÐµÑĤÐ¸Ð²": 4924,
      "ĠÑģÐµÐºÑĢÐµÑĤ": 4925,
      "ĠÐ¾ÑĤÑĩÐµÑĤ": 4926,
      "ĠÑĪÑĥÑĤÐºÑĥ": 4927,
      "ĠÐ½Ð°Ð¿ÑĢÐ°Ð²Ð¾": 4928,
      "ÑİÑīÐ¸Ñħ": 4929,
      "ĠÑģÐ¿ÑĥÑģÑĤÐ¸Ð»ÑģÑı": 4930,
      "ĠÐ´ÑĢÐ¾Ð¶Ð°Ñī": 4931,
      "ĠÐ´Ð°Ð²Ð°Ñı": 4932,
      "ĠÐ¾ÑĤÐ´ÑĭÑħ": 4933,
      "ĠÐ½Ð°Ð³ÑĢÐ°Ð´": 4934,
      "ĠÐ¿ÑĢÐµÐ²ÑĢÐ°ÑĤ": 4935,
      "ĠÑĢÐ°ÑģÐ¿Ð¾Ð»Ð¾Ð¶ÐµÐ½Ð¸Ð¸": 4936,
      "ĠÐ²Ð°Ð¶Ð½Ð¾": 4937,
      "ĠÐ²ÑĭÑģÐ¾ÐºÐ¾Ð¼": 4938,
      "ĠÐ¿ÑĥÐ»Ñı": 4939,
      "ĠÐ¿Ð°Ð»ÑĮÑĤÐ¾": 4940,
      "ĠÑĢÐµÐ·ÐºÐ¾": 4941,
      "ĠÑĢÐµÐ·ÑĥÐ»ÑĮÑĤÐ°ÑĤ": 4942,
      "ĠÐ¸ÑģÑĤÐ¾ÑĢÐ¸Ð¸": 4943,
      "ĠÐ¿Ð¾ÑĤÐµÑĢÑıÐ»": 4944,
      "ĠÑĥÐ´Ð¾Ð²Ð¾Ð»ÑĮÑģÑĤÐ²Ð¸ÐµÐ¼": 4945,
      "ĠÐ¾Ð±ÑĬÑıÐ²Ð¸Ð»": 4946,
      "ĠÑĢÑĥÐºÐ°Ð²": 4947,
      "ĠÑĤÐ²Ð¾Ñı": 4948,
      "ĠÐ½ÐµÐ¾Ð±ÑħÐ¾Ð´Ð¸Ð¼Ð¾": 4949,
      "ĠÐ±ÐµÐ´Ð½ÑıÐºÐ¾Ð²": 4950,
      "ĠÑĩÐµÑĤÑĭÑĢÐµÑħ": 4951,
      "ĠÐ¾ÑģÐ½Ð¾Ð²Ð°Ð½Ð¸Ñı": 4952,
      "ĠÐ¾Ð¿ÑĢÐ°Ð²Ð´Ð°": 4953,
      "ĠÐ¸ÑģÐ¿Ð¾Ð»Ð½ÐµÐ½Ð¸Ðµ": 4954,
      "ĠÐºÐ¾ÑģÑĤÑİÐ¼": 4955,
      "ĠÐŁÑĢÐ°Ð²Ð´Ð°": 4956,
      "ĠÐ¿ÐµÑĢÐµÑģÐµÐº": 4957,
      "ĠÐ´Ð¾ÑĩÐµÑĢÐ¸": 4958,
      "ÐĿÐ¸ÐºÐ¾Ð³Ð´Ð°": 4959,
      "ĠÑģÐ¾Ð»Ð½ÑĨÐµ": 4960,
      "ĠÐ¾Ð±Ð¼Ð¾ÑĢ": 4961,
      "Ð¾Ð¿Ð¾Ð»Ð¾Ð¶": 4962,
      "ĠÑĥÐ´Ð°Ð»Ð¸Ð»ÑģÑı": 4963,
      "ĠÐ¿Ð¾ÑĩÑĥÐ²ÑģÑĤÐ²Ð¾Ð²Ð°Ð»": 4964,
      "ĠÑģÐ¾Ð¿ÑĢÐ¾Ð²Ð¾Ð¶": 4965,
      "ĠÑģÐ¾Ð»Ð´Ð°ÑĤ": 4966,
      "ĠÑĢÐµÑĩÐ¸": 4967,
      "ĠÑĤÑĥÐ¼Ð°Ð½": 4968,
      "ĠÐĿÐ¸ÐºÐ¾Ð³Ð´Ð°": 4969,
      "ĠÐ´Ð¾ÐºÐ°Ð·Ð°ÑĤÐµÐ»ÑĮ": 4970,
      "ĠÐºÐ°Ð»Ð¸ÑĤ": 4971,
      "ĠÐ¿Ð¾Ð´ÑħÐ²Ð°ÑĤÐ¸Ð»": 4972,
      "ĠÐ¿Ð¾Ð½ÑĢÐ°Ð²": 4973,
      "ĠÐ±ÐµÐ·Ð¼Ð¾Ð»Ð²": 4974,
      "ĠÐ¸ÑģÐºÐ»ÑİÑĩÐµÐ½Ð¸ÐµÐ¼": 4975,
      "ĠÑĢÐ°ÑģÑģÐ»ÑĭÑĪ": 4976,
      "ĠÑĤÑİÑĢÐµÐ¼ÑīÐ¸Ðº": 4977,
      "ĠÑģÐ¾Ð¼Ð½ÐµÐ²": 4978,
      "ĠÐºÑĥÐ»Ð°ÐºÐ¾Ð¼": 4979,
      "ĠÑĤÑĢÐ¾Ð¿Ð¸Ð½": 4980,
      "ĠÐ¿Ð¾Ð³Ð¾Ð²Ð¾ÑĢÐ¸ÑĤÑĮ": 4981,
      "ĠÐ¼ÐµÐ½ÑĮÑĪÐµ": 4982,
      "ĠÑĥÑĩÐ°ÑģÑĤÐ¸Ðµ": 4983,
      "ĠÑĤÑĢÐµÑĥÐ³Ð¾Ð»ÐºÑĥ": 4984,
      "ĠÑģÐ¼ÑĥÑī": 4985,
      "ĠÐ§ÐµÑĢÐµÐ·": 4986,
      "ĠÐ´ÑĭÑħÐ°Ð½Ð¸Ðµ": 4987,
      "ĠÐ§Ð¸ÐºÑĥÐ¸Ð´": 4988,
      "ĠÐ¼Ð»Ð°Ð´ÐµÐ½": 4989,
      "ĠÐ²ÑģÐµÐ²Ð¾Ð·Ð¼Ð¾Ð¶": 4990,
      "ĠÐ¾ÑĩÐµÑĢÐµÐ´ÑĮ": 4991,
      "ĠÐºÐ¾ÑĤÑĤÐµÐ´Ð¶": 4992,
      "ĠÐ¿Ð¾ÑĤÐ¸ÑħÐ¾Ð½ÑĮÐºÑĥ": 4993,
      "17": 4994,
      "Ð¾Ð½Ð¸": 4995,
      "ÑĢÐ°Ð»Ð°": 4996,
      "ÑĢÐ¾Ð½": 4997,
      "ÑĢÐ¾Ðµ": 4998,
      "ÑıÐµÑĤ": 4999,
      "ĠÑģÑĥ": 5000,
      "ĠÑģÐ½Ð°": 5001,
      "ĠÑģÐ¸Ð»Ð°Ñħ": 5002,
      "ĠÐ¿Ð°Ð½": 5003,
      "ĠÐ¿ÑĤÐ¸": 5004,
      "ĠÐ²Ð»Ð¸Ñı": 5005,
      "Ð²Ð°Ð¼Ð¸": 5006,
      "ĠÐ¸Ð¼Ñĥ": 5007,
      "Ð°Ð»Ñĥ": 5008,
      "ĠÐºÑĢÐ°ÑĤ": 5009,
      "ĠÐºÑĥÑģÐº": 5010,
      "ÐµÐ½ÑīÐ¸": 5011,
      "ĠÐ´ÐµÐ»ÑĮ": 5012,
      "ĠÐ´ÑĢÑı": 5013,
      "ĠÐ´Ð¾Ð²Ð¾Ð»ÑĮ": 5014,
      "ĠÐ±ÐµÑģÐº": 5015,
      "Ð»Ð¸ÑĤÑĮ": 5016,
      "ÐµÑĤÐ¸Ð½": 5017,
      "ĠÐ¿ÑĢÐµ": 5018,
      "ĠÐ¿ÑĢÐµÐ±": 5019,
      "ĠÐ¿ÑĢÐ°Ð·Ð´": 5020,
      "ĠÑĤÑĢÐ°Ð²": 5021,
      "ĠÑĩÐ¸ÑģÐ»": 5022,
      "ĠÐ·ÐµÐ²": 5023,
      "Ð½Ð¾ÑģÑı": 5024,
      "Ð¾Ð»Ðµ": 5025,
      "Ð¾Ð»ÐµÐ¿": 5026,
      "ĠÐµÐ·": 5027,
      "Ð¾Ð´Ð¸ÑĤÑĮ": 5028,
      "ĠÐ½ÐµÐ¾Ð¿": 5029,
      "Ð½Ð¸ÑģÑĮ": 5030,
      "ĠÑĢÐµ": 5031,
      "ĠÑĢÐ°Ð¹": 5032,
      "ÐµÐ¼Ð¾": 5033,
      "Ð°Ð²Ð¸Ð»Ð°": 5034,
      "ĠÐ±ÑĭÑģÑĤ": 5035,
      "Ð¾ÑĢÐ¾Ð´": 5036,
      "ÑĨÐ¾Ð¼": 5037,
      "ÑĨÐ°ÑĤÑĮ": 5038,
      "ĠÐ¾ÑĤÑģÑĤÐ°Ð²": 5039,
      "ĠÐ¾ÑĤÐ´Ð°ÑĤÑĮ": 5040,
      "ĠÐ¾ÑĤÐ³Ð°Ð´": 5041,
      "Ð¾Ð³Ð°": 5042,
      "Ð¾Ð³Ð»Ð°Ñģ": 5043,
      "ĠÑįÐ¿": 5044,
      "Ð¾ÑĤÐ½Ð¾": 5045,
      "ÑģÐºÐ¾Ð²": 5046,
      "ÑģÐºÐ°Ðº": 5047,
      "Ð¸Ð²Ð°Ñİ": 5048,
      "Ð¸Ð²ÑĪÐ¸Ðµ": 5049,
      "ĠÐ²ÑĭÑĢÑĭÐ²": 5050,
      "ĠÐ¿ÑĢÐ¸ÑģÑĤÑĥÐ¿": 5051,
      "ĠÐ¿ÑĢÐ¸Ð½Ð¾Ñģ": 5052,
      "ĠÐºÐ°ÐºÐ¾Ð¼Ñĥ": 5053,
      "ĠÐºÐ°ÐºÐ¸Ð¼Ð¸": 5054,
      "Ð½ÐµÑĨ": 5055,
      "ĠÑģÑĤÑĭ": 5056,
      "ĠÑģÑĤÐ¸Ñħ": 5057,
      "ĠÑģÐ»ÑĥÐ³Ð°": 5058,
      "Ð¾Ð·Ð½Ð°Ñĩ": 5059,
      "Ð°ÑĤÑĭ": 5060,
      "ĠÐ¾Ð±ÑĪ": 5061,
      "ĠÐ¾Ð±Ð»ÐµÐ³": 5062,
      "Ð°Ð¹ÐµÑĢÑģ": 5063,
      "Ð°Ð½Ð½Ð°Ñı": 5064,
      "ĠÐ¿Ð¾Ð´Ð°Ð»": 5065,
      "ĠÐ¡ÐµÐ³Ð¾Ð´Ð½Ñı": 5066,
      "ĠÐ¸Ð·ÑĢÐµÐ´": 5067,
      "Ð½ÑıÐ»Ð¸": 5068,
      "ĠÑĢÐ°Ð·Ð¾Ñĩ": 5069,
      "Ð¾ÑĩÐºÐ¸": 5070,
      "ĠÑĪÐ°Ð¹": 5071,
      "ÑĥÑĩÐ°Ð»Ð¸": 5072,
      "Ð¾Ð½ÑĩÐ¸Ð²": 5073,
      "Ð°Ð³ÑĥÐ½": 5074,
      "ÑħÐ¾Ð´Ñı": 5075,
      "ÐĿÐ°ÐºÐ¾Ð½ÐµÑĨ": 5076,
      "ÐµÐ³Ð°Ñı": 5077,
      "ĠÐ²Ð·Ð²Ð¾Ð»": 5078,
      "ĠÐ¿Ð¾Ð»Ñı": 5079,
      "ĠÐ¿Ð¾Ð»Ð½Ð¾Ð¹": 5080,
      "ĠÐ¿Ð¾ÐºÑĢÑĭÐ²": 5081,
      "ĠÐ§ÐµÐ³Ð¾": 5082,
      "ĠÐ½Ð°Ð´ÐµÐ¶Ð´Ñĥ": 5083,
      "ĠÐ·Ð½Ð°Ñı": 5084,
      "ÑģÑĤÐ¸Ð³": 5085,
      "ĠÐ´Ð²ÐµÐ½": 5086,
      "ĠÐ´ÐµÐ»Ð°Ñħ": 5087,
      "ĠÐ²ÐµÑĢÑģÑĤ": 5088,
      "ĠÐ²ÐµÑĢÐµÐ²": 5089,
      "ĠÐ²ÐµÑĢÐ¸ÑĤÑĮ": 5090,
      "ĠÐ²ÐµÑĢÐ½ÐµÑĤÑģÑı": 5091,
      "ĠÑģÐ¾Ð±ÑĭÑĤÐ¸": 5092,
      "ĠÑĥÐ¼ÑĢÐµÑĤ": 5093,
      "ÐŁÐ¾Ð»": 5094,
      "ĠÐ´Ð¾Ð»Ð¸": 5095,
      "ĠÐ´Ð¾Ð½Ð¾Ñģ": 5096,
      "ĠÐ·Ð°Ð¼ÐµÐ´": 5097,
      "ĠÐ½Ð¸ÐºÐ¾Ð¼Ñĥ": 5098,
      "ÑĥÐ±Ð»Ð¸": 5099,
      "ÐľÑĭ": 5100,
      "ĠÐ¿Ð¾Ð¼Ð¾ÑīÐ¸": 5101,
      "ĠÑĩÐµÐ»Ð¾Ð²ÐµÐºÑĥ": 5102,
      "ĠÐ´Ð²ÐµÑĢÑĮÑİ": 5103,
      "ĠÐłÐ¾Ñģ": 5104,
      "ÐµÑĤÑĮÑģÑı": 5105,
      "ĠÐ¿Ð¾ÑģÐµÑĤ": 5106,
      "ĠÐ¿Ð¾ÑģÐ¼Ð°ÑĤÑĢÐ¸Ð²Ð°Ñı": 5107,
      "ĠÐ¤ÐµÐ´Ð¶Ð¸Ð½Ñĥ": 5108,
      "ĠÐ´Ð¾Ð±Ð¸ÑĤÑĮÑģÑı": 5109,
      "ĠÐĿÐµÑģÐºÐ¾Ð»ÑĮÐºÐ¾": 5110,
      "ĠÐ¿Ð»Ð°Ð¼": 5111,
      "ĠÐķÐ¹": 5112,
      "ÐµÐ»Ð°ÑģÑĮ": 5113,
      "ĠÐ½Ð°Ð¿ÑĢÐ°ÑģÐ½Ð¾": 5114,
      "ĠÐ½ÐµÐ¼Ð°Ð»Ð¾": 5115,
      "ĠÑģÐ´ÐµÐ»Ð°Ð»Ð¸": 5116,
      "ÑĬÑıÑģ": 5117,
      "ĠÐ¿ÑĢÐ¸Ð²ÐµÐ»Ð¾": 5118,
      "Ð°ÑĤÐµÐ»ÑĮÐ½ÑĭÐ¹": 5119,
      "Ð¢Ð¸ÑĪÐµ": 5120,
      "ĠÑĥÐ¿ÑĢÐ°Ð²": 5121,
      "ĠÐ¿ÑĢÐ¸Ð½ÑıÐ»Ð¸": 5122,
      "ĠÑģÐ¸Ð´Ð¸ÑĤ": 5123,
      "ĠÑģÐµÑĢÐ´Ð¸ÑĤÐ¾": 5124,
      "Ð½Ð¸ÐºÐ°Ð¼Ð¸": 5125,
      "ĠÐ²Ð¾ÑģÐºÐ»Ð¸ÑĨ": 5126,
      "ĠÐ¿Ð¾ÐºÐ°ÑĩÐ°Ð»": 5127,
      "ĠÑĥÐ±Ð¸ÑĤ": 5128,
      "Ð¸ÑĢÐ°Ð»": 5129,
      "ĠÐ±ÐµÐ´Ð½Ð¾Ð³Ð¾": 5130,
      "Ð¿Ð¾Ð»Ð°Ð³": 5131,
      "ĠÐ½ÐµÐ²Ð¸Ð½": 5132,
      "Ð½ÑĮÐµ": 5133,
      "ĠÐ¶ÐµÐ»Ð°Ñİ": 5134,
      "ĠÐ¿ÐµÑĢÐ²Ð¾Ð³Ð¾": 5135,
      "ĠÐ¿ÐµÑĢÐ²ÑĭÐ¼": 5136,
      "ĠÐ²Ð¾ÑĢÐ¾Ð²": 5137,
      "ĠÑģÐ»Ð¾Ð²Ð°Ñħ": 5138,
      "ĠÑİÐ½": 5139,
      "ĠÐ¿ÑĢÐ¸Ð´ÐµÑĢÐ¶": 5140,
      "ĠÐ³ÑĢÑĥÐ±Ð¾": 5141,
      "ĠÑģÐ»ÑĭÑĪÐ°ÑĤÑĮ": 5142,
      "ĠÑģÐ»ÑĭÑĪÐ°Ð»Ð¸": 5143,
      "ĠÑħÐ¾ÑĩÐµÑĤÑģÑı": 5144,
      "Ð¾Ð¶Ð´Ð¸ÑĤÐµ": 5145,
      "ĠÐºÐ°Ð·Ð°Ð»ÑģÑı": 5146,
      "ĠÐ½Ð¾Ð²Ð¾Ð¹": 5147,
      "ĠÐ½Ð¾Ð²ÑĭÐ¹": 5148,
      "ĠÐ¿ÑĢÐ¸ÐºÐ»ÑİÑĩ": 5149,
      "ĠÐ¾ÑģÐ¾Ð±Ñĭ": 5150,
      "ÐŃÑĤÐ¾ÑĤ": 5151,
      "ĠÑģÐºÐ¾ÑĢÐ±": 5152,
      "ÑĢÐµÐºÑĢÐ°ÑģÐ½Ð¾": 5153,
      "ÐµÑĢÐ±ÑĥÑĢ": 5154,
      "ĠÐ´ÑĢÐ°Ð³ÑĥÐ½": 5155,
      "ĠÐºÐ½Ð¸Ð¶": 5156,
      "ĠÐ»ÐµÐ¶Ð¸ÑĤ": 5157,
      "ĠÐ³Ð¾Ð´Ñĭ": 5158,
      "ĠÐ¿ÑĢÐ¸ÑıÑĤÐ½Ð¾": 5159,
      "ĠÑĤÐ°Ð¸Ð½ÑģÑĤÐ²ÐµÐ½": 5160,
      "ĠÐ¾ÑģÑĤÐ°Ð½Ð¾Ð²Ð¸Ð»Ð°ÑģÑĮ": 5161,
      "ĠÑģÐºÐ°Ð¶Ð¸": 5162,
      "ĠÑģÐºÐ°Ð¶Ð¸ÑĤÐµ": 5163,
      "ĠÐºÐ°Ð¶Ð´Ð¾Ðµ": 5164,
      "ĠÐ¿Ð¾Ð»ÑĥÑĩÐ¸ÑĤÑĮ": 5165,
      "ĠÐ±ÐµÑģÐ¿Ð¾ÐºÐ¾": 5166,
      "ĠÑĤÐ¸ÑħÐ¸Ð¼": 5167,
      "ĠÑģÐ¸Ð»Ñĥ": 5168,
      "ĠÑģÐ¸Ð»Ð¾Ð¹": 5169,
      "ĠÐ¿ÑĢÐµÐºÑĢÐ°ÑģÐ½Ð¾Ðµ": 5170,
      "ĠÐ¿ÑĢÐ¸Ð¼ÐµÑĢÐ½Ð¾": 5171,
      "ĠÐ´Ð¾Ð±ÑĢÑĭÐ¹": 5172,
      "ĠÑģÐ²ÐµÑĩÐ¸": 5173,
      "Ġ18": 5174,
      "ĠÐ´ÐµÑĢÐµÐ²ÐµÐ½": 5175,
      "ĠÐ¾Ð±ÑīÐµÑģÑĤÐ²Ðµ": 5176,
      "ĠÐ½Ð°Ð´ÐµÐ¶Ð´Ð°": 5177,
      "ĠÐŀÐ´Ð¸Ð½": 5178,
      "Ð¼Ð°ÑĤÑĢÐ¸Ð²Ð°Ð»": 5179,
      "ĠÐ¡ÑĤÐ°ÑĢ": 5180,
      "ĠÐ½Ð°Ð¿ÑĢÐ°Ð²Ð¸Ð»ÑģÑı": 5181,
      "ÑİÑīÐ¸Ðµ": 5182,
      "ĠÑģÑĤÑĢÐµÐ»": 5183,
      "ĠÐ¿ÑĢÐ¾ÐºÐ»ÑıÑĤÑĮ": 5184,
      "ĠÑĤÐ¾ÑĢÐ¶ÐµÑģÑĤÐ²ÐµÐ½Ð½Ð¾": 5185,
      "ÐŃÐ¹": 5186,
      "ĠÐ¾Ð±Ð²Ð¸Ð½": 5187,
      "ĠÐ½Ð°Ð»ÐµÐ²Ð¾": 5188,
      "Ð²ÑĭÑĢ": 5189,
      "ĠÐĽÐ¾ÑģÐ±ÐµÑĢ": 5190,
      "ĠÐ³Ð¾ÑģÐ¿Ð¾Ð´Ð¸Ð½": 5191,
      "ĠÐ¿Ð°Ð»ÑĮÑĨÐ°Ð¼Ð¸": 5192,
      "ĠÐ¾ÑĤÐ²ÐµÑĢÐ½ÑĥÐ»ÑģÑı": 5193,
      "ĠÐ»ÑİÐ±Ð¾Ð¿ÑĭÑĤÑģÑĤÐ²Ð¾Ð¼": 5194,
      "ĠÐ¾ÑĤÑĩÐ°ÑıÐ½Ð¸Ðµ": 5195,
      "ĠÑģÐµÐºÑĥÐ½Ð´Ð°Ð½": 5196,
      "ĠÑĪÐ¸ÑĢ": 5197,
      "ĠÑģÐ¼ÐµÑĪÐ½Ð¾": 5198,
      "ĠÐ¿ÐµÑĢÐµÐ¼ÐµÐ½": 5199,
      "ĠÐºÐ°ÑĢÐ¼Ð°Ð½Ñĭ": 5200,
      "ĠÐ±Ð¾Ð»ÐµÐ·Ð½": 5201,
      "ĠÑĥÐ³ÑĢÐ¾Ð¶": 5202,
      "ĠÑĥÐ³ÑĢÐ¾Ð·": 5203,
      "ĠÑĥÐ³ÑĢÑİÐ¼": 5204,
      "ĠÑģÐ¾ÑģÑĤÐ¾ÑıÐ½Ð¸Ð¸": 5205,
      "ĠÑģÑĤÑĢÐ°Ð´Ð°Ð½Ð¸Ñı": 5206,
      "ĠÐ¼Ð°Ð»ÑĮÑĩÐ¸ÑĪÐºÑĥ": 5207,
      "ĠÑģÐ¾ÑĢÐ¾Ðº": 5208,
      "Ð¾Ð´ÑĥÑĪÐ½Ð¾": 5209,
      "ĠÐ¡ÐºÐ°Ð¶Ð¸": 5210,
      "ĠÐ¼ÐµÑģÑıÑĨÐ°": 5211,
      "ĠÑģÑĤÑĢÐµÐ¼Ð¸ÑĤÐµÐ»ÑĮÐ½Ð¾": 5212,
      "ĠÐ¾Ð±Ð¼ÐµÐ½Ñı": 5213,
      "ĠÑĥÐ»Ð¸ÑĨÐ°Ð¼": 5214,
      "ĠÑĥÐ¼Ð¾Ð»Ðº": 5215,
      "ĠÑĤÑİÑĢÑĮÐ¼Ñĥ": 5216,
      "ĠÐ¿Ð¾Ð¹Ð¼": 5217,
      "ĠÐ¸ÑģÑĤÐ¸Ð½": 5218,
      "ĠÐ´Ð¾ÐºÐ°Ð·Ð°ÑĤÐµÐ»ÑĮÑģÑĤÐ²Ð¾": 5219,
      "ĠÐ²Ð·Ð´ÑĢÐ¾Ð³Ð½ÑĥÐ»": 5220,
      "ĠÐ¿ÑĢÐ¸ÑĪÐ»Ð¾ÑģÑĮ": 5221,
      "ĠÑĥÐ±ÐµÐ¶Ð´": 5222,
      "ĠÑĢÐ°Ð½ÐµÐ½": 5223,
      "ĠÐ³ÑĥÑģÑĤÐ¾Ð¹": 5224,
      "Ð°Ð»ÐµÐºÑĥ": 5225,
      "ĠÐ¿Ð¾ÑĨÐµÐ»": 5226,
      "ĠÑħÐ»Ð¾Ð¿Ð¾ÑĤ": 5227,
      "ÑįÑĤÐ¾Ð¼Ñĥ": 5228,
      "ĠÐ§Ð°ÑĨÐºÐ¾Ð³Ð¾": 5229,
      "ĠÐ¿Ð¾Ð²ÐµÑģÑĤÐ²Ð¾Ð²": 5230,
      "ĠÐºÐ°Ð¼Ð¸Ð½Ð°": 5231,
      "ĠÐ¼ÑĥÐ·Ñĭ": 5232,
      "ĠÐ½ÐµÑĥÐ´ÐµÑĢÐ¶": 5233,
      "ĠÐĲÐ½Ð³Ð»Ð¸Ð¸": 5234,
      "ÐļÐ½ÑıÐ³Ð¸Ð½Ñı": 5235,
      "ĠÐŁÑĢÐ¾ÑīÐ°Ð¹ÑĤÐµ": 5236,
      "ĠÑģÐ¾ÑģÑĤÑĢÐ°Ð´": 5237,
      "ĠÐ¾ÑĤÑĤÑĥÐ´Ð°": 5238,
      "ĠÑįÐ½ÐµÑĢÐ³Ð¸": 5239,
      "ĠÐ±Ð»Ð°Ð³Ð¾ÑģÐ»Ð¾Ð²Ð¸ÑĤ": 5240,
      "ĠÐºÑĢÐ°Ð´ÑĥÑĩÐ¸ÑģÑĮ": 5241,
      "ĠÐ¿Ð¾ÑģÑĤÐ¾ÑıÐ½": 5242,
      "ĠÐ¿Ð¾ÑĤÐµÑħÐ°": 5243,
      "ĠÑĥÐ´Ð¾ÑģÑĤÐ¾Ð²ÐµÑĢ": 5244,
      "ĠÑģÐ·Ð°Ð´Ð¸": 5245,
      "Ð°Ð²ÑĤÑĢÐ°": 5246,
      "ĠÐ¸Ð·ÑĢÐµÐ´ÐºÐ°": 5247,
      "ĠÐ²Ð·Ð²Ð¾Ð»Ð½Ð¾Ð²": 5248,
      "en": 5249,
      "ĠD": 5250,
      "Ð¾Ð½Ñĥ": 5251,
      "Ð¾ÑĤÐ¾Ñĩ": 5252,
      "ÐµÑģÑĮ": 5253,
      "ÑĤÐ¾Ð²Ð°": 5254,
      "Ð¸ÑģÐ»Ð¾Ð²": 5255,
      "ÑģÐµÐ³Ð´Ð°": 5256,
      "Ð»ÐµÐ·": 5257,
      "Ð»Ð°Ð¶": 5258,
      "Ð»ÑĥÑĩ": 5259,
      "Ð½ÐµÐ½Ð¸Ðµ": 5260,
      "ÑĢÐ¾Ð·": 5261,
      "ÑĥÐ½Ð°": 5262,
      "ÑĥÐ²ÐµÑĢ": 5263,
      "ÑĮÐµÐ¹": 5264,
      "ĠÑģÐ´": 5265,
      "ĠÑģÑĥÐµÑĤ": 5266,
      "ĠÑģÑĥÐ¶Ð´": 5267,
      "ĠÐ¿Ð¸Ð½": 5268,
      "ĠÐ¿Ð¾Ð¹ÑĤÐ¸": 5269,
      "ĠÐ¿Ð¾Ð¹Ð´ÐµÑĤ": 5270,
      "ĠÐ¿ÑĥÐ±Ð»Ð¸": 5271,
      "ĠÐ½Ñĭ": 5272,
      "ĠÐ²Ð²ÐµÑĢ": 5273,
      "ĠÐ²ÑĢÐ°Ñĩ": 5274,
      "ĠÐ¾Ñī": 5275,
      "ĠÐ¾ÐºÐ¸": 5276,
      "ĠÐ¾ÑĩÐ¸": 5277,
      "ĠÐ¾Ð·Ð¸": 5278,
      "ÑĤÐ¾Ñī": 5279,
      "Ð¼Ð¾Ð¹": 5280,
      "ÑģÑĤÐ°Ð»": 5281,
      "ÑģÑĤÐ¸Ð»": 5282,
      "ÑģÑĤÑıÑħ": 5283,
      "ĠÐºÐ¾Ð¿": 5284,
      "ĠÐ¼ÑıÑģ": 5285,
      "ÑĪÐºÐ¸": 5286,
      "ĠÐ´Ñİ": 5287,
      "ĠÐ´Ð¸Ð²": 5288,
      "ĠÐ´Ð°Ð»Ð°": 5289,
      "ĠÐ´ÐµÐ»Ð¸": 5290,
      "ĠÐ±ÑĥÐ»": 5291,
      "ĠÐ±ÐµÐ¶Ð°Ð»": 5292,
      "ĠÐ¿ÑĢÐ¾ÑģÑĤÐ¸": 5293,
      "ĠÐ¿ÑĢÐµÑĢÐ²": 5294,
      "ĠÑĤÐ°Ð½": 5295,
      "ĠÑĤÐ¸ÑĪÐ¸": 5296,
      "ĠÐ·Ð°Ð³Ð¾": 5297,
      "ĠÑĥÑģÑĤÐ°Ð²": 5298,
      "ĠÑĥÑģÐºÐ¾Ð»ÑĮÐ·": 5299,
      "Ð¸Ð»Ð°Ñı": 5300,
      "ĠÐµÑİ": 5301,
      "Ð¾Ð´Ðµ": 5302,
      "Ð¾Ð´Ð¸ÑĤÐµ": 5303,
      "ĠÑĢÐ¾Ð±": 5304,
      "ĠÐ½Ð°ÑĥÑĩ": 5305,
      "ĠÐ½Ð°ÑĢÑĥÐ¶": 5306,
      "ĠÐ½Ð°ÑģÑĤÐ°": 5307,
      "ĠÐ¿Ð¾ÐµÐ´": 5308,
      "ĠÐ¿Ð¾Ñī": 5309,
      "Ð¸ÑĤÐµÑĤ": 5310,
      "Ð¸ÑĤÐµÐ»Ð¸": 5311,
      "ÑīÐµÐ¹": 5312,
      "Ð¾ÑĢÐ´": 5313,
      "ÑĨÐ¾": 5314,
      "Ð¾ÑĤÐ²ÐµÑĤ": 5315,
      "Ð´Ð°ÑİÑĤ": 5316,
      "Ð¸Ð²Ð¾ÑĢÐ¾ÑĤ": 5317,
      "Ð¸Ð¼Ðº": 5318,
      "Ð¾ÑģÑĥÐ´": 5319,
      "ĠÐ¶Ð°Ð´": 5320,
      "Ð°ÑĢÐ¾Ð¼": 5321,
      "ĠÐ¿ÑĢÐ¸Ð½ÑĥÐ¶Ð´": 5322,
      "Ð²ÐµÑĢÑĮ": 5323,
      "ÐºÐ¸Ð¿": 5324,
      "Ð°ÑĤÑĭÐ¹": 5325,
      "ĠÐ¾Ð±Ñģ": 5326,
      "ĠÐ¾Ð±Ð¸Ð´": 5327,
      "ĠÐ¾Ð±Ð´ÐµÐ»": 5328,
      "ÐµÐ²ÑĪÐ¸ÑģÑĮ": 5329,
      "ÑĥÐ´Ð¸ÑĤÑĮ": 5330,
      "Ð°Ð½Ð½ÑĥÑİ": 5331,
      "ĠÑħÑĢÐ°": 5332,
      "ÐµÐ±Ñı": 5333,
      "ÐºÐ¾ÑģÑĤÑĮ": 5334,
      "ĠÐ¿Ð¾Ð´Ð¼": 5335,
      "ĠÐ¿Ð¾Ð´Ð¶": 5336,
      "ĠÐ¿Ð¾Ð´Ð¼Ð¸Ð³": 5337,
      "ĠÐ½Ð¸ÑĩÐµÐ¼": 5338,
      "ĠÐ½Ð¸Ð³Ð´Ðµ": 5339,
      "Ð°Ð¶ÐµÑĤ": 5340,
      "Ð°Ð¶ÐµÑĤÑģÑı": 5341,
      "ĠÑĢÐ°Ð·Ð½ÑĭÐµ": 5342,
      "ÐµÐ¶Ð°Ð»Ð°": 5343,
      "ĠÑĪÐµÐ²": 5344,
      "ĠÑĪÐ»Ð°": 5345,
      "ĠÑĪÐµÐµ": 5346,
      "ĠÑĪÐ¸Ð²Ð¾ÑĢÐ¾ÑĤ": 5347,
      "ĠÑģÐ¿Ð¸Ð½ÐºÑĥ": 5348,
      "Ð°Ð»ÑĮÐ½ÑĭÐ¹": 5349,
      "Ð°Ð»ÑĮÐ½Ð¾Ðµ": 5350,
      "ÑĢÐ¸ÑģÑĤ": 5351,
      "ÑĢÐ¸ÑģÑĤÐ¸": 5352,
      "ÑĥÑĩÑĪÐµ": 5353,
      "ÑĢÑĭÐ·": 5354,
      "ĠÐĶÐµÑĢÐ¶": 5355,
      "ÑıÑĤÐ°": 5356,
      "ÑĥÑİÑīÐµÐµ": 5357,
      "ĠÐ¿Ð¾ÐºÐ°Ð·Ð°ÑĤÑĮ": 5358,
      "ĠÑģÐ°Ð¼Ð°Ñı": 5359,
      "ĠÑģÐ°Ð¼Ð¾Ð»ÑİÐ±": 5360,
      "ĠÐ§ÐµÐ¼": 5361,
      "ĠÐ´ÑĢÑĥÐ³Ð¸Ð¼Ð¸": 5362,
      "ĠÐ²Ð¸Ð´ÐµÐ»Ð¸": 5363,
      "ĠÐ²Ð¸Ð´ÐµÐ»Ð°": 5364,
      "Ð¸ÑĤÐµÐ»ÑĮÐ½Ð°Ñı": 5365,
      "ĠÐĺÑħ": 5366,
      "ĠÐĺÑĤÐ°Ðº": 5367,
      "ĠÐ·Ð½Ð°ÐµÐ¼": 5368,
      "ĠÐ¿Ð¾ÑĤÑĢÑıÑģ": 5369,
      "ĠÑģÑĤÐ¾Ð»Ð¸": 5370,
      "ĠÑģÑĤÐ¾ÑıÐ»Ð¸": 5371,
      "ĠÐ²Ð¾Ð·ÑĮ": 5372,
      "ĠÐ¿ÑĢÐ¾ÐµÐ·Ð¶": 5373,
      "ĠÐ¿ÑĢÐµÐ´Ð¿Ð¾Ð»Ð¾Ð¶": 5374,
      "Ð½Ð¸ÑĨÐµ": 5375,
      "ĠÐ¾Ð¿Ð¾Ð·": 5376,
      "Ð½Ð¸Ð¼Ð°Ñı": 5377,
      "ĠÑģÑĤÐ°ÑĢÐ¾Ð¼Ñĥ": 5378,
      "ĠÐ´Ð¾Ð¼Ð¾Ð¼": 5379,
      "Ð»ÑİÐ±": 5380,
      "ĠÐ¾ÐºÐ½Ñĥ": 5381,
      "ĠÐ¾ÐºÑĢÑĥÐ¶ÐµÐ½": 5382,
      "ĠÑĤÑĢÐµÑĤÑĮ": 5383,
      "ĠÐ»ÑİÐ±Ð¾Ð¹": 5384,
      "ĠÐ»ÑİÐ±Ð¸ÑĤÑĮ": 5385,
      "ĠÐ´Ð²ÐµÑĢÐµÐ¹": 5386,
      "ĠÐ·Ð°ÐºÑĥÑĤ": 5387,
      "ĠÐ·Ð°ÐºÐ»Ð°Ð´": 5388,
      "ÑĢÐ¾Ð´Ðµ": 5389,
      "ĠÐ¿Ð¾ÑģÑĭÐ»": 5390,
      "ĠÐĽÐ¸Ð¼Ðº": 5391,
      "ĠÐ½Ð°ÑģÑĩÐµÑĤ": 5392,
      "ÐĶÐµÐ²ÑĥÑĪÐºÐ°": 5393,
      "ĠÐ¼Ð¾Ð»Ð¾Ð´ÑĭÐµ": 5394,
      "ĠÐºÐ°ÑĢÑĤ": 5395,
      "ĠÐºÐ°ÑĢÐµÑĤÐµ": 5396,
      "ĠÑĥÑĤÐµÑģ": 5397,
      "ÐķÑīÐµ": 5398,
      "ĠÐ²Ð·Ð³Ð»ÑıÐ´Ð°": 5399,
      "ĠÐ·Ð°Ð¿Ð¸Ñģ": 5400,
      "ĠÐ·Ð°Ð¿Ð»Ð°ÑĤ": 5401,
      "ĠÐļÐ°ÐºÐ°Ñı": 5402,
      "ĠÑĥÐ²ÐµÐ»Ð¸": 5403,
      "ĠÐ½ÐµÐ´Ð¾Ð»": 5404,
      "ĠÐ½ÐµÐ´Ð¾ÑĥÐ¼": 5405,
      "ĠÐºÐ¾Ð»ÐµÑģ": 5406,
      "ĠÑģÐ»ÐµÐ´ÑĥÐµÑĤ": 5407,
      "ĠÐ½Ð¾Ð³Ñĥ": 5408,
      "ĠÐ½ÐµÐ¿ÑĢÐµÐ¼ÐµÐ½Ð½Ð¾": 5409,
      "ĠÐºÑĢÐ¸ÑĩÐ°Ð»": 5410,
      "ĠÐ±ÑĢÐ¾ÑģÐ¸Ð»Ð¸ÑģÑĮ": 5411,
      "ĠÑĢÐµÑĪÐµÑĤ": 5412,
      "ĠÐ¥Ð¾ÑĢÐ¾ÑĪÐ¾": 5413,
      "ĠÐ¶ÐµÐ»Ð°Ð½Ð¸Ñı": 5414,
      "ĠÐ´Ð¾ÑģÑĤÐ°Ð»": 5415,
      "ĠÐ¿Ð¾Ð±ÐµÐ¶Ð°Ð»": 5416,
      "ĠÐ¾ÑģÑĤÐ°Ð²Ð¸Ð²": 5417,
      "ĠÐ³ÑĢÑĥÑģÑĤÐ½Ð¾": 5418,
      "ĠÐ¿Ð¾Ð³ÑĢÑĥÐ·": 5419,
      "ĠÐ¿ÑĢÐ¾ÑĤÐ¸Ð²Ð¾ÑĢ": 5420,
      "ĠÐ¿ÑĢÐ¾ÑĤÐ¸Ð²Ð¾Ð¿Ð¾Ð»Ð¾Ð¶": 5421,
      "ĠÐ¸ÑģÑĤÐ¾Ñī": 5422,
      "ĠÐ±Ð»Ð°Ð³Ð¾Ð´": 5423,
      "ĠÐ½ÐµÐ±Ñĥ": 5424,
      "ĠÐ½ÐµÐ±Ð»Ð°Ð³Ð¾Ð´Ð°ÑĢ": 5425,
      "ĠÐ²Ð½Ð¸Ð¼Ð°ÑĤÐµÐ»ÑĮÐ½Ð¾": 5426,
      "ĠÑģÑĤÐ¾Ð»Ð¾Ð¼": 5427,
      "ĠÐ½ÑĥÐ¶ÐµÐ½": 5428,
      "ĠÑĥÐ»ÑĭÐ±ÐºÐ°": 5429,
      "ĠÐ¿Ð¾ÑģÐ¼Ð¾ÑĤÑĢÐµÐ»Ð°": 5430,
      "ĠÐ¿Ð¾Ð»Ð¾Ð¶ÐµÐ½Ð¸Ð¸": 5431,
      "ĠÐ½ÐµÐ·Ð°Ð¼": 5432,
      "ĠÐºÑĢÐ¾Ð²Ð¸": 5433,
      "ĠÐºÑĢÐ¾Ð²ÑĮÑİ": 5434,
      "ĠÐ½Ð°ÑħÐ¾Ð´Ð¸Ð»Ð¸ÑģÑĮ": 5435,
      "ĠÐºÐ°Ð¼Ð¸Ð½": 5436,
      "ĠÐ´ÑĢÑĥÐ¶Ðµ": 5437,
      "ÐłÐ¾Ð·": 5438,
      "ĠÐ¿Ð¾ÑħÐ»Ð¾Ð¿": 5439,
      "ĠÐ¿ÑĥÑģÑĤÑı": 5440,
      "ĠÐ³ÑĢÐ¾Ð¼ÑĩÐµ": 5441,
      "ĠÐ³ÑĢÐ¾Ð¼ÐºÐ¸Ð¼": 5442,
      "ĠÐ¾ÑģÐ²Ð¾Ð±Ð¾Ð´": 5443,
      "ĠÐ¿ÑĢÐ¸ÑģÐ¾": 5444,
      "ĠÐ·Ð°ÑģÑĤÐ°Ð²Ð¸Ð»": 5445,
      "ĠÑĥÐ´Ð¸Ð²Ð»ÐµÐ½Ð¸ÐµÐ¼": 5446,
      "Ð»ÑĥÑĪÐ°Ð¹ÑĤÐµ": 5447,
      "ĠÐ´Ð°Ð»ÑĮÐ½ÐµÐ¹": 5448,
      "ĠÐ·Ð°Ð½Ð°Ð²": 5449,
      "ĠÑĢÐ°ÑģÐºÑĢÑĭ": 5450,
      "ĠÐ´ÐµÑĤÐ¸": 5451,
      "ĠÐ¿Ð»Ð¾Ñħ": 5452,
      "ĠÐ·Ð°Ð¼ÐµÑĤÐ¸Ð»Ð°": 5453,
      "ĠÑħÐ¾Ð´Ð¸ÑĤÑĮ": 5454,
      "ĠÐ´ÑĥÑĢÐ½Ð¾": 5455,
      "ĠÑĪÐµÐ¿Ð½ÑĥÐ»": 5456,
      "ĠÐ¾Ð¶Ð¸Ð²": 5457,
      "ĠÐ¾Ð¶Ð¸Ð´": 5458,
      "ĠÐ³ÑĢÐ°Ð±Ð¸ÑĤÐµÐ»Ñı": 5459,
      "ĠÐ²Ð¾Ð·Ð¼Ð¾Ð¶Ð½Ð¾ÑģÑĤÐ¸": 5460,
      "ĠÐ·Ð°Ð´ÑĥÐ¼ÑĩÐ¸Ð²Ð¾": 5461,
      "ĠÐ¿ÑĢÐ¾ÑĩÐ¸ÑĤ": 5462,
      "ĠÐ¸Ð¼ÐµÐµÑĤÐµ": 5463,
      "ĠÐ¿Ð»Ð°Ñī": 5464,
      "ĠÑĤÑĢÐ¾ÑģÑĤÑĮÑİ": 5465,
      "ĠÐ¿ÐµÑĢÐµÐ±Ð¸Ð»Ð°": 5466,
      "ĠÐĺÐ·Ð²": 5467,
      "ĠÑĢÐ°ÑģÐ¿Ð¾Ð»Ð¾Ð¶ÐµÐ½Ð¸Ðµ": 5468,
      "ĠÐ²ÑģÑĤÑĢÑıÑħ": 5469,
      "ĠÐ¾Ð¿ÑĥÑģÑĤÐ¸Ð²": 5470,
      "ĠXV": 5471,
      "ĠÐ¡Ð¿Ð°Ð¹ÐµÑĢÑģ": 5472,
      "ĠÐ²Ð·Ð´Ð¾ÑħÐ¾Ð¼": 5473,
      "ĠÐ±ÐµÑģÐ¿Ð¾ÐºÐ¾Ð¹ÑģÑĤÐ²Ð¾Ð¼": 5474,
      "ĠÑģÐ¶Ð¸Ð¼Ð°Ñı": 5475,
      "ĠÐ·Ð´Ð¾ÑĢÐ¾Ð²Ð¾": 5476,
      "ĠÐ·Ð´Ð¾ÑĢÐ¾Ð²ÑĮÐµ": 5477,
      "ĠÐ³Ð°Ð»ÑģÑĤ": 5478,
      "ĠÑģÐ¼ÐµÑħÐ¾Ð¼": 5479,
      "ĠÑģÐ»Ð°Ð²Ð½Ð°Ñı": 5480,
      "ĠÐ²Ð¾Ð»Ð½ÐµÐ½Ð¸Ñı": 5481,
      "ÑĢÐ¾ÑĪÑĥ": 5482,
      "ĠÐ·Ð°ÑħÐ¾ÑħÐ¾ÑĤ": 5483,
      "ĠÐ»ÑİÐ±Ð¾Ð²ÑĮÑİ": 5484,
      "ĠÐ¾Ð±ÑĬÑıÑģÐ½Ð¸ÑĤÑĮ": 5485,
      "ĠÑģÐ¼ÐµÑıÑĤÑĮÑģÑı": 5486,
      "ĠÐ¿Ð¾ÑģÐ¿ÐµÑĪÐ¸Ð»": 5487,
      "ĠÑģÐ¼ÐµÑĢÑĤÐµÐ»ÑĮ": 5488,
      "ĠÑĥÐ±ÐµÐ´Ð¸Ð²ÑĪÐ¸ÑģÑĮ": 5489,
      "ĠÐ¾ÑĤÐ½Ð¾ÑĪÐµÐ½Ð¸Ðµ": 5490,
      "ĠÑģÐºÑĢÑĭÑĤÑĮ": 5491,
      "ĠÑħÑĥÐ´Ð¾": 5492,
      "Ð¾Ð¿Ð¾Ð»ÑĥÑĩ": 5493,
      "ĠÑĥÑģÐ»Ð¾Ð²Ð¸Ñı": 5494,
      "ĠÐºÑĥÑģÑĤÐ°ÑĢ": 5495,
      "ĠÐ¾ÑĩÐ°Ð³Ð°": 5496,
      "ĠÐ²ÑĭÑģÑĤÑĢÐµÐ»": 5497,
      "ĠÐ¿Ð¾Ð²ÐµÐ´ÐµÐ½Ð¸Ðµ": 5498,
      "ĠÑĦÐ¸Ð·Ð¸Ð¾Ð½Ð¾Ð¼Ð¸ÐµÐ¹": 5499,
      "Ð°Ð²ÑĪÐ¸ÑħÑģÑı": 5500,
      "ĠÐ½Ð°Ð´ÐµÑıÑģÑĮ": 5501,
      "ĠÐºÑĢÑĥÑĤ": 5502,
      "ĠÐ¿ÑĢÐµÐ´ÑĥÐ¿ÑĢÐµÐ´": 5503,
      "ĠÐ±ÑĥÑĦ": 5504,
      "ĠÐ¿ÑĢÐ¸ÑģÑıÐ¶": 5505,
      "ĠÑĢÐ°ÑģÑģÐºÐ°Ð·ÑĭÐ²Ð°ÑĤÑĮ": 5506,
      "ĠÐ²Ð¾Ð·Ð±ÑĥÐ¶Ð´": 5507,
      "ĠÑĨÐµÑĢÐºÐ¾Ð²": 5508,
      "ĠÐ²ÐµÐ»ÐµÐ»": 5509,
      "ĠÐ¾ÑģÐºÐ¾ÑĢÐ±": 5510,
      "ĠÐ²Ð¾ÑģÐºÑĢÐµÑģÐµÐ½ÑĮÐµ": 5511,
      "ĠÑĢÐ°ÑģÑģÑĤÐ¾ÑıÐ½Ð¸Ðµ": 5512,
      "ĠÑĢÐ°ÑģÑģÑĤÐ¾ÑıÐ½Ð¸Ð¸": 5513,
      "ĠÐ§ÐµÑĢÑĤÐµÐ¹": 5514,
      "ĠÐ¿Ð¾Ð´ÐºÑĢÐµÐ¿": 5515,
      "ĠÐ¿Ð»Ð°ÑĤÑĮÐµ": 5516,
      "ĠÐºÐ¾Ð»Ð¾Ð´ÑĨÐ°": 5517,
      "ĠÑĢÐ°Ð·Ð³Ð¾Ð²Ð°ÑĢÐ¸Ð²Ð°ÑĤÑĮ": 5518,
      "ĠÐ¿Ð¾Ð²Ð¾ÑĢÐ°ÑĩÐ¸Ð²Ð°ÑıÑģÑĮ": 5519,
      "ĠÐ²Ð¸Ð½Ð¾Ð²Ð°ÑĤ": 5520,
      "ĠÐ¾ÐºÐ¾Ð½ÑĩÐ°ÑĤÐµÐ»ÑĮÐ½Ð¾": 5521,
      "ĠÑĩÑĢÐµÐ·Ð²ÑĭÑĩÐ°Ð¹Ð½Ð¾": 5522,
      "ĠÐ±Ð¾Ð´ÑĢ": 5523,
      "ĠÑĩÐ°ÑĪÐºÑĥ": 5524,
      "ĠÑĢÐ¾Ð²Ð½Ð¾": 5525,
      "ĠÐ½ÐµÐ²Ð¾Ð·Ð¼Ð¾Ð¶Ð½Ð¾": 5526,
      "ĠÐºÐ²Ð°ÑĢÑĤÐ¸": 5527,
      "Ð»Ð¾Ð½Ð¸Ð²ÑĪÐ¸ÑģÑĮ": 5528,
      "Ð¡ÑĤÐ°ÑĢÑĭÐ¹": 5529,
      "ĠÐ¼ÑĭÑģÐ»ÐµÐ¹": 5530,
      "ĠÐ¿Ð¾Ð²Ð¸Ð½Ð¾Ð²Ð°Ð»ÑģÑı": 5531,
      "ĠÐ²Ð»ÑİÐ±Ð»": 5532,
      "ĠÐ¼Ð°Ð·ÑĥÑĢ": 5533,
      "ĠÐŁÐ°Ð²Ð»Ð¾Ð²": 5534,
      "ĠÐ²Ð¾ÑģÐ¿Ð¾Ð»ÑĮÐ·Ð¾Ð²": 5535,
      "ĠÐ²Ð¾Ð·Ð½Ð°Ð³ÑĢÐ°Ð¶Ð´": 5536,
      "ĠÐ¿ÑĢÐ¸Ð¾ÑģÑĤÐ°Ð½Ð¾Ð²": 5537,
      "ĠÐ½ÐµÐ±ÑĢÐµÐ¶Ð½Ð¾": 5538,
      "ĠÑģÑĥÐ¼Ð°ÑģÑĪÐµÐ´": 5539,
      "ĠÐŁÐ¾Ð·Ð²Ð¾Ð»ÑĮÑĤÐµ": 5540,
      "ĠÐ¸Ð¼ÑĥÑīÐµ": 5541,
      "?!": 5542,
      "is": 5543,
      "ĠI": 5544,
      "Ġm": 5545,
      "Ð¸ÑĢÐ°Ñı": 5546,
      "ÑģÑĭ": 5547,
      "ÑģÐµÐ³Ð¾": 5548,
      "Ð»ÐµÐ¼": 5549,
      "Ð»ÑĭÐµ": 5550,
      "Ð½Ð¾Ð³": 5551,
      "Ð½Ð°Ð»Ð¸": 5552,
      "Ð½Ð¾ÐºÑĢÐ¾Ð²": 5553,
      "ÑıÑı": 5554,
      "ÑıÑİ": 5555,
      "ÑıÑıÑģÑĮ": 5556,
      "ÑĮÐµÐ¼": 5557,
      "ÑĮÑıÐ²": 5558,
      "ĠÑģÐ¸Ñħ": 5559,
      "ĠÑģÑĥÐ±": 5560,
      "ĠÑģÐ¾ÑĪÐµÐ»": 5561,
      "ĠÑģÑĩÐµÑĤ": 5562,
      "ĠÐ¿Ð¸Ð»": 5563,
      "ĠÐ¿ÑĥÐ½": 5564,
      "ĠÐ¿Ð¸ÑĪ": 5565,
      "ĠÐ¿ÑĭÐ»ÑĮ": 5566,
      "ÐºÐ°Ð»": 5567,
      "ĠÐ²Ð¸Ð½": 5568,
      "ÑĩÐ°Ð»Ð¸": 5569,
      "Ð²Ð°Ð»Ð°": 5570,
      "Ð²Ð°Ñĩ": 5571,
      "ĠÐ¾ÐºÑĥ": 5572,
      "ĠÐ¸Ñİ": 5573,
      "ĠÐ¸Ð½ÑĭÑħ": 5574,
      "Ð¼ÐµÑħ": 5575,
      "ĠÐºÐ¸ÑĢ": 5576,
      "ĠÐºÑģÑĤÐ°ÑĤÐ¸": 5577,
      "ĠÐ¼Ð°Ñģ": 5578,
      "ĠÐ¼Ð°Ñı": 5579,
      "ĠÐ¼ÑĢÐ°Ðº": 5580,
      "ĠÐ¼Ð°Ð¼ÐµÐ½ÑĮ": 5581,
      "ÑĪÐ¸Ð½Ðµ": 5582,
      "ÐµÑĢÐµÐ³": 5583,
      "ÐµÑĢÐ³Ðµ": 5584,
      "ÑħÐ¾Ð¶Ð´": 5585,
      "ĠÐ´Ðµ": 5586,
      "ĠÐ´Ð°Ð´": 5587,
      "ĠÐ´ÑĥÐ±": 5588,
      "Ð¾Ð²Ð°Ð½Ð½ÑĭÐ¹": 5589,
      "Ð»Ð¸Ð»": 5590,
      "ĠÐ¿ÑĢÐµÐ¼": 5591,
      "ĠÑĤÑĥÐ¿": 5592,
      "ĠÑĩÐµÐ¿": 5593,
      "ĠÑĩÐ¸Ñģ": 5594,
      "ĠÑĩÑĥÐ»": 5595,
      "ÐµÐ»Ð°ÑĤÑĮ": 5596,
      "ĠÐ·Ð¾ÑĢ": 5597,
      "ĠÑĥÐ»Ð¾Ð²": 5598,
      "Ð¾Ð»ÐµÑĤ": 5599,
      "Ð¿Ð¿": 5600,
      "Ð¿ÑĢÐ¾": 5601,
      "Ð¾Ð´Ð¸Ð»Ð¸": 5602,
      "Ð½Ð¸ÑĤÑĮÑģÑı": 5603,
      "ĠÑĢÐ¸Ñģ": 5604,
      "ĠÐ½Ð°ÑģÐº": 5605,
      "ĠÐ½Ð°ÑĤÑĥ": 5606,
      "ĠÐ½Ð°ÑĪÐ»Ð¸": 5607,
      "ĠÐ¿Ð¾Ð¸ÑģÐº": 5608,
      "ÐµÐ¼ÑĭÐ¹": 5609,
      "ÐµÐ´Ð»Ð¸Ð²Ð¾": 5610,
      "Ð°Ð²Ð°Ñı": 5611,
      "Ð°Ð²Ð»ÐµÐ½": 5612,
      "Ð³ÐµÑĤ": 5613,
      "Ð³Ð°Ñı": 5614,
      "ĠÐ»ÑĥÐ´": 5615,
      "ĠÐ¾ÑĤÑĬ": 5616,
      "Ð¾Ð±Ð°ÐºÐ°": 5617,
      "ĠÑįÐºÑģ": 5618,
      "ĠÑįÐ¿Ð¾Ð»": 5619,
      "ĠÑįÐºÐ¸Ð¿": 5620,
      "ÑģÐºÐ°Ð·": 5621,
      "Ð¸Ð²ÑĪÐ¸Ð¼": 5622,
      "Ð¸Ð²Ð°ÑİÑĤÑģÑı": 5623,
      "ĠÐ³ÑĢÐ¾Ñħ": 5624,
      "Ð¾Ð¶Ð¸Ð»": 5625,
      "Ð¾Ð¶ÐµÑĤÐµ": 5626,
      "ĠÐ¶ÑĥÑĢ": 5627,
      "ĠÐ²ÑĭÑĤÐ°ÑīÐ¸Ð»": 5628,
      "Ð°ÑĢÐºÐ°": 5629,
      "ĠÐ¿ÑĢÐ¸Ñħ": 5630,
      "Ð°ÑĤÐ¾Ð¼": 5631,
      "Ð°ÑĤÐµÐ»Ñı": 5632,
      "ĠÐ¾Ð±ÑħÐ¾Ð´": 5633,
      "ÐµÐ²Ð°Ñı": 5634,
      "Ð°Ð½ÑĤ": 5635,
      "Ð°Ð½ÑĮÑı": 5636,
      "ĠÐĿÐ°Ñģ": 5637,
      "ÐºÐ°ÑĦ": 5638,
      "ĠÑįÑĤÐ°Ðº": 5639,
      "ĠÐ²ÑģÑħ": 5640,
      "ĠÐ¿Ð¾Ð´ÑģÑĤÑĢ": 5641,
      "ĠÐ¿Ð¾Ð´Ð¾Ð¹Ð´Ñı": 5642,
      "ĠÐĳÑĭÐ»Ð¾": 5643,
      "Ð¸Ð´ÐµÑģÑı": 5644,
      "ÐµÐºÐ¾Ð¼": 5645,
      "ĠÐ¡ÐµÑĢÐ³Ðµ": 5646,
      "ĠÐ·Ð°ÑĢÐ°": 5647,
      "ĠÐ·Ð°ÑĪÐµÐ»": 5648,
      "ĠÐ·Ð°Ð¸Ðº": 5649,
      "ĠÐ¸Ð·Ð¾Ð±": 5650,
      "ĠÐŁÑĢÐµÐ´": 5651,
      "ĠÐŁÐ»Ð°ÑĤÐ¾Ð½": 5652,
      "ĠÐŁÑĥÑģÑĤÑĮ": 5653,
      "ĠÐĴÐµÑĢ": 5654,
      "ĠÐĴÐ¾Ð·": 5655,
      "ĠÐ³Ð¾ÑĢÑĥ": 5656,
      "ĠÐ³Ð¾ÑģÑĤÐµÐ¹": 5657,
      "Ð°Ð¶Ð°": 5658,
      "Ð°Ð¶Ð¸ÑĤÐµ": 5659,
      "ĠÐ°Ð³": 5660,
      "ÐµÐ¿ÑĤ": 5661,
      "Ð¾ÑĩÐ½Ð¾": 5662,
      "ĠÐľÐ°Ð»ÑĮÑĩÐ¸": 5663,
      "ÐµÐ¶ÑĮ": 5664,
      "ĠÑĪÐµÑĢ": 5665,
      "ĠÑĪÑĤÐ°": 5666,
      "ĠÑĪÐºÐ°ÑĦ": 5667,
      "ĠÑģÐ¿Ð°Ð»ÑĮ": 5668,
      "ĠÑģÐ¿Ð¸ÑĢ": 5669,
      "ĠÐ»Ð¸ÑĩÐ¸": 5670,
      "Ð¾Ð¿ÑĢÐ¸ÑıÑĤ": 5671,
      "ÐµÐ½ÑıÑħ": 5672,
      "ĠÐ¾Ð´Ð½Ð¸": 5673,
      "ĠÐ¾Ð´ÐµÑıÐ»Ð¾": 5674,
      "ĠÐ¾ÑĤÐ²ÐµÐ´": 5675,
      "ĠÐ¾ÑĤÐ²ÐµÑģ": 5676,
      "ĠÐĶÐ°Ð²Ð½Ð¾": 5677,
      "ĠÐ²Ð·ÑıÑĤÑĮ": 5678,
      "ĠÐ²Ð·ÑıÐ»Ð¸": 5679,
      "...\"": 5680,
      "ĠÐ¿Ð¾ÐºÐ¸Ð½ÑĥÐ»": 5681,
      "ĠÑĢÐ°ÑģÑħÐ¾Ð´": 5682,
      "ĠÑģÐ¼ÑıÐ³": 5683,
      "ĠÑģÐ¼ÑĭÑģÐ»": 5684,
      "ĠÑģÐ¼ÑĭÑĪÐ»ÐµÐ½": 5685,
      "ĠÐĲÐ½Ð´": 5686,
      "ĠÐ²Ð¸Ð´Ð¸ÑĪÑĮ": 5687,
      "Ð¸ÑĤÐµÐ»ÑĮÐ½Ð¾Ð³Ð¾": 5688,
      "ÑīÐ¸ÐºÐ¸": 5689,
      "ÑīÐ¸ÐºÐ¾Ð²": 5690,
      "ÐµÐ½Ð¸ÑıÑħ": 5691,
      "ĠÑģÑĤÐ¾Ñı": 5692,
      "ĠÐ¾ÑĤÐ²ÐµÑĤÐ¸ÑĤÑĮ": 5693,
      "ĠÐ¼Ð¾ÑģÐºÐ¾Ð²": 5694,
      "ÑĢÐ¾ÑģÑĤÑĮ": 5695,
      "ĠÑĥÐ¶Ð¸Ð½Ð°": 5696,
      "ĠÐ²Ð¾Ð·Ð³": 5697,
      "ĠÐ²Ð¾Ð·ÑĢÐ°ÑģÑĤ": 5698,
      "Ð¡ÑĤÐ°": 5699,
      "ĠÐ¿ÑĢÐ¾Ð¸Ð³": 5700,
      "ĠÐ¼Ð¾Ð¶ÐµÐ¼": 5701,
      "ĠÐ¼Ð°Ð»ÑĮÑĩÐ¸ÐºÑĥ": 5702,
      "ĠÑĦÑĥÑĤ": 5703,
      "ĠÐ´Ð¶ÐµÐ½ÑĤÐ»ÑĮÐ¼ÐµÐ½Ð¾Ð¼": 5704,
      "ÑĩÐµÐµ": 5705,
      "ĠÑģÐ¾Ð¾ÑĤÐ²ÐµÑĤ": 5706,
      "Ð»Ð¸Ð²ÑĭÐ¹": 5707,
      "ĠÑĤÑĢÐ¾ÑĤÑĥ": 5708,
      "ĠÑĨÐ°ÑĢ": 5709,
      "ĠÐ´Ð²ÐµÑĢÑıÑħ": 5710,
      "ĠÐłÐµÐ¿ÐµÑĤÐ¸Ð»Ð¾Ð²": 5711,
      "ÑģÑĤÑĢÐ¸ÑĤ": 5712,
      "ÑģÑĤÑĢÐµÑĩ": 5713,
      "ĠÐ¿ÑĢÐ°Ð²Ð¸Ð»ÑĮ": 5714,
      "ĠÐ¿ÑĢÐ°Ð²Ð¾ÑģÑĥÐ´": 5715,
      "ĠÐ´Ð¾Ð±ÑĢÐ°": 5716,
      "ĠÐ¿Ð»ÐµÐ¼": 5717,
      "ĠÑģÑĤÑĢÐ°ÑģÑĤ": 5718,
      "ĠÑģÐ»ÑĥÑĩÐ¸ÑĤÑģÑı": 5719,
      "ÑĮÑİÑĤ": 5720,
      "ĠÐ¿ÑĢÐ¸Ð²ÐµÐ»Ð¸": 5721,
      "ĠÐ²Ð·Ð³Ð»ÑıÐ½ÑĥÑĤÑĮ": 5722,
      "ĠÐ´ÐµÐ²ÑĥÑĪÐºÐ¾Ð¹": 5723,
      "ÑĪÐµÐ»Ð¾Ð¼": 5724,
      "ĠÐ·Ð°Ð±Ð»": 5725,
      "ÑģÑĤÐ²ÐµÐ½Ð½Ð¾Ð³Ð¾": 5726,
      "Ð¾Ð»Ð¶Ð½Ð¾": 5727,
      "ĠÑĥÐ¿ÑĢÑıÐ¼": 5728,
      "ĠÐ¿ÑĢÐ¸Ð½ÑıÑĤ": 5729,
      "ĠÐ½Ð°ÐºÐ°Ð·": 5730,
      "ĠÐ½Ð°ÐºÐ»Ð¾Ð½Ð¸Ð²ÑĪÐ¸ÑģÑĮ": 5731,
      "ĠÐ¸ÑģÐ¿Ð¾ÑĢ": 5732,
      "ĠÑĥÐ²Ð»ÐµÐº": 5733,
      "ĠÑģÐ¸Ð´ÐµÑĤÑĮ": 5734,
      "ĠÐ½Ð¾ÑĩÐ½Ð¾Ð¹": 5735,
      "ĠÑģÐµÑĢÐ´ÑĨÑĥ": 5736,
      "ĠÐºÐ¾Ð½ÑģÑĤ": 5737,
      "Ð»Ð°Ð´Ð½Ð¾ÐºÑĢÐ¾Ð²": 5738,
      "ĠÐ¿ÑĢÐ¾ÑĤÑıÐ¶": 5739,
      "ĠÑĥÐ±Ð¸ÑĤÑĮ": 5740,
      "ĠÑĥÐ·Ð½Ð°Ð²": 5741,
      "ĠÐ³Ð¾ÑĢÐ´Ð¾": 5742,
      "ĠÐ¿ÑĢÐ¾Ð´Ð¾Ð»Ð¶Ð°ÑĤÑĮ": 5743,
      "ĠÑĢÐ°Ð´Ð¾ÑģÑĤÑĮÑİ": 5744,
      "Ð»ÑĭÑĪÐ¸ÑĪÑĮ": 5745,
      "ĠÐ½Ð¾Ð³Ð°Ñħ": 5746,
      "ĠÐºÑĢÐ¸ÐºÐ¸": 5747,
      "ĠÐºÐ½ÑıÐ³": 5748,
      "ĠÐºÐ½ÑıÐ³Ð¸": 5749,
      "ĠÑĤÑĢÑĥÐ¿": 5750,
      "ĠÐ¿ÐµÑĢÐ²Ð¾Ð¹": 5751,
      "ĠÐ¿ÐµÑĢÐ²Ð¾Ð¼Ñĥ": 5752,
      "ÑĩÐµÑģÐºÐ¸Ð¹": 5753,
      "ĠÐ¿Ð¾ÑģÐ»ÐµÐ´Ð½Ð¸Ðµ": 5754,
      "ĠÐ¼ÑĥÐ¶Ð°": 5755,
      "ĠÑĥÑģÐ»ÑĥÐ¶": 5756,
      "Ð¾Ð¹Ð´ÐµÑĪÑĮ": 5757,
      "ÑĪÐµÐ¹ÑģÑı": 5758,
      "ĠÑģÐ»ÑĭÑĪÐ½Ð¾": 5759,
      "ĠÑģÐ»ÑĭÑĪÐ¸ÑĤÐµ": 5760,
      "ĠÐ¶ÐµÐ½ÑīÐ¸Ð½Ñĥ": 5761,
      "ĠÐ¸ÑģÑĤÐ¾Ñĩ": 5762,
      "ĠÐ¸Ð·Ð²Ð»ÐµÐº": 5763,
      "ĠÐ²Ð½Ð¸Ð¼Ð°Ð½Ð¸ÐµÐ¼": 5764,
      "ĠÐ½Ð°ÑĩÐ°Ð»Ð¸": 5765,
      "ĠÐ½ÑĥÐ¶Ð´": 5766,
      "ĠÑĢÐ¾Ð´ÑģÑĤÐ²ÐµÐ½": 5767,
      "ĠÐ±Ð¾Ð»ÑĮÑĪÑĥÑİ": 5768,
      "ĠÐ¾ÑģÐ¾Ð±Ð°": 5769,
      "ÐĳÐµÐ´": 5770,
      "Ð°ÐµÑĤÐµÑģÑĮ": 5771,
      "ĠÑıÐ²Ð¸Ð»ÑģÑı": 5772,
      "ĠÑĪÐ°Ð³Ð°Ñħ": 5773,
      "ĠÐ½ÐµÐ·Ð°ÑĩÐµÐ¼": 5774,
      "ĠÐ¶Ð¸Ð²ÐµÑĤ": 5775,
      "ĠÑģÐ¼Ð¾ÑĤÑĢÐ¸ÑĤ": 5776,
      "ĠÑģÐ¾ÑģÑĤÐ¾": 5777,
      "ĠÑģÐ»ÑĥÐ¶Ð¸ÑĤÑĮ": 5778,
      "ĠÑģÐ»ÑĥÐ¶Ð±Ðµ": 5779,
      "ÐĹÐ´ÐµÑģÑĮ": 5780,
      "ĠÑĢÐ°ÑģÐ¿ÑĢÐ°Ð²": 5781,
      "ĠÐ¿Ð¾ÑħÐ²Ð°Ð»": 5782,
      "ĠÐŁÐ¾ÑģÐ¼Ð¾ÑĤÑĢÐ¸ÑĤÐµ": 5783,
      "ĠÑģÑĥÐ´ÑĮÐ±Ñĭ": 5784,
      "ĠÐ¿Ð¾Ð²ÑĤÐ¾ÑĢÐ¸Ð»Ð°": 5785,
      "ĠÑģÐ¾Ð·ÐµÑĢ": 5786,
      "ĠÑĤÐ¸ÑħÐ¾Ð½ÑĮÐºÐ¾": 5787,
      "ĠÐŁÑĢÐ¸Ð·": 5788,
      "ĠÐ·Ð°ÑĢÐ°Ð±Ð¾ÑĤ": 5789,
      "ĠÑģÑĩÐ°ÑģÑĤÐ»Ð¸Ð²ÑĭÐ¼": 5790,
      "ĠÐ²ÑĭÐ·Ð´Ð¾ÑĢÐ¾Ð²": 5791,
      "ĠÐ·Ð°ÑģÑĤÐ°Ð²Ð¸Ð»Ð¸": 5792,
      "Ð¸ÑĪÑĮÑģÑı": 5793,
      "ĠÐ½ÐµÐ¾Ð±ÑĭÑĩÐ°Ð¹": 5794,
      "Ð¾Ð½Ð´Ð¾Ð½": 5795,
      "ĠÑģÐ²ÐµÑĩÐ°": 5796,
      "ĠÐ¿Ð»ÐµÑĩÐ¸": 5797,
      "ĠÑĢÐ°ÑģÐºÐ°Ñı": 5798,
      "ĠÐ¿ÑıÑĤÑĮÐ´ÐµÑģÑıÑĤ": 5799,
      "ĠÐ´ÐµÑĢÐµÐ²ÑıÐ½": 5800,
      "ĠÐ¿ÐµÑĩÐ°Ð»Ð¸": 5801,
      "ĠÐºÐ»ÑĥÐ±": 5802,
      "ĠÐ·ÐµÐ¼Ð»Ð¸": 5803,
      "ĠÑģÐ»ÑĥÑĪÐ°Ð»": 5804,
      "ĠÑģÐ»ÑĥÑĪÐ°ÑĤÑĮ": 5805,
      "ĠÐŁÑĢÐ¾ÑĪ": 5806,
      "ĠÑģÑĩÐ¸ÑĤÐ°Ð»": 5807,
      "ĠÑģÐ¾Ð³Ð»Ð°ÑģÐ¸Ñı": 5808,
      "ĠÑģÐ¿ÑĥÑģÑĤÑı": 5809,
      "ĠÐ³Ð»ÑĥÐ±Ð¾ÐºÐ¾Ð¼": 5810,
      "ĠÐ·Ð°Ð±Ð¾ÑĤÐ»Ð¸Ð²Ð¾": 5811,
      "ĠÐ·Ð°Ð´ÑĥÐ¼Ð°Ð»ÑģÑı": 5812,
      "ĠÐ·Ð°Ð´ÑĥÐ¼ÑĩÐ¸Ð²": 5813,
      "ĠÑģÑĥÐ¼ÐµÑĢ": 5814,
      "ĠÐ¸Ð¼ÐµÑİÑĤ": 5815,
      "ĠÐĳÑĢÐ¸ÑĤÐ»ÑģÐ°": 5816,
      "ĠÐļÐ½ÑıÐ·ÑĮ": 5817,
      "ĠÐ¾Ð±Ð²Ð¸Ð½Ñı": 5818,
      "ĠÐ¿ÑĢÐ¾Ð¸ÑģÑĪÐµ": 5819,
      "ĠÐ¿ÑĢÐ¾Ð¸ÑģÑħÐ¾Ð´Ð¸ÑĤ": 5820,
      "ĠÐ¸ÑģÑĤÐ¾ÑĢÐ¸Ñı": 5821,
      "ĠÐ±Ð¾ÑĢÑĮ": 5822,
      "ĠÐ»ÑİÐ±ÐµÐ·Ð½ÑĭÐ¹": 5823,
      "ĠÑģÐµÐºÑĥÐ½Ð´": 5824,
      "ĠÐ¾ÑģÐ¾Ð±ÐµÐ½Ð½Ð¾ÑģÑĤÐ¸": 5825,
      "ĠÑģÐµÐ¼ÑĮ": 5826,
      "ĠÐ·Ð½Ð°ÑĩÐµÐ½Ð¸Ðµ": 5827,
      "ĠÐ´Ð¾Ð»Ð³Ð¾Ð³Ð¾": 5828,
      "ĠÑĤÐµÑĢÐ·": 5829,
      "ĠÑģÐ¼ÐµÑħÐ°": 5830,
      "ĠÐ¾Ð±ÑģÑĤÐ¾ÑıÑĤÐµÐ»ÑĮÑģÑĤÐ²Ð¾": 5831,
      "ĠÐ²Ð¾Ð»Ð½ÐµÐ½Ð¸Ðµ": 5832,
      "ĠÐ¾Ð³Ð»ÑıÐ½ÑĥÐ»ÑģÑı": 5833,
      "ĠÐ¾Ð³Ð»ÑıÐ½ÑĥÐ²ÑĪÐ¸ÑģÑĮ": 5834,
      "ĠÐ¿ÑĢÐ¾Ð¼Ð¾Ð»Ð²": 5835,
      "ĠÐ²ÑģÐ»ÐµÐ´ÑģÑĤÐ²Ð¸Ðµ": 5836,
      "ĠÐ±ÐµÑĢÐµÐ³Ñĥ": 5837,
      "ĠÐºÑĢÐµÑģÐ»Ð°": 5838,
      "ĠÐ¼Ð°Ð»ÑĮÑĩÐ¸ÑĪÐºÐ¸": 5839,
      "ĠÐ¿Ð¾Ð¶ÐµÐ»Ð°Ð»": 5840,
      "ĠÑģÐ¿ÑĥÑģÐºÐ°Ñı": 5841,
      "ĠÐ³Ð»ÑĥÑħÐ¾Ð¹": 5842,
      "ĠÐ¸Ð·ÑĥÐ¼Ð»ÐµÐ½Ð¸Ðµ": 5843,
      "ĠÐ°Ð½Ð³ÐµÐ»": 5844,
      "ĠÐ¼ÐµÑģÑıÑĨÐµÐ²": 5845,
      "ĠÐ±ÑĭÑģÑĤÑĢÐµÐµ": 5846,
      "ĠÐ²ÑģÐ¿Ð¾Ð¼Ð½Ð¸Ð»": 5847,
      "ĠÐ½ÐµÐ½Ð°Ð²Ð¸ÑģÑĤÑĮ": 5848,
      "ĠÐ²ÐµÐºÐ°": 5849,
      "ĠÐºÑĥÑģÑĤÑĭ": 5850,
      "ĠÑĪÐ¸Ð½ÐµÐ»Ð¸": 5851,
      "ĠÐ½Ð°ÑĩÐ¸Ð½Ð°Ð»": 5852,
      "ĠÐ¸ÑģÐ¿Ð¾Ð»Ð½Ð¸ÑĤÑĮ": 5853,
      "ĠÑĢÐ¾ÑģÑĤÐ°": 5854,
      "ĠÑģÑĤÐ¾ÑĢÐ¾Ð½Ð°Ð¼": 5855,
      "ĠÑģÐ»ÐµÐ´Ð¾Ð²Ð°ÑĤÐµÐ»ÑĮÐ½Ð¾": 5856,
      "ĠÐ²ÑĭÐ³Ð¾Ð´": 5857,
      "ĠÐ¿ÑĢÐ¸Ð³Ð¾ÑĤÐ¾Ð²Ð»ÐµÐ½Ð¸Ñı": 5858,
      "ĠÐ¿Ð¾Ð´Ð±Ð¾ÑĢÐ¾Ð´": 5859,
      "ĠÐ¿Ð¾ÐºÐ°Ð·ÑĭÐ²Ð°Ñı": 5860,
      "ĠÑĢÐ¾Ð¶Ð´ÐµÐ½Ð¸Ñı": 5861,
      "ĠÐ²ÑĭÑģÐºÐ¾Ñĩ": 5862,
      "ĠÑĢÐ°Ð·ÑĢÐµÑĪÐµÐ½Ð¸Ñı": 5863,
      "ĠÐ²ÑģÐºÑĢÐ¸ÑĩÐ°Ð»Ð°": 5864,
      "ĠÐ·ÑĢÐµÐ»Ð¸": 5865,
      "ĠÐ¿ÑĢÐ¸ÑĢÐ¾Ð´Ñĭ": 5866,
      "ÑĥÐ»ÑıÑĢ": 5867,
      "ĠÑĨÐµÑĢÐµÐ¼Ð¾": 5868,
      "ĠÐ¾ÑģÐºÐ¾ÑĢÐ±Ð»": 5869,
      "ĠÐ¼Ð°Ð»ÐµÐ¹ÑĪÐµÐ³Ð¾": 5870,
      "ĠÐ¼Ð³Ð½Ð¾Ð²ÐµÐ½Ð¸Ðµ": 5871,
      "ĠÐ±Ð°ÑĪÐ¼Ð°ÐºÐ¸": 5872,
      "ĠÐ½Ð°Ð´Ð»ÐµÐ¶Ð°Ñī": 5873,
      "ĠÐ½Ð°Ð¿ÑĢÑıÐ¶ÐµÐ½": 5874,
      "ĠÐ²ÐµÐ»Ð¸ÐºÐ¾Ð»ÐµÐ¿": 5875,
      "ĠÐ²Ð½ÑĥÑĤÑĢÐµÐ½": 5876,
      "ĠÐºÑĥÑģÐ¾Ðº": 5877,
      "ĠÐ³ÐµÑĢÐ¾": 5878,
      "ĠÐ¿ÑĢÐµÐ¿ÑıÑĤ": 5879,
      "ĠÑĢÐ°Ð±Ð¾Ñĩ": 5880,
      "ĠÐ½Ð°Ð·Ð²Ð°Ð½Ð¸Ðµ": 5881,
      "ĠÐ¿Ð¾Ð´ÑĤÐ²ÐµÑĢÐ´Ð¸Ð»": 5882,
      "ĠÐ¿ÑĢÐ¾ÑħÐ¾Ð¶Ð¸Ñħ": 5883,
      "ĠÐºÑĥÐ²ÑĪÐ¸Ð½": 5884,
      "ĠÐ¼ÑĭÑģÐ»ÑıÐ¼Ð¸": 5885,
      "ĠÑĤÐ°Ð±Ð°ÐºÐµÑĢ": 5886,
      "ĠÑģÐ²ÑıÑīÐµÐ½": 5887,
      "ĠÐ¿Ð¾Ð·Ð½Ð°ÐºÐ¾Ð¼Ð¸ÑĤÑĮÑģÑı": 5888,
      "ĠÐ¾Ð±ÑıÐ·Ð°Ð½Ð½Ð¾ÑģÑĤÐ¸": 5889,
      "ĠÐ±ÐµÐ·Ð·Ð°Ð±Ð¾ÑĤ": 5890,
      "ĠÐ¿Ð¾ÐºÐ°ÑĩÐ¸Ð²Ð°Ñı": 5891,
      "ĠÐ¼ÑĥÐ½Ð´Ð¸ÑĢ": 5892,
      "ĠÐ¿Ð¾ÑģÐºÐ¾ÑĢÐµÐµ": 5893,
      "ĠÑĢÐ°Ð·Ð³Ð»ÑıÐ´ÐµÑĤÑĮ": 5894,
      "ĠÑĢÐ°ÑģÑħÐ¾ÑħÐ¾ÑĤ": 5895,
      "ÐĹÐ½Ð°ÑĩÐ¸ÑĤ": 5896,
      "ĠÐĶÐ¸ÐºÐºÐµÐ½Ñģ": 5897,
      "ĠÑĪÐ¸Ð»Ð»Ð¸Ð½Ð³Ð¾Ð²": 5898,
      "ĠÑģÐ½Ð¸Ñģ": 5899,
      "ĠÐ´ÐµÐ½ÐµÐ³": 5900,
      "ĠÐ´ÑĢÑıÐ½": 5901,
      "ĠÐ¾Ð±Ð»ÐµÐ³Ñĩ": 5902,
      "ĠÐ½ÐµÐ´Ð¾Ð»Ð³": 5903,
      "ĠÐ¿ÑĢÐ¾ÑĤÐ¸Ð²Ð¾ÑĢÐµÑĩ": 5904,
      "ĠÐ¸ÑİÐ½Ñı": 5905,
      "ĠÐ»ÑĥÐ´Ð¸Ð»ÑĮ": 5906,
      "ĠÐºÐ½ÑıÐ³Ð¸Ð½Ð¸": 5907,
      "Ġ*": 5908,
      "Ð¾ÑĪÐ¸": 5909,
      "Ð¸ÑĦ": 5910,
      "ÑģÐ¸Ð½": 5911,
      "Ð»Ð°Ð½": 5912,
      "Ð»ÑĭÑĪ": 5913,
      "Ð»Ð°Ð³Ð¾": 5914,
      "Ð»ÐµÐ½Ð¸Ñİ": 5915,
      "Ð½Ð°Ð´": 5916,
      "ÑĢÐµÐ½Ð½Ð¾": 5917,
      "ÑĥÐ·": 5918,
      "ÑĥÐµÑĤÑģÑı": 5919,
      "ÑıÐ´Ð°": 5920,
      "ÑıÑīÐ¸Ð¹": 5921,
      "ÑĮÐµÑĤÑģÑı": 5922,
      "ÑĭÐ¶": 5923,
      "ÑĭÑĩÐ°": 5924,
      "ĠÑģÐ°Ðº": 5925,
      "ĠÑģÐµÐ»Ð°": 5926,
      "ĠÑģÐ¸ÑģÑĤ": 5927,
      "ĠÑģÑĥÑī": 5928,
      "ĠÑģÑĭÐ½": 5929,
      "ĠÑģÐ´ÐµÑĢÐ¶": 5930,
      "ĠÐ¿Ð»Ð¸": 5931,
      "ĠÐ¿ÐµÑĪ": 5932,
      "ĠÐ¿Ð°ÑĢÑĥ": 5933,
      "ĠÐ½ÐµÑĢÐ²": 5934,
      "ĠÐ²Ðº": 5935,
      "ĠÐ²Ð¾ÑģÑĤ": 5936,
      "ĠÐ²Ð¸Ð·": 5937,
      "ĠÐ²Ð¾Ð¹ÑĤÐ¸": 5938,
      "ĠÐ²Ð¾ÑĪÐ»Ð°": 5939,
      "ĠÐ²ÑĢÐ¾Ð´Ðµ": 5940,
      "ÑĩÐµÐ½": 5941,
      "ÑĩÑĥÑĤÑĮ": 5942,
      "Ð²ÐµÐ¹": 5943,
      "Ð²ÑĪÐ¸ÑģÑĮ": 5944,
      "ĠÐ¾ÑĪÐµÐ»Ð¾Ð¼": 5945,
      "ÑĤÐ¾ÑĢÑĥ": 5946,
      "ĠÐ¸Ð´Ðµ": 5947,
      "ĠÐºÐ»Ñİ": 5948,
      "ĠÐºÐ¸Ð¿": 5949,
      "ĠÐ¼Ð¾Ð½": 5950,
      "ĠÐ¼Ð¾ÑĪ": 5951,
      "ĠÐ¼Ð°Ñħ": 5952,
      "ĠÐ¼ÐµÑħ": 5953,
      "ÑĪÐºÑĥ": 5954,
      "ĠÐ´Ð°ÐµÑĤ": 5955,
      "ĠÐ´ÑĢÐµÐ¼": 5956,
      "ĠÐ´ÑĮÑıÐ²": 5957,
      "ĠÐ±ÑĢÐ¾Ð²": 5958,
      "Ð¾Ð²ÐºÐ¸Ð¹": 5959,
      "Ð»Ð¸Ð½": 5960,
      "Ð»Ð¸Ð¿": 5961,
      "Ð»Ð¸Ð±Ð¾": 5962,
      "Ð¾Ð¼Ð½Ð¸ÑĤÐµ": 5963,
      "ĠÐ¿ÑĢÑıÑĤ": 5964,
      "ĠÑĤÐ°ÑĤ": 5965,
      "ĠÑĤÐ²Ð°ÑĢ": 5966,
      "ĠÑĤÐ²Ð¾Ð¹": 5967,
      "ÐµÐ»ÑıÐ¼": 5968,
      "ĠÑĥÑĪ": 5969,
      "ĠÑĥÐ½Ð¸": 5970,
      "ĠÑĥÑģÑĤÑĢÐ¾": 5971,
      "Ð¸Ð»ÑĥÑĩ": 5972,
      "Ð¿Ð¾ÐºÐ¾Ð¹": 5973,
      "Ð¿ÐµÑĢÐ²": 5974,
      "Ð¾Ð¹Ð´Ñĥ": 5975,
      "Ð¾Ð´ÑıÑĤ": 5976,
      "ĠÐ½ÐµÑģÐ¿": 5977,
      "Ð½Ð¸ÑģÑĤ": 5978,
      "Ð½Ð¸Ð»Ð¸ÑģÑĮ": 5979,
      "ĠÑĢÐ²": 5980,
      "ĠÑĢÐµÑģÑĤÐ¾": 5981,
      "ĠÑĢÑİÐ¼": 5982,
      "ĠÐ½Ð°ÑĢÐ¾Ñĩ": 5983,
      "ĠÐ½Ð°Ð¸Ð»ÑĥÑĩ": 5984,
      "ĠÐ¿Ð¾Ð½Ñı": 5985,
      "ĠÐ¿Ð¾ÑĢÑĭÐ²": 5986,
      "Ð°Ð²Ð¸ÑĤÑĮ": 5987,
      "Ð³ÑĢÐ°": 5988,
      "ĠÐ»Ð±Ñĥ": 5989,
      "ĠÐ»Ð°Ð¼Ð¿": 5990,
      "ĠÐ»Ð¾Ð½Ð´Ð¾Ð½": 5991,
      "ÑīÐ¸Ðµ": 5992,
      "Ð¾ÑĢÐ¾Ð³": 5993,
      "ĠÐ¾ÑĤÐ¼": 5994,
      "Ð¾Ð±ÑīÐµ": 5995,
      "ĠÑįÐºÐ¾": 5996,
      "Ð¾ÑĤÐ¾Ð²": 5997,
      "Ð¾ÑĤÐ¾Ð¼Ñĥ": 5998,
      "Ð´Ð°Ñİ": 5999,
      "Ð¸Ð²ÑĭÐµ": 6000,
      "Ð¸Ð½Ð°Ð»": 6001,
      "Ð¸Ð½Ð°Ð¼": 6002,
      "ĠÑģÐºÐ°ÑĤ": 6003,
      "ĠÐ²ÑĭÐ½ÑĥÐ»": 6004,
      "ĠÐ²ÑĭÐ¸Ð³": 6005,
      "ĠÐ²ÑĭÑĤÐµÑĢ": 6006,
      "ĠÐ²ÑĭÑĪÐ»Ð°": 6007,
      "Ð°ÑĢÐ´": 6008,
      "ÑĤÐ¾ÑĢÐ¾Ð¿": 6009,
      "ĠÐŀÑģ": 6010,
      "ĠÐŀÐ¿": 6011,
      "ĠÐŀÐ´Ð½Ð¾": 6012,
      "ĠÑģÐ»Ð¾Ð¼": 6013,
      "Ð°ÑĤÐµ": 6014,
      "ĠÐ¾Ð±Ð»": 6015,
      "ÐµÐ²Ð¸Ñĩ": 6016,
      "ÐµÐ²ÑĪÐµÐ³Ð¾": 6017,
      "Ð°Ð½ÑĨ": 6018,
      "Ð°Ð½Ð½Ð¾Ð³Ð¾": 6019,
      "ĠÐĿÐµÐ¼": 6020,
      "ĠÐĿÐµÑģ": 6021,
      "ĠÐĿÐµÐ»ÑĮÐ·Ñı": 6022,
      "ĠÐĿÐµÑĩÐµÐ³Ð¾": 6023,
      "ĠÑħÐ°": 6024,
      "ĠÑħÑĢÐ¸ÑģÑĤÐ¸": 6025,
      "ĠÑĤÐ°ÐºÐ¾Ð¼Ñĥ": 6026,
      "ÐµÐ±Ðµ": 6027,
      "ĠÐ¿Ð¾Ð´Ñĩ": 6028,
      "ĠÐ¿Ð¾Ð´Ð¾ÑĪ": 6029,
      "ĠÐ¿Ð¾Ð´Ð¾Ð±Ð½Ð¾": 6030,
      "ĠÐ¿Ð¾Ð´ÑĢÐ¾Ð±": 6031,
      "ĠÐ¿Ð¾Ð´Ð¾ÑĪÐ»Ð°": 6032,
      "ĠÐĳÑĭÐ»": 6033,
      "ĠÐ½Ð¸ÑĩÑĤÐ¾": 6034,
      "ĠÐ¡Ð¼Ð¾ÑĤÑĢÐ¸ÑĤÐµ": 6035,
      "ĠÐ·Ð°ÑħÐ¾ÑĤ": 6036,
      "ĠÐ¸Ð·Ð¾": 6037,
      "ĠÐĴÐµÑĢÑĭ": 6038,
      "ĠÐĴÑģÐºÐ¾ÑĢÐµ": 6039,
      "Ð°Ð¶ÐµÐ½": 6040,
      "Ð½ÑıÐ»Ð¸ÑģÑĮ": 6041,
      "ĠÑĢÐ°Ð·Ð¾ÑĢ": 6042,
      "ÐµÐ¿ÑĥÑĤ": 6043,
      "Ð¾ÑĩÐµÑĤ": 6044,
      "Ð¾ÑĩÐµÐº": 6045,
      "Ð¾ÑĩÐ½Ð¾Ð¹": 6046,
      "Ð¾ÑĩÐ¸ÑģÑĤ": 6047,
      "ĠÐľÐ½Ð¾Ð³Ð¾": 6048,
      "ÐµÐ¶ÑĥÑĤ": 6049,
      "ÐµÐ½ÑĮÑİ": 6050,
      "ĠÑĪÐµÐ´": 6051,
      "ĠÑĪÐ°ÑĤ": 6052,
      "ĠÑĪÐºÐ°ÑĤ": 6053,
      "ĠÑģÐ¿Ð¸Ð½Ðµ": 6054,
      "ĠÑģÐ¿Ð°ÑģÑĤÐ¸": 6055,
      "ÐµÑģÑĤÐ¸ÑĤÑĮ": 6056,
      "ÑĢÐ¸Ð»Ð¸": 6057,
      "ÑĥÐ¼Ð½Ð¾": 6058,
      "Ð¾Ð½Ð·": 6059,
      "ĠÐŀÐ»Ð¸Ð²ÐµÑĢÐµ": 6060,
      "ĠÐ¾Ð´ÐµÑĤ": 6061,
      "ĠÐ¾Ð´Ð¸Ð½Ð¾": 6062,
      "ÑĩÐ¸ÐºÐ¾Ð²": 6063,
      "ÑĢÑĭÐ¼": 6064,
      "ĠÐ¿ÐµÑĢÑĩÐ°ÑĤ": 6065,
      "ĠÐĶÐ¾": 6066,
      "ĠÐĶÑĥÐ¼": 6067,
      "ÑĥÐ¶Ð´Ð°ÑĤÑĮ": 6068,
      "Ð°ÑİÑīÐµÐµ": 6069,
      "ĠÐ²Ð·Ð°": 6070,
      "ĠÐ²Ð·ÑıÐ»Ð°": 6071,
      "ĠÐ¿Ð¾Ð»ÐµÑĤ": 6072,
      "ĠÐ¿Ð¾Ð»ÑĩÐ°Ñģ": 6073,
      "ĠÐ¿Ð¾Ð»ÑİÐ±": 6074,
      "ĠÐ¢ÐµÐ¼": 6075,
      "ÑĭÐ²Ð°Ð»Ð¸ÑģÑĮ": 6076,
      "ĠÐ±ÑĥÐ´ÑĥÑī": 6077,
      "ĠÑģÐ°Ð¼Ð¾": 6078,
      "ĠÑģÐ°Ð¼Ð¾Ð´": 6079,
      "ĠÐĲÐ½": 6080,
      "Ð¸ÑĤÐµÐ»ÑĮÐ½ÑĥÑİ": 6081,
      "ÐĴÐ°Ð¼": 6082,
      "ÑģÑĤÐ°Ð²Ð°Ð¹": 6083,
      "ĠÐ¿ÑĢÐµÐ´Ð¿Ð¾Ð»Ð°Ð³": 6084,
      "ĠÐ´ÐµÐ»Ð°ÐµÑĤ": 6085,
      "ĠÐ±Ð¾Ð»ÑĮÐ½Ð¾": 6086,
      "ĠÐ¾ÑģÐ¼Ð°ÑĤÑĢÐ¸Ð²": 6087,
      "ĠÐ¾ÑģÑĭÐ¿": 6088,
      "ĠÐ¿Ð¾Ð²Ð¾Ð´": 6089,
      "ĠÐ¾Ð¿ÑĭÑĤ": 6090,
      "ĠÐ¾Ð¿ÑĢÐ¾Ðº": 6091,
      "ĠÐ¸Ð¼ÐµÑı": 6092,
      "ĠÐ²ÐµÑĢÐ½ÑĥÐ»Ð°ÑģÑĮ": 6093,
      "ÐŀÑĩÐµÐ½ÑĮ": 6094,
      "ĠÑģÐ¾Ð±Ð¸ÑĢÐ°": 6095,
      "ĠÑģÑĤÐ°ÑĢÑĭÐ¼": 6096,
      "ĠÐ¼Ð°Ð»ÑĮÑĩÐ¸ÐºÐ¾Ð¼": 6097,
      "ĠÑĦÑĥÑĢ": 6098,
      "ÐŁÐ¾Ð¼": 6099,
      "ÐŁÐ¾ÐºÐ°": 6100,
      "ÐŁÐ¾ÑĩÐµÐ¼Ñĥ": 6101,
      "ÐŁÑĢÐ¾Ð¸Ð·": 6102,
      "ĠÐ´Ð¾Ð¼Ð°ÑĪ": 6103,
      "ĠÑħÐ¾ÑĤÑıÑĤ": 6104,
      "ĠÐ¡Ð°Ð¹ÐºÑģÑĥ": 6105,
      "ĠÐ³Ð»Ð°Ð·Ð°Ð¼": 6106,
      "ĠÐ±Ð»ÐµÑģÐº": 6107,
      "ĠÐ¾ÐºÐ½Ð¾Ð¼": 6108,
      "ÐľÐ¾Ð½ÐºÑģ": 6109,
      "ÐľÐ¾Ð¶ÐµÑĤ": 6110,
      "ĠÑĤÑĢÐ¸Ð´": 6111,
      "ĠÑĨÐµÐ½": 6112,
      "ĠÑĨÐ²ÐµÑĤÐ°": 6113,
      "ĠÐ»ÑİÐ±Ð¸ÑĪÑĮ": 6114,
      "ĠÑĩÐµÐ¼Ð¾Ð´": 6115,
      "ĠÐ±ÐµÐ·Ð´": 6116,
      "ĠÐ·Ð°ÐºÐ¾Ð½Ð°": 6117,
      "ĠÐ·Ð°ÐºÐ¾Ð½Ñĩ": 6118,
      "ĠÐ¿Ð¾ÑģÐ¼Ð°ÑĤÑĢÐ¸Ð²Ð°Ð»": 6119,
      "ÐµÑĢÑĮÑİ": 6120,
      "Ð§ÐµÑĢÑĤ": 6121,
      "ĠÑĤÐµÐ¼Ð½Ð¾Ð¹": 6122,
      "ĠÐ½Ð°ÑģÑĤÐ¾Ñı": 6123,
      "ĠÐ´Ð¾Ð±ÑĢÐ°Ñı": 6124,
      "ĠÐ´ÐµÐ²ÑıÑĤÑĮ": 6125,
      "ĠÐ¶ÐµÐ½Ñĭ": 6126,
      "ĠÐ¾ÑģÑĤÐ°Ð½": 6127,
      "ĠÐ¾ÑģÑĤÐ°ÐµÑĤÑģÑı": 6128,
      "Ð¾Ð½ÐµÑĩ": 6129,
      "ĠÐºÐ°ÑĢÑĤÐ¾Ñĩ": 6130,
      "ĠÑĥÑĤÐ¾Ð¼": 6131,
      "ĠÑĥÑĤÑĢÐ°ÑĤ": 6132,
      "ĠÐ¿Ð¾Ð·Ñĥ": 6133,
      "Ð°ÑĤÐµÐ»ÑĮÐ½ÑĭÐ¼": 6134,
      "ĠÐ·Ð°Ð²ÐµÐ´": 6135,
      "Ð»ÐµÐ½Ð°": 6136,
      "ĠÑĥÐ¿Ð¾ÑĢ": 6137,
      "ĠÐ½Ð°ÐºÐ»Ð¾Ð½Ñı": 6138,
      "ĠÐ½Ð°ÐºÐ°Ð½Ñĥ": 6139,
      "ĠÐ¿ÐµÑĢÐµÐ´Ð°ÑĤÑĮ": 6140,
      "ĠÐ¿Ð¾Ð¿ÑĢÐ°Ð²": 6141,
      "ĠÐ¿Ð¾ÐºÐ°ÑĩÐ°Ð»Ð°": 6142,
      "ĠÐ½ÐµÐ´ÐµÐ»ÑĮ": 6143,
      "ĠÐ½ÐµÐ´Ð¾ÑģÑĤ": 6144,
      "ĠÐ½ÐµÐ´Ð¾Ð²ÐµÑĢ": 6145,
      "ĠÐ¿ÑĢÐ¾ÑĤÑıÐ½ÑĥÐ»": 6146,
      "ĠÐ¿ÑĢÐ¾Ð´Ð¾Ð»Ð¶ÐµÐ½Ð¸Ðµ": 6147,
      "ĠÑĤÐ¾Ð»Ðº": 6148,
      "ĠÐ¾ÑĤÐºÐ°Ð·Ð°Ð»": 6149,
      "Ð°Ð³Ð¾ÑĨ": 6150,
      "ĠÐ½Ð¾Ð³Ð°Ð¼": 6151,
      "Ð¿Ð¾Ð»ÐµÐ·": 6152,
      "ĠÐ¾ÑĤÐ²ÐµÑĩÐ°ÑĤÑĮ": 6153,
      "ĠÐºÑĢÐ¸ÐºÐ¾Ð¼": 6154,
      "ĠÐ·Ð°ÑĤÑĭÐ»": 6155,
      "ĠÐ¿ÐµÑĢÐ²ÑĥÑİ": 6156,
      "ĠÐ¿ÑĢÐ¾ÑĪÐ»Ð¸": 6157,
      "ĠÑĥÑģÐµÑĢÐ´": 6158,
      "ĠÑĥÑģÐµÐ»ÑģÑı": 6159,
      "ĠÐ¾ÑģÑĤÐ°Ð²Ð¸Ð»Ð¸": 6160,
      "ĠÑģÐ»ÑĭÑĪÐ¸ÑĤ": 6161,
      "ĠÐ¿Ð¾Ð³ÑĢÑĥÐ¶ÐµÐ½": 6162,
      "ĠÐ¿Ð¾Ð³Ð¾Ð´Ð°": 6163,
      "ĠÐ½Ð°Ð²ÐµÐºÐ¸": 6164,
      "ĠÐ½Ð°Ð²ÑģÐµÐ³Ð´Ð°": 6165,
      "ĠÐ±Ð»Ð°Ð³Ð¾Ð¿Ð¾Ð»ÑĥÑĩ": 6166,
      "ĠÐ·Ð°Ð³Ð°Ð´": 6167,
      "ĠÐ·Ð°Ð³Ð»ÑĥÑĪ": 6168,
      "ĠÑħÐ¾Ð»Ð¾ÑģÑĤ": 6169,
      "ĠÐ½ÑĥÐ¶Ð½ÑĭÐ¼": 6170,
      "ĠÐĵÑĢÑĥÑĪÐ½Ð¸ÑĨÐºÐ¾Ð¼Ñĥ": 6171,
      "ĠÑħÐ¾ÑĢÐ¾ÑĪÐµÐ½ÑĮ": 6172,
      "ĠÐ½Ð¾Ð²ÑĭÐµ": 6173,
      "ĠÑĢÐ¾Ð´Ð¸Ð»ÑģÑı": 6174,
      "ÑıÑīÐ¸Ð¼": 6175,
      "ĠÑĥÐ´Ð°ÑĢÐ¸Ð²": 6176,
      "ĠÐ¿Ð¾Ð»Ð¾Ð¶Ð¸ÑĤÑĮ": 6177,
      "ĠÐ¿ÑĢÐµÐ¶Ð½ÑİÑİ": 6178,
      "ĠÐ¶Ð¸Ð²Ð¾ÑĤ": 6179,
      "ĠÐ¸ÑģÐºÐ°ÑĤÑĮ": 6180,
      "ĠÐ¸ÑģÐºÑĢÐµÐ½": 6181,
      "ĠÐ²ÑģÑıÐºÐ¾Ð³Ð¾": 6182,
      "ĠÐ²ÑĭÐ¿ÑĢÑıÐ¼": 6183,
      "ĠÐºÑĢÐµÐ¿ÐºÐ¾Ð³Ð¾": 6184,
      "ĠÐ´ÑĢÐ°Ð³Ð¾ÑĨ": 6185,
      "ĠÐ²Ð¾Ð¿Ð»Ð¸": 6186,
      "ĠÑģÐ»ÑĥÐ¶Ð¸ÑĤ": 6187,
      "ĠÑģÐ»ÑĥÐ¶Ð°Ð½ÐºÐ°": 6188,
      "ĠÐ¿Ð°ÑĢÐ½Ð¸": 6189,
      "ĠÑħÐ¾Ð»Ð¾Ð´Ð½ÑĭÐ¹": 6190,
      "ĠÑĥÐ¶Ð°ÑģÐ¾Ð¼": 6191,
      "ĠÐºÐ½ÑıÐ¶Ð½Ñĭ": 6192,
      "ĠÐºÐ½ÑıÐ¶Ð½Ñĥ": 6193,
      "ĠÐ¿Ð¾ÑħÐ¾ÑĢ": 6194,
      "ĠÑģÑĥÐ´ÑĮÐµ": 6195,
      "Ð¥Ð°": 6196,
      "Ð¥Ð¾ÑĢÐ¾ÑĪÐ¾": 6197,
      "Ð¥Ð¾ÑĤÑı": 6198,
      "ĠÐ¿Ð¾Ð´ÑĥÐ¼Ð°Ð¹ÑĤÐµ": 6199,
      "ĠÐ¿ÑĥÑģÑĤÐ¸Ð»Ð¸ÑģÑĮ": 6200,
      "ĠÑĥÑģÑĤÐ°Ð½Ð¾Ð²": 6201,
      "ĠÐ¾Ð¿Ð°ÑģÐ°ÑıÑģÑĮ": 6202,
      "ĠÐ¾Ð¿Ð°ÑģÐ½Ð¾ÑģÑĤÑĮ": 6203,
      "ĠÑīÐµÐºÐ¸": 6204,
      "ĠÐ¿ÑĢÐ¸Ð±Ð»Ð¸Ð·": 6205,
      "ĠÑģÐ¾Ð±Ð°ÐºÐ¾Ð¹": 6206,
      "ÑĢÐ°ÑĤÐµÐ»ÑĮÐ½Ð¾": 6207,
      "Ð³Ð¾Ð»Ð¾ÑģÐ°": 6208,
      "ĠÐ¿ÑĢÐ¾Ð²Ð¸Ð½": 6209,
      "ĠÐ¿ÑıÑĤÐ°Ð¼": 6210,
      "ĠÐ¶Ð°Ð»Ð¾Ð±": 6211,
      "ÑĥÑīÐµÑģÑĤÐ²": 6212,
      "ĠÐ·Ð°ÑģÑĤÐ°Ð²Ð¸ÑĤÑĮ": 6213,
      "ĠÑĪÐ»ÑıÐ¿Ðµ": 6214,
      "ĠÑĩÐ°ÑīÐµ": 6215,
      "ĠÐ·Ð½Ð°ÐºÐ¾Ð¼ÑĭÑħ": 6216,
      "ĠÐ³Ð¾ÑĢÐ¾Ð´Ðµ": 6217,
      "ĠÐ¸Ð³ÑĢÑĥ": 6218,
      "ĠÑĢÐ°Ð·Ð³Ð¾Ð²Ð¾ÑĢÐ°": 6219,
      "Ð°Ð²ÑĪÐ¸Ð¹ÑģÑı": 6220,
      "ĠÐ¿Ð»ÐµÑĩÑĥ": 6221,
      "ĠÐ´ÐµÑģÑıÑĤÐ¸": 6222,
      "ĠÑĩÐ¸ÑĤÐ°ÑĤÑĮ": 6223,
      "ĠÐ±Ð»Ð°Ð³Ð¾Ð´Ð°ÑĢÐ½Ð¾ÑģÑĤÑĮ": 6224,
      "ĠÐ¿Ð¾ÑıÐ²Ð¸Ð»Ð¸ÑģÑĮ": 6225,
      "ĠÐ¼Ð½Ð¾Ð³Ð¾Ð·Ð½Ð°Ñĩ": 6226,
      "ĠÐ¼Ð°ÑĤÐµÑĢ": 6227,
      "ĠÐ¿Ð¾Ð´Ð½ÑıÐ»Ð°": 6228,
      "ĠÐ·Ð°Ð¼ÐµÑĤÐ½Ð¾": 6229,
      "ĠÐ½Ð°Ð´ÐµÐ¶Ð´": 6230,
      "ĠÐ½ÐµÐºÐ¾ÑĤÐ¾ÑĢÑĭÐ¼": 6231,
      "ĠÐ½ÐµÐºÐ¾ÑĤÐ¾ÑĢÑĭÑħ": 6232,
      "ĠÐ¸Ð·Ð±ÐµÐ³": 6233,
      "ĠÑģÑĭÐ½Ð°": 6234,
      "ĠÑģÐ²ÐµÑĢÐ½ÑĥÐ»": 6235,
      "ĠÑģÐ¿Ð¾ÐºÐ¾Ð¹Ð½Ð¾Ð¹": 6236,
      "ĠÑģÐ¾Ð±ÑģÑĤÐ²ÐµÐ½Ð½Ð¾Ð³Ð¾": 6237,
      "ĠÑģÐ¾Ð¾Ð±ÑīÐµÐ½Ð¸Ðµ": 6238,
      "ĠÐºÐ¾ÑĢÐ¾ÑĤÐºÐ¾Ðµ": 6239,
      "ĠÐ´ÑĢÐ¾Ð¶Ð°": 6240,
      "ĠÐ´Ð°Ð²Ð°ÑĤÑĮ": 6241,
      "ĠÐ³ÑĥÐ±Ð°Ð¼": 6242,
      "ĠÐ¿ÑĢÐµÑģÑĤÑĥÐ¿Ð»ÐµÐ½Ð¸Ñı": 6243,
      "ĠÑģÑĩÐ°ÑģÑĤÑĮÑİ": 6244,
      "ĠÐ¿ÑĢÐµÐ´ÑģÑĤÐ°Ð²Ð»ÐµÐ½Ð¸Ðµ": 6245,
      "ĠÐ¿ÑĢÐµÐ´Ð»Ð¾Ð¶ÐµÐ½Ð¸Ðµ": 6246,
      "ĠÐºÐ½Ð¸Ð³Ñĥ": 6247,
      "ĠÐ·Ð°Ð³Ð¾Ð²Ð¾ÑĢÐ¸ÑĤÑĮ": 6248,
      "ĠÑĥÑħÐ¾": 6249,
      "ĠÐ»Ð°Ð²ÐºÑĥ": 6250,
      "ĠÑĢÐ°ÑģÐ¿Ð¾Ð»Ð¾Ð¶ÐµÐ½": 6251,
      "ĠÐĸÐ¸Ð²": 6252,
      "ĠÐ²Ð¾Ð·Ð²ÑĢÐ°ÑīÐ°Ð»ÑģÑı": 6253,
      "ĠXL": 6254,
      "ĠÑĤÑıÐ¶ÐµÐ»ÑĥÑİ": 6255,
      "ĠÐ»ÑİÐ±Ð¾Ð¿ÑĭÑĤÑģÑĤÐ²Ð¾": 6256,
      "ĠÐ´Ð¾Ð³Ð¾Ð²Ð¾ÑĢ": 6257,
      "ĠÐ¡Ð¿ÑĥÑģÑĤ": 6258,
      "ĠÐ¿ÑĢÐ¸Ð½ÐµÑģÐ»Ð¸": 6259,
      "ĠÐ½Ð°Ð¼ÐµÑĢÐµÐ½": 6260,
      "ĠÑģÑĤÐ°Ð²Ð½Ñı": 6261,
      "ĠÐ¾Ð³Ð»ÑıÐ´": 6262,
      "ĠÐ·ÑĥÐ±Ð°Ð¼Ð¸": 6263,
      "ĠÐ¿ÑĢÐ¸ÑĩÐ¸Ð½Ðµ": 6264,
      "ĠÑĢÐ°Ð·Ð¼ÑĭÑĪÐ»ÐµÐ½Ð¸Ñı": 6265,
      "ĠÐºÑĢÐµÑģÐ»Ð¾": 6266,
      "ĠÐ¼Ð°Ð»ÑĮÑĩÐ¸ÑĪÐµÐº": 6267,
      "ĠÐ²ÑģÑĤÑĢÐµÑĤÐ¸Ð»Ð¸ÑģÑĮ": 6268,
      "ĠÐ²ÐµÐ´ÑĥÑī": 6269,
      "ĠÐ¿ÑĢÐ¸Ð³Ð»Ð°ÑĪ": 6270,
      "ĠÐ¿Ð¾Ð»Ð¾Ð²Ð¸Ð½Ð¾Ð¹": 6271,
      "ĠÑģÑĤÑĥÐ¿ÐµÐ½ÑĮ": 6272,
      "ĠÑħÐ²Ð°ÑĤÐ¸ÑĤ": 6273,
      "ĠÑħÐ²Ð°ÑĤÐ¸Ð»Ð¾": 6274,
      "ĠÐ¸Ð·ÑĥÐ¼Ð»ÐµÐ½Ð¸ÐµÐ¼": 6275,
      "ĠÐ¾ÑģÐ¼Ð¾ÑĤÑĢÐµÐ»ÑģÑı": 6276,
      "ĠÐ²ÐµÑĢÑħÐ¾Ð¼": 6277,
      "ĠÑĤÑĢÐ°ÐºÑĤÐ¸ÑĢÐ°": 6278,
      "ĠÐ´Ð¾ÑģÑĤÐ¾Ð¹Ð½ÑĭÐ¹": 6279,
      "ĠÐ»Ð¾Ð²ÐºÐ¾": 6280,
      "ĠÐ²Ð¿Ð¾Ð»Ð³Ð¾Ð»Ð¾ÑģÐ°": 6281,
      "ĠÐ¿ÑĢÐ¸Ð´Ð²Ð¸Ð½ÑĥÐ»": 6282,
      "ĠÑģÑĬÐµÐ¶": 6283,
      "ĠÑģÑĬÐµÑģÑĤÑĮ": 6284,
      "ĠÐ¾Ð·Ð°ÑĢ": 6285,
      "ĠÐ¿ÑĢÐ¸Ð¿Ð°Ð´": 6286,
      "ĠÐ´Ð¾Ð±ÑĢÑĭÐµ": 6287,
      "ĠÐ¼Ð¾ÑģÑĤÐ°": 6288,
      "ĠÑģÐ¼ÐµÑĢÑĤÑĮÑİ": 6289,
      "ĠÑģÐ¾ÑħÑĢÐ°Ð½": 6290,
      "ĠÑģÐ¾Ð»Ð½ÑĨÐ°": 6291,
      "ÑģÑĤÐ²ÑĥÑİÑīÐ¸Ñħ": 6292,
      "ĠÐ±ÐµÑĪÐµÐ½ÑģÑĤÐ²Ð¾": 6293,
      "ĠÐ¿ÑĢÐ¸ÑģÐ»ÑĥÑĪÐ¸Ð²Ð°ÑıÑģÑĮ": 6294,
      "ĠÑħÐ¸ÑĤÑĢÐ¾": 6295,
      "ĠÐ½ÐµÐ¿Ð¾Ð´Ð°Ð»ÐµÐºÑĥ": 6296,
      "ĠÐ¿Ð¾Ð¿ÑĭÑĤÐ°Ð»ÑģÑı": 6297,
      "ĠÐŁÐ¾ÑģÐ»ÑĥÑĪÐ°Ð¹ÑĤÐµ": 6298,
      "ĠÐ´Ð¾Ð³Ð°Ð´ÑĭÐ²": 6299,
      "ĠÐ¿Ð¾Ð¹Ð´Ñĥ": 6300,
      "ĠÐĿÐ°Ð´ÐµÑİÑģÑĮ": 6301,
      "ĠÑĪÐ°Ð¿ÐºÑĥ": 6302,
      "ĠÐ±Ð»Ð¸Ð·ÐºÐ¾": 6303,
      "ĠÐ´Ð°Ð¼Ñĭ": 6304,
      "ĠÐ´Ð¾ÑģÑĤÐ¸Ð³Ð½ÑĥÑĤÑĮ": 6305,
      "ĠÑĤÐµÑĤÑı": 6306,
      "ĠÐ·Ð°ÑĪÐ°Ð³": 6307,
      "ĠÐ¿Ð¾ÐºÑĢÐ°ÑģÐ½ÐµÐ»": 6308,
      "ĠÑģÐ¾Ð±ÐµÑģÐµÐ´Ð½Ð¸ÐºÐ°": 6309,
      "ĠÐ¾ÑĤÑĭÑģÐºÐ°ÑĤÑĮ": 6310,
      "ĠÐ¼Ð¾Ð³Ð¸Ð»Ñĭ": 6311,
      "ĠÐ½Ð°Ð¿Ð¾Ð¼Ð¸Ð½Ð°": 6312,
      "ĠÐ²Ð¾ÑģÐ¿Ð¾Ð¼Ð¸Ð½Ð°Ð½Ð¸Ñı": 6313,
      "ĠÐ¿Ð¸ÑĤÐ¾Ð¼": 6314,
      "ĠÑģÑĤÐ°Ð½Ð¾Ð²Ð¸ÑĤÑģÑı": 6315,
      "ĠÐ¿ÑĢÐ¸Ð·Ð½Ð°ÐºÐ¸": 6316,
      "ĠÐ±ÑĥÑĤÑĭÐ»ÐºÑĥ": 6317,
      "ĠÐºÐ°ÑĪÐ»Ñı": 6318,
      "ĠÐ²Ð¸ÑģÐµÐ»Ð¸ÑĨÐµ": 6319,
      "ĠÐ°Ð´ÑĢÐµÑģ": 6320,
      "ĠÐ¿Ð¸ÑģÑĮÐ¼Ð¾": 6321,
      "ĠÐ½ÐµÐ¾Ð¶Ð¸Ð´Ð°Ð½Ð½Ð¾": 6322,
      "ĠXXX": 6323,
      "ĠÑĢÐ°ÑģÑģÐµÑıÐ½Ð½Ð¾": 6324,
      "ĠÐºÑĢÐ°Ñİ": 6325,
      "ĠÐ½Ð°ÑģÐ»Ð°Ð¶Ð´": 6326,
      "ÑĢÑĭÐ³Ð½ÑĥÐ»": 6327,
      "ĠÑĢÑĥÐ¶ÑĮÐµ": 6328,
      "ĠÐ¿ÑĢÐµÐ´Ð²Ð°ÑĢÐ¸ÑĤÐµÐ»ÑĮÐ½Ð¾": 6329,
      "ĠÐŁÐ¾Ð´ÑĥÐ¼Ð°Ð¹ÑĤÐµ": 6330,
      "ĠÐ¿Ð¾Ð´ÑĤÐ²ÐµÑĢÐ¶Ð´": 6331,
      "ĠÑģÐ¾Ð¿ÑĢÐ¾Ð²Ð¾Ð¶Ð´ÐµÐ½Ð¸Ð¸": 6332,
      "ĠÑĥÑīÐµÐ»ÑĮÐµ": 6333,
      "ĠÐ²ÑĤÐ¾ÑĢÐ°Ñı": 6334,
      "ĠÐ¿Ð¾ÑĤÐ¸ÑĢÐ°Ñı": 6335,
      "ĠÐ»ÐµÐºÐ°ÑĢ": 6336,
      "ĠÐ²ÑĭÐ¹Ð´ÐµÑĤ": 6337,
      "ĠÐ²ÑĭÑģÐ»ÐµÐ¶": 6338,
      "ĠÑĥÐºÑĢÐ°Ð´ÐºÐ¾Ð¹": 6339,
      "ĠÐ¾Ð±Ð¼Ð¾ÑĢÐ¾Ðº": 6340,
      "ĠÐµÐ·Ð´": 6341,
      "ĠÑĢÐ°Ð·Ð¾ÑĩÐ°ÑĢ": 6342,
      "ĠÐ¾Ð·Ð¸ÑĢÐ°ÑıÑģÑĮ": 6343,
      "ĠÐĽÐ¸Ð¼ÐºÐ¸Ð½Ñģ": 6344,
      "ĠÐ·Ð°Ð½Ð°Ð²ÐµÑģÐº": 6345,
      "ĠÐ·Ð°ÑħÐ¾ÑħÐ¾ÑĤÐ°Ð»": 6346,
      "ĠÐ±ÑĥÑĦÐµÑĤ": 6347,
      "ĠÐºÐ¸ÑĢÐ¿": 6348,
      "ĠÐ·Ð°ÑĢÐ°Ð½ÐµÐµ": 6349,
      "Ð¡ÑĤÐ°ÑĢÐ°Ñı": 6350,
      "ĠÐ·Ð°Ð±Ð»ÑĥÐ¶Ð´": 6351,
      "ĠÐºÐ½ÑıÐ³Ð¸Ð½Ðµ": 6352,
      "ĠÐŁÑĢÐ¾ÑĪÑĥ": 6353,
      "ĠÑĤÐ°ÑĤÐ°ÑĢ": 6354,
      "ĠÑĢÐµÑģÑĤÐ¾ÑĢÐ°": 6355,
      "ĠÑįÐºÐ¾Ð½Ð¾Ð¼": 6356,
      "ĠÑĪÐºÐ°ÑĤÑĥÐ»": 6357,
      "ĠÐ¿Ð¾Ð»ÑĩÐ°ÑģÐ°": 6358,
      "ĠÐ½Ð°ÐºÐ°Ð½ÑĥÐ½Ðµ": 6359,
      "es": 6360,
      "ie": 6361,
      "Ð®": 6362,
      "Ġd": 6363,
      "ÐµÐµÐ¼": 6364,
      "Ð°ÑģÑĤÐµÑĢ": 6365,
      "ÑĤÐµÐ¼": 6366,
      "ÑĤÐ°Ñı": 6367,
      "ÑĤÑĭÐ¹": 6368,
      "Ð¸ÑīÐµ": 6369,
      "Ð¸Ð½Ð°Ñı": 6370,
      "Ð¸Ð½ÑĥÐ»Ð°": 6371,
      "Ð¸ÐºÐ¾Ð²": 6372,
      "Ð¸Ð½ÑĥÐ»ÑģÑı": 6373,
      "ÑģÑĥÐ´Ð°": 6374,
      "Ð»ÐµÐ¿": 6375,
      "Ð»ÑĭÑħ": 6376,
      "Ð½ÐºÐ¾": 6377,
      "ÑĢÐ¸Ð´": 6378,
      "ÑĥÐ½Ñĭ": 6379,
      "ÑĥÑĢÐ°": 6380,
      "ÑıÐº": 6381,
      "ÑıÐ½ÑĥÐ²": 6382,
      "ÑıÐ»Ð¸ÑģÑĮ": 6383,
      "ÑıÐ»Ð°ÑģÑĮ": 6384,
      "ÑĭÑī": 6385,
      "ĠÑģÐ¸": 6386,
      "ĠÑģÑģ": 6387,
      "ĠÑģÐµÑģÑĤÑĮ": 6388,
      "ĠÐ¿Ð»Ñı": 6389,
      "ĠÐ¿Ð¸Ð²Ð¾": 6390,
      "ĠÐ¿Ð¾Ð¹Ð´ÐµÐ¼": 6391,
      "ĠÐ¿Ð¸ÑīÐ¸": 6392,
      "ĠÐ½Ð¾Ð¼": 6393,
      "ÐºÐ°Ð»Ð°": 6394,
      "ĠÐ²Ð¾Ð»ÑĮ": 6395,
      "ÑĩÐ°ÑĤÑĮ": 6396,
      "ÑĩÐµÑģÑĤ": 6397,
      "ÑĩÑĥÐ³": 6398,
      "Ð²Ð¾Ð½": 6399,
      "Ð²Ð¾ÑģÑĤ": 6400,
      "ĠÐ¾Ð¼ÐµÑĢ": 6401,
      "ĠÐ¸ÑģÑĤÐµÑĢ": 6402,
      "ĠÐ¸Ð¼ÐµÐ½": 6403,
      "Ð¼ÑĥÑĤ": 6404,
      "Ð¼Ð¾Ð½": 6405,
      "ĠÐºÐ¸Ð½": 6406,
      "ĠÐºÑĢÐ¾": 6407,
      "ĠÐºÐ°Ð²Ð°Ð»": 6408,
      "ĠÐ¼ÑĢÐ°": 6409,
      "ĠÐ¼Ð°Ð¹": 6410,
      "ĠÐ¼Ð¾Ñĩ": 6411,
      "ÑĪÐºÐ¾Ð¹": 6412,
      "ĠÐ´Ð½Ðµ": 6413,
      "ĠÐ´Ð°Ð¹": 6414,
      "ĠÐ´Ð¸Ðº": 6415,
      "ĠÐ±ÑĢÐ°Ðº": 6416,
      "ĠÐ±Ð°ÑĢÐ°": 6417,
      "Ð¾Ð²ÐµÐ´": 6418,
      "Ð¾Ð²Ð°Ñı": 6419,
      "Ð¾Ð²Ð°Ð»Ð¾": 6420,
      "Ð»Ð¸Ð¼ÐµÐ½": 6421,
      "Ð»Ð¸ÑĤÐµÐ»ÑĮ": 6422,
      "ĠÐ¿ÑĢÑı": 6423,
      "ĠÐ¿ÑĢÐµÐ½": 6424,
      "ĠÐ¿ÑĢÐ¾Ð·": 6425,
      "ĠÐ¿ÑĢÐ¾Ð¹ÑĤÐ¸": 6426,
      "ĠÑĩÐ°Ñİ": 6427,
      "ĠÑĩÐ°Ñħ": 6428,
      "ĠÑĩÐµÑģÑĤÐ¸": 6429,
      "ÐµÐ»Ð¾ÑģÑĮ": 6430,
      "ĠÐ·ÑĢÐ¸ÑĤ": 6431,
      "ĠÑĥÑĪÐ»Ð¸": 6432,
      "ĠÑĥÑħÐ¾Ð´Ð¸ÑĤ": 6433,
      "ĠÑĥÐµÑħÐ°Ð»": 6434,
      "ĠÑĥÐµÑħÐ°Ð»Ð¸": 6435,
      "Ð¸Ð»ÑĮÑı": 6436,
      "Ð¿Ð¾ÑĢ": 6437,
      "ĠÐ½ÐµÑĥÐ¼": 6438,
      "ĠÐ½ÐµÑĥÐº": 6439,
      "Ð¹ÑĤÐµ": 6440,
      "ĠÑĢÐµÐºÐ¸": 6441,
      "ĠÐ¿Ð¾ÑĢÐ¾Ð´": 6442,
      "ĠÐ¿Ð¾ÑģÑĤÑĢÐ¾": 6443,
      "ĠÐ¿Ð¾ÑģÑĤÐ°": 6444,
      "ÐµÐ¼Ð¸Ð½ÑĥÑĤÐ½Ð¾": 6445,
      "Ð°Ð²ÑĪÐµÐµ": 6446,
      "Ð°Ð²ÑĪÐ¸ÐµÑģÑı": 6447,
      "Ð³Ñģ": 6448,
      "ĠÐ»Ð¾Ðº": 6449,
      "ÑīÐ¸Ð¼": 6450,
      "ÑĨÐ°ÑĢ": 6451,
      "ĠÐ¾ÑĤÐ¼ÐµÑĤ": 6452,
      "ÑģÐºÐ»Ð¾Ð½": 6453,
      "Ð¸Ð²Ð°ÐµÑĤÐµ": 6454,
      "Ð¸Ð²ÑĪÑĥÑİ": 6455,
      "Ð¸Ð²ÑĪÐ¸ÐµÑģÑı": 6456,
      "ÐµÐ¹ÑĤÐµ": 6457,
      "Ð¸Ð¼ÑĭÐ¹": 6458,
      "Ð¸Ð¼ÑĭÑħ": 6459,
      "Ð¾ÐºÐµÑĤ": 6460,
      "ĠÑģÐºÐ¾ÑĤ": 6461,
      "ĠÑģÐºÑĢÐ¸Ð¿": 6462,
      "ĠÐ¶Ð¸Ð»Ð¸": 6463,
      "ĠÐ¶Ð°Ð´Ð½Ð¾": 6464,
      "ĠÐ²ÑĭÐ½ÐµÑģ": 6465,
      "ĠÐ²ÑĭÐ³Ð¾Ð²Ð¾ÑĢ": 6466,
      "ĠÐ²ÑĭÐ´ÐµÑĢÐ¶": 6467,
      "ĠÐ²ÑĭÐ³Ð»ÑıÐ´": 6468,
      "ĠÐŀÐº": 6469,
      "ĠÐŀÐ½Ð¾": 6470,
      "Ð½ÐµÐ»Ð¸": 6471,
      "ÑģÑĤÐ²ÑĥÐ¹ÑĤÐµ": 6472,
      "ĠÐºÐ¾Ñĩ": 6473,
      "ĠÐºÐ¾ÑĪÐµÐ»": 6474,
      "Ð¾Ð·Ð´": 6475,
      "Ð¾Ð·Ð½Ð°": 6476,
      "ĠÐ¼Ð¸Ð»Ð¸": 6477,
      "ĠÑģÐ²Ð°Ð´": 6478,
      "Ð»ÑıÐ½": 6479,
      "Ð»ÑıÐ»Ð¸ÑģÑĮ": 6480,
      "ĠÐĿÐ°Ð¼": 6481,
      "ĠÐĿÐµÐ´": 6482,
      "ĠÐĿÑĮÑİ": 6483,
      "ĠÑħÐ¾ÑĢÐ¾": 6484,
      "ÐºÐ¾Ð½": 6485,
      "ĠÐ¿Ð¾Ð´ÐµÑĢÐ¸": 6486,
      "ĠÐ½Ð¸Ð¶Ðµ": 6487,
      "ÐµÐºÐ°": 6488,
      "ĠÐ¡ÐµÑĢÐ³": 6489,
      "ÐµÑĩÐµÐ½": 6490,
      "ĠÐ·Ð°ÑĤÐ¾": 6491,
      "ĠÐŁÐ¾Ðº": 6492,
      "ĠÐŁÑĢÐ¸Ð²": 6493,
      "ĠÐŁÐ¾Ð¹Ð´ÐµÐ¼": 6494,
      "ĠÐĴÑĩÐµÑĢÐ°": 6495,
      "ĠÐĴÐµÑĢÐ½Ð¾": 6496,
      "ĠÐ³Ð¾ÑģÑĥÐ´Ð°": 6497,
      "ÑģÑĤÑĮÐµ": 6498,
      "ĠÑĢÐ°Ð·ÑĢÑĥÑĪ": 6499,
      "ĠÐľÐ¸ÑģÑģÐ¸Ñģ": 6500,
      "ĠÐľÐ¾Ñı": 6501,
      "ĠÑĪÐ°Ð»ÑĮ": 6502,
      "ĠÑģÐ¿Ð¸Ð½Ñĥ": 6503,
      "ĠÐļÑį": 6504,
      "ĠÐļÐ°Ð¶Ð´": 6505,
      "ĠÐļÐ°Ð·Ð°Ð»Ð¾ÑģÑĮ": 6506,
      "ĠÐļÐ¸ÑģÐ»Ð¾Ð²": 6507,
      "Ð°Ð»ÑĮÐ½ÑĭÐ¼": 6508,
      "ĠÐ»Ð¸ÑģÑĤ": 6509,
      "ÑĥÑĩÐ¸": 6510,
      "ÑģÐ»ÐµÐ´": 6511,
      "ÑĥÑĤÑĢÑĥ": 6512,
      "Ð¸ÑħÐ¸Ðº": 6513,
      "ĠÐ²ÑģÐµÐ¾Ð±": 6514,
      "ÑıÑĤÐµÐ¶": 6515,
      "Ð°Ð³Ð¸ÑĩÐµÑģÐº": 6516,
      "ÐĿÐ¸Ñĩ": 6517,
      "ÐĿÑįÐ½ÑģÐ¸": 6518,
      "Ð»Ð¾Ñī": 6519,
      "ĠÐ¿Ð¾Ð»Ðµ": 6520,
      "ĠÐ¢Ð¾Ð³Ð´Ð°": 6521,
      "ĠÐ¿Ð¾ÐºÐ¾Ðµ": 6522,
      "ĠÐ¿Ð¾ÐºÐ°Ð·ÑĭÐ²": 6523,
      "ĠÐ³Ð»Ð°Ð´": 6524,
      "ĠÐ³Ð¾Ð»ÑĥÐ±": 6525,
      "ĠÐ´ÑĢÑĥÐ³Ð¾Ð¼Ñĥ": 6526,
      "ĠÐ²Ð¸Ð´Ð¸ÑĤ": 6527,
      "ĠÐ²Ð¸Ð´ÑĭÐ²Ð°Ð»": 6528,
      "ÑīÐ¸ÐºÑĥ": 6529,
      "ĠÐ½Ð°Ð´ÐµÐ²": 6530,
      "ĠÐ½Ð°Ð´Ð¾Ð±Ð½Ð¾": 6531,
      "ĠÐĵÑĢÐ°ÑĦÐ¸Ð½Ñı": 6532,
      "ĠÐĵÐ»Ð°Ð·": 6533,
      "ÐµÐ½Ð¸ÑıÐ¼": 6534,
      "ĠÐ²Ð¾Ð·ÑĢÐ°Ð·": 6535,
      "ĠÐ²Ð¾Ð·Ð½Ð¸Ðº": 6536,
      "ĠÐ´Ð²Ð°Ð¶Ð´Ñĭ": 6537,
      "ĠÐ´Ð²Ð°Ð´ÑĨÐ°ÑĤÐ¸": 6538,
      "ÑĭÑħÐ°Ð²": 6539,
      "ĠÐ¿ÑĢÐ¾Ð½Ð¸ÑĨ": 6540,
      "ĠÐ¿ÑĢÐµÐ´Ð¼": 6541,
      "ĠÐ±Ð¾Ð»ÑĮÑĪÐ¸Ñħ": 6542,
      "ĠÐ¾ÑģÑĥÑīÐµÑģÑĤÐ²": 6543,
      "ĠÐ¾Ð¿ÑĥÑģÐºÐ°Ñı": 6544,
      "ĠÐ¸Ð¼ÐµÐ»Ð¸": 6545,
      "ĠÐ²ÐµÑĢÑİ": 6546,
      "ĠÐ²ÐµÑĢÑĪÐ¸Ð½Ðµ": 6547,
      "ÑĥÐ½ÑĤÐ¾Ð²": 6548,
      "ĠÑĦÐ°Ñģ": 6549,
      "ĠÑĦÐ°ÑĢ": 6550,
      "ĠÑĦÑĢÐ°Ð·": 6551,
      "ÐŁÑĢÐµÐºÑĢÐ°ÑģÐ½Ð¾": 6552,
      "ÑĩÐµÑģÑĤÐ²Ð¾": 6553,
      "ĠÐ¿Ð¾ÑģÐ»Ð°Ð»Ð¸": 6554,
      "ĠÐĳÐ°Ð¼Ð±Ð»Ð¾Ð¼": 6555,
      "ÐµÑħÐ°ÑĤÑĮ": 6556,
      "ÐµÑħÐ°Ð»Ð°": 6557,
      "ÑĥÑģÑĤÐ¸Ð»Ð¸": 6558,
      "ĠÐ³ÑĢÐµÑħ": 6559,
      "ĠÑģÐ¿ÑĢÐ¾ÑģÐ¸ÑĤÑĮ": 6560,
      "ĠÐ·Ð°Ð¼ÐµÐ½Ñı": 6561,
      "ĠÐ·Ð°Ð¼ÑĥÐ¶": 6562,
      "ĠÐ¿Ð¾Ð¼ÐµÑģÑĤ": 6563,
      "ĠÐ¿Ð¾Ð¼ÐµÑī": 6564,
      "ĠÐ¿Ð¾Ð¼Ð¸Ð½ÑĥÑĤÐ½Ð¾": 6565,
      "ĠÑĩÐµÑĢÐ½Ð¾Ð¼": 6566,
      "ĠÑĩÐµÑĢÑĤÐ¾Ð²": 6567,
      "ĠÑĨÐ²": 6568,
      "ĠÐ±ÐµÐ·Ð¾Ð±ÑĢÐ°Ð·": 6569,
      "ĠÐ±ÐµÐ·Ð»ÑİÐ´": 6570,
      "ÑĢÐ¾Ð´Ð¾Ð»Ð¶": 6571,
      "ĠÐ¿Ð¾ÑģÐ°Ð´": 6572,
      "ĠÐ¿Ð¾ÑģÐµÑī": 6573,
      "ĠÑģÐ»Ð¾Ð²Ð¾Ð¼": 6574,
      "ĠÐ¼Ð¸Ð»ÑĭÐµ": 6575,
      "ĠÐ¿ÑĢÐ°Ð²Ð¾Ð¹": 6576,
      "ĠÐĽÐ¸ÑĨ": 6577,
      "ĠÐ£ÑĤ": 6578,
      "ĠÐ´Ð¾Ð±ÑĢÐ°ÑĤÑĮÑģÑı": 6579,
      "ĠÐ¿Ð»Ð°Ð½": 6580,
      "ĠÑĩÐ°ÑģÑĥ": 6581,
      "ĠÐķÐ´": 6582,
      "ĠÐ½Ð°Ð¿ÑĢÐ¾ÑĤÐ¸Ð²": 6583,
      "ÐµÑĢÐ´ÐµÑĩ": 6584,
      "ĠÐĹÐ°Ð±": 6585,
      "ĠÐ½ÐµÐ¼Ð°Ð»": 6586,
      "ĠÐ¤ÐµÐ´Ð¶Ð¸Ð½Ð¾Ð¼": 6587,
      "ĠÑģÑĤÑĢÐ°ÑģÑĤÑĮ": 6588,
      "ĠÑģÐ»ÑĥÑĩÐ°Ð»Ð¾ÑģÑĮ": 6589,
      "ĠÐºÐ°ÑĢÑĤÑĭ": 6590,
      "ĠÐ´Ð¾ÑĢÐ¾Ð³Ð¾": 6591,
      "ĠÐ±Ð¾Ð»ÐµÐ½": 6592,
      "ĠÐ¿ÑĢÐ¸Ð²ÐµÐ»": 6593,
      "ĠÐ·Ð°Ð¿ÐµÑĩÐ°ÑĤ": 6594,
      "ĠÐ´ÐµÐ²ÑĥÑĪÐºÐµ": 6595,
      "ĠÐ¿Ð¾Ð·Ð¾ÑĢ": 6596,
      "ĠÐ½Ð°Ð·Ð²Ð°ÑĤÑĮ": 6597,
      "ĠÐ·Ð°Ð±ÑĭÐ»Ð¸": 6598,
      "ÑģÑĤÐ²ÐµÐ½Ð½ÑĭÐµ": 6599,
      "ĠÐ±ÐµÑģÐ¿Ð¾Ð¼": 6600,
      "ĠÐ±ÐµÑģÐ¿Ð¾Ð»ÐµÐ·": 6601,
      "ĠÐ·Ð°Ð²Ð¸Ð´": 6602,
      "ĠÐ·Ð°Ð²ÑıÐ·": 6603,
      "ĠÑģÑĤÐ°ÑĢÐ°ÑĤÐµÐ»ÑĮÐ½Ð¾": 6604,
      "ĠÐ¿ÐµÑĢÐµÐ´Ð¾": 6605,
      "ĠÑģÐµÑĢÐ´ÐµÑĩ": 6606,
      "ĠÑģÐµÑĢÐ´ÑĨÐµÐ¼": 6607,
      "ĠÑĥÐ³Ð°Ñģ": 6608,
      "ĠÑĥÐ³Ð»Ð°": 6609,
      "ĠÐºÐ¾Ð½ÑĤÐ¾ÑĢ": 6610,
      "ĠÐ¿Ð¾Ð¿ÑıÑĤ": 6611,
      "ĠÐ¾Ð´Ð¸Ð½Ð¾Ðº": 6612,
      "ÐĺÐ·": 6613,
      "ĠÐºÐ¾Ð»Ð¿": 6614,
      "ĠÐ¿ÑĢÐ¾ÑĤÑıÐ³Ð¸Ð²Ð°Ñı": 6615,
      "ĠÐ´ÑĥÐ¼Ð°Ð»Ð°": 6616,
      "ĠÐ´ÑĥÐ¼Ð°ÐµÑĪÑĮ": 6617,
      "ĠÐ³Ð¾ÑĢÐµ": 6618,
      "ĠÐ³Ð¾ÑĢÐ½Ð¸Ñĩ": 6619,
      "ĠÐ·Ð°Ð´ÑĢ": 6620,
      "ĠÑĥÐºÐ°Ð·ÑĭÐ²": 6621,
      "ĠÑģÐ»ÐµÐ´Ð¾Ð²Ð°ÑĤÑĮ": 6622,
      "ĠÐ½ÐµÐ²Ñĭ": 6623,
      "ĠÐ½ÐµÐ²ÐµÐ¶": 6624,
      "ĠÐ²ÐµÑģÑĤÑĮ": 6625,
      "ĠÐ¼ÐµÑģÑĤÑĥ": 6626,
      "ĠÐ¿ÑĢÐ¾ÑģÐ¸ÑĤÑĮ": 6627,
      "ĠÐ·Ð°ÑĤÑĢÑĥÐ´": 6628,
      "ĠÐ²ÐµÑĩÐ½Ð¾": 6629,
      "ĠÐ¼Ð°Ð»ÐµÐ½ÑĮÐºÐ¸Ðµ": 6630,
      "ĠÐ¿ÑĢÐ¾ÑĪÐ»Ð¾Ð¹": 6631,
      "ÑĩÐµÑģÐºÐ¸Ð¼": 6632,
      "ĠÑĥÑģÐ¼ÐµÑħ": 6633,
      "ĠÐ³ÑĢÑĥÐ¿Ð¿": 6634,
      "ĠÐ²Ð¾Ð´ÐºÑĥ": 6635,
      "ĠÐ¸Ð·Ð²Ð¾Ð·": 6636,
      "ĠÐ¿ÑĢÐ¾Ð¸Ð·Ð¾ÑĪÐ»Ð¾": 6637,
      "ĠÐ½Ð°Ð²Ð¸Ñģ": 6638,
      "ĠÐ±Ð»Ð°Ð³Ð¾Ð¿ÑĢÐ¸ÑıÑĤ": 6639,
      "ĠÐ½Ð°ÑĩÐ°Ð»ÑĮ": 6640,
      "Ð¸ÑģÑĤÐ¸Ð½Ðµ": 6641,
      "ĠÐ½ÑĥÐ¶Ð½Ñĭ": 6642,
      "ĠÑĢÐ°ÑģÑģÐºÐ°Ð¶Ñĥ": 6643,
      "ĠÑĢÐ°ÑģÑģÐµÑĢÐ´": 6644,
      "ĠÑĢÐ°ÑģÑģÐ¼Ð°ÑĤÑĢÐ¸Ð²": 6645,
      "ĠÐ±Ð¾Ð»ÑĮÑĪÐ°Ñı": 6646,
      "ĠÐ±Ð¾Ð»ÑĮÑĪÐ¸Ð¼Ð¸": 6647,
      "ÑĥÐºÐ°Ð²": 6648,
      "ÑıÑīÐµÐ¹": 6649,
      "ĠÐ¿ÑĢÐ¸ÐºÐ°Ð¶ÐµÑĤÐµ": 6650,
      "Ð½ÐµÑģÑģÑı": 6651,
      "ĠÐ±Ð¾Ð³Ñĥ": 6652,
      "ĠÑĢÐ°Ð±Ð¾ÑĤÑĭ": 6653,
      "Ð¿Ð¾Ð¼Ð°Ð»Ñĥ": 6654,
      "ĠÐ´ÐµÑĢÐ½ÑĥÐ»": 6655,
      "ÑĥÑīÐ¸Ñħ": 6656,
      "ĠÐ¾Ð³Ð»ÑĥÑĪ": 6657,
      "ĠÐ½Ð°ÑħÐ¾Ð´Ð¸ÑĤ": 6658,
      "ĠÐ½Ð°ÑħÐ¾Ð´Ð¸Ð»ÑģÑı": 6659,
      "ĠÐ»ÐµÐ¶Ð°Ð»Ð¸": 6660,
      "ĠÐ³Ð¾Ð´Ð¸ÑĤÑģÑı": 6661,
      "ĠÑģÐ¾ÑģÑĢÐµÐ´": 6662,
      "ĠÐ¿ÑĢÐ¸ÑıÑĤÐµÐ»Ñı": 6663,
      "ĠÑģÐ»ÑĥÐ¶Ð¸Ð»": 6664,
      "ĠÐ¡ÐºÐ¾ÑĢ": 6665,
      "ĠÐ¿Ð°ÑĢÐ°Ð´": 6666,
      "ĠÑĤÐ°ÑģÐº": 6667,
      "ĠÑĤÐ°Ð¸Ð½": 6668,
      "ĠÑĢÐ°ÑģÐ¿ÑĢÐ¾ÑģÑĤ": 6669,
      "ĠÐ¾ÑĤÐ¿ÑĢÐ°Ð²Ð¸ÑĤÑĮÑģÑı": 6670,
      "ĠÐ¿Ð¾Ð²ÐµÑĢÐ½ÑĥÐ²ÑĪÐ¸ÑģÑĮ": 6671,
      "ĠÑģÑĥÐ´ÑĮÑı": 6672,
      "ĠÐºÐ°Ð¶Ð´Ð¾Ð¹": 6673,
      "ĠÐºÐ°Ð¶Ð´Ð¾Ð³Ð¾": 6674,
      "ĠÐ¿Ð¾Ð´ÑĥÐ¼Ð°ÑĤÑĮ": 6675,
      "ĠÐ¿ÑĥÑģÑĤÑĭÐ½": 6676,
      "ĠÑģÑĥÐ´Ñı": 6677,
      "ĠÐŁÑĢÐ¸ÑħÐ¾Ð´": 6678,
      "ĠÐ³ÑĢÐ¾Ð¼ÐºÐ¸Ð¹": 6679,
      "ĠÑĤÑĢÐ¸ÑģÑĤÐ°": 6680,
      "ĠÐ·Ð°ÑĢÑıÐ´": 6681,
      "ĠÐ¿Ð¾ÑģÑĤÐµÐ»ÑĮ": 6682,
      "ĠÐºÑĢÐ°ÑģÐ°Ð²": 6683,
      "ĠÐºÑĢÐ°ÑģÐ¸Ð²": 6684,
      "ĠÐ¿ÑıÑĤÐ½Ð°Ð´ÑĨÐ°ÑĤÑĮ": 6685,
      "ĠÐ¿ÑıÑĤÐ¸Ð´ÐµÑģÑı": 6686,
      "ĠÑģÑĩÐ°ÑģÑĤÐ»Ð¸Ð²Ñĭ": 6687,
      "ĠÑģÑĤÑĢÐ°Ð½Ð½ÑĭÐ¹": 6688,
      "ĠÑĥÐ´Ð¸Ð²Ð¸ÑĤÐµÐ»ÑĮÐ½Ð¾": 6689,
      "ĠÐ¿ÑĢÐ¸Ð¼ÐµÑĢ": 6690,
      "ÑĤÐ¾ÑĩÐ½Ð¾Ð¹": 6691,
      "ĠÐ´Ð¾ÑģÐ°Ð´Ð½Ð¾": 6692,
      "ĠÑĩÑĥÐ²ÑģÑĤÐ²ÑĥÐµÑĤ": 6693,
      "ĠÐ²Ð¾Ð¿ÑĢÐ¾ÑģÐ°": 6694,
      "ĠÐ²Ð¾Ð¿ÑĢÐ¾ÑģÑĭ": 6695,
      "ĠÑĤÐ¾Ð»Ð¿Ñĥ": 6696,
      "ĠÑģÐ»Ð°Ð±Ð¾ÑģÑĤÐ¸": 6697,
      "ĠÐ±Ð»Ð°Ð³Ð¾Ð´Ð°ÑĢÐ½Ð¾ÑģÑĤÐ¸": 6698,
      "Ð¼ÐµÑıÐ»ÑģÑı": 6699,
      "ĠÐ´ÐµÑĤÑģÑĤÐ²Ð°": 6700,
      "ĠÐºÐ»ÐµÑĢÐº": 6701,
      "ĠÐ½Ð°Ð´ÐµÐ¶Ð´Ðµ": 6702,
      "ĠÐ½ÐµÐºÐ¾ÑĤÐ¾ÑĢÐ¾Ð³Ð¾": 6703,
      "ĠÐ½ÐµÐºÐ¾ÑĤÐ¾ÑĢÑĭÐµ": 6704,
      "ĠÑĩÑĥÐ´Ð°Ðº": 6705,
      "ĠÐŁÑĢÐ¸Ð´": 6706,
      "ĠÐŁÑĢÐ¾ÑģÑĤÐ¸ÑĤÐµ": 6707,
      "ĠÐ±Ð¾ÑıÑģÑĮ": 6708,
      "ĠÑĤÐ°Ð¹Ð½Ñĭ": 6709,
      "ĠÐ¡ÑĤÑĥÐ¿": 6710,
      "ĠÐ¡ÑĤÐ°Ð»Ð¾": 6711,
      "ĠÑģÑĤÑĢÐ¾Ð³": 6712,
      "ĠÐ¿Ð¾ÑģÑĤÑĥÐ¿Ð¸Ð»": 6713,
      "ĠÐ³Ð»ÑĥÐ±Ð¾ÐºÐ¾Ðµ": 6714,
      "ĠÐºÐ¾ÑĢÐ¾ÑĤÐºÐ¾Ð³Ð¾": 6715,
      "ÐĿÐ¾Ñį": 6716,
      "ĠÑģÐ±ÐµÐ¶Ð°Ð»": 6717,
      "ĠÐ¿ÑĢÐµÐ·Ð¸ÑĢÐ°": 6718,
      "ĠÐ¿ÑĢÐµÐ²ÑĢÐ°Ñī": 6719,
      "ĠÐºÐ½Ð¸Ð³Ðµ": 6720,
      "ĠÑĥÑħÐ°Ð¶": 6721,
      "ĠÐ»Ð°Ð²ÐºÐµ": 6722,
      "ĠÑģÑĤÐµÐ½Ñĥ": 6723,
      "ĠÐ¿Ð¾ÑģÑĤÐ°Ð²Ð¸ÑĤÑĮ": 6724,
      "ĠÐ¿Ð¾ÑģÑĤÐ°Ð²Ð¸Ð»Ð¸": 6725,
      "ĠÐ²Ð¾Ð·Ð²ÑĢÐ°ÑīÐµÐ½Ð¸Ñı": 6726,
      "ĠÑĤÑıÐ¶ÐµÐ»ÑĭÐ¹": 6727,
      "ĠÐ¶Ð°ÑĢÐºÐ¾": 6728,
      "ĠÐ¶ÐµÑģÑĤÐ¾ÐºÐ¾": 6729,
      "ĠÑģÐ²ÑıÐ·Ð°Ð½Ñĭ": 6730,
      "ĠÐ¿Ð¾Ð´Ð¾Ð±Ð°ÐµÑĤ": 6731,
      "ĠÐ¿Ð°Ð»ÑĮÑĨÐµÐ¼": 6732,
      "ĠÐ´Ð»Ð¸Ð½Ð½ÑĭÐµ": 6733,
      "ĠÐ±Ð¾ÑĢÐ¼Ð¾ÑĤ": 6734,
      "ĠÐ±ÐµÑģÐ¿Ð¾ÐºÐ¾Ð¹ÑģÑĤÐ²Ð°": 6735,
      "ĠÑĥÐ´Ð¾Ð²Ð¾Ð»ÑĮÑģÑĤÐ²Ð¸Ñı": 6736,
      "ĠÑıÑĢÐ¾ÑģÑĤÐ¸": 6737,
      "ĠÐ·Ð½Ð°ÑĩÐµÐ½Ð¸Ñı": 6738,
      "ĠÐ¾Ð±ÑĬÑıÐ²Ð»ÐµÐ½Ð¸Ðµ": 6739,
      "ĠÐºÐ¾Ð¼Ð¿Ð»Ð¸Ð¼ÐµÐ½": 6740,
      "ĠÐ±ÑĥÐ´ÑĮÑĤÐµ": 6741,
      "ĠÐºÐ°ÑĢÐ¼Ð°Ð½Ðµ": 6742,
      "ĠÐ¿ÑĢÐ¸Ð·Ð½Ð°ÑİÑģÑĮ": 6743,
      "ĠÐ·Ð°ÑħÐ»Ð¾Ð¿": 6744,
      "ĠÐ·Ð°ÐºÑĢÑĭÐ»": 6745,
      "ĠÑĥÑģÐ¸Ð»Ð¸Ñı": 6746,
      "ĠÐ±ÐµÑĢÐµÐ³Ð°": 6747,
      "ĠÑĢÐ°Ð·Ð¼ÑĭÑĪÐ»ÑıÑı": 6748,
      "ĠÑģÑĤÑĢÐ°Ð´Ð°Ð½Ð¸Ð¹": 6749,
      "ĠÐĲÐ»ÐµÐºÑģÐ°Ð½Ð´ÑĢ": 6750,
      "ĠÑģÐ¿ÑĥÑģÐºÐ°ÑĤÑĮÑģÑı": 6751,
      "ĠÐ¿Ð¾Ð»Ð¾Ð²Ð¸Ð½Ñĥ": 6752,
      "ĠÐ¾Ð±ÐµÐ¸Ñħ": 6753,
      "ĠÑĥÐ±ÐµÐ´Ð¸ÑĤÑĮÑģÑı": 6754,
      "ĠÐ½ÐµÐ¸Ð·Ð²": 6755,
      "Ð½Ð°ÑĢÑĥÐ¶Ð¸": 6756,
      "ĠÐ¾Ð±ÐµÐ´Ð°": 6757,
      "ĠÐ³Ð»Ð°Ð²Ðµ": 6758,
      "ĠÐ¿ÑĢÐ¾ÑħÐ¾Ð´Ð¸Ð»": 6759,
      "ĠÐ¿ÑĢÐ¾ÑħÐ¾Ð´Ð¸Ð»Ð¸": 6760,
      "ĠÑģÑĩÐ°ÑģÑĤÑĮÑı": 6761,
      "ĠÐ²ÑĭÑĢÐ°Ð·Ð¸ÑĤÐµÐ»ÑĮÐ½Ð¾": 6762,
      "ĠÑģÐ¾Ð´ÑĢÐ¾Ð³": 6763,
      "ĠÐ¼Ð¾ÑģÑĤÑĥ": 6764,
      "ĠÑĥÐ¿Ð¾Ð¼Ð¸Ð½Ð°": 6765,
      "ĠÑĤÑĢÐµÐ²Ð¾Ð³Ñĥ": 6766,
      "ĠÐ½ÐµÐ½Ð°Ð²Ð¸Ð´": 6767,
      "ĠÐ½ÐµÑĢÐµÑĪÐ¸ÑĤÐµÐ»ÑĮÐ½Ð¾": 6768,
      "ĠÐ¸ÑģÐ¿ÑĭÑĤÐ°Ð½Ð¸Ñı": 6769,
      "ĠÐ¿ÐµÑģÐ½Ñİ": 6770,
      "ĠÑĢÐ°ÑģÑģÑĤÐ°Ð»Ð¸ÑģÑĮ": 6771,
      "Ð¾Ð´ÑĥÑĪÐ¸": 6772,
      "ĠÐ±ÐµÑģÐµÐ´Ð°": 6773,
      "ĠÐ´Ð¾Ð¶Ð´Ñı": 6774,
      "ĠÑģÐ¾Ð·Ð´Ð°Ð½Ð¸Ðµ": 6775,
      "ĠÑģÐ¾Ð·Ð´Ð°Ð½Ð¸Ñı": 6776,
      "ĠÐĿÐ¸ÐºÑĤÐ¾": 6777,
      "ĠÐ½Ð°Ð´ÐµÑıÐ»ÑģÑı": 6778,
      "ĠÑģÐ»ÐµÐ´Ð¾Ð²Ð°Ð»Ð¾": 6779,
      "Ð½Ð¸ÑĤÑģÑı": 6780,
      "ĠÐ¿Ð¾ÐºÑĢÐ°ÑģÐ½ÐµÐ»Ð°": 6781,
      "ĠÐ¿Ð¾ÑĢÑĥÑĩÐµÐ½Ð¸Ðµ": 6782,
      "ĠÑĤÐ¾Ð²Ð°ÑĢÐ¸ÑīÐµÐ¹": 6783,
      "ĠÐµÑħÐ°Ð»": 6784,
      "ĠÐµÑħÐ°Ð»Ð¸": 6785,
      "ĠÑĢÐ¾Ð¼Ð°Ð½": 6786,
      "ĠÐ²ÑĭÑģÐ»ÑĥÑĪÐ°ÑĤÑĮ": 6787,
      "ĠÑģÐ¾ÑģÐµÐ´Ð½ÐµÐ¹": 6788,
      "ĠÑģÐ¾Ð·Ð½Ð°Ð½Ð¸Ðµ": 6789,
      "ĠÐ³Ð¾ÑģÑĤÐ¸Ð½Ð¸ÑĨÑĭ": 6790,
      "ĠÐ¾ÑģÑĤÐ°Ð»ÑĮÐ½ÑĭÐµ": 6791,
      "ĠÐ¥Ð¾ÑĤÑı": 6792,
      "Ð°Ð²ÑĪÐµÐ³Ð¾ÑģÑı": 6793,
      "ĠÐĴÐ¸Ð´Ð¸ÑĤÐµ": 6794,
      "ĠÐ¿Ð»Ð°ÐºÐ°Ð»": 6795,
      "ĠÑĥÐ³Ð°Ð´Ð°ÑĤÑĮ": 6796,
      "ĠÐ¾Ð³ÑĢÐ¾Ð¼Ð½ÑĭÐ¹": 6797,
      "Ð»Ð°Ð³Ð¾Ð´Ð°ÑĢÑİ": 6798,
      "ĠÐ¾ÑģÐ»Ð°Ð±": 6799,
      "ĠÑĩÐµÑĤÐ²ÐµÑĢÑĤÑĮ": 6800,
      "ĠÐ½Ð°Ð¹Ð´ÐµÑĤÑģÑı": 6801,
      "ĠÐŁÐ¾Ð¶Ð°Ð»ÑĥÐ¹ÑģÑĤÐ°": 6802,
      "ĠÐ¼Ð³Ð½Ð¾Ð²ÐµÐ½Ð½Ð¾": 6803,
      "ĠÐ½ÐµÐºÐ¾Ð³Ð´Ð°": 6804,
      "ĠÐ³Ð¾Ð»Ð¾Ð´Ð¾Ð¼": 6805,
      "ĠÐ¿Ð¾ÑĨÐµÐ»Ð¾Ð²": 6806,
      "ĠÐĳÐµÐ´Ð½ÑıÐ¶ÐºÐ°": 6807,
      "ĠÑĪÑĤÑĥÐºÐ°": 6808,
      "ĠÑĢÑĥÐ³Ð°ÑĤÐµÐ»ÑĮ": 6809,
      "ĠÐ²ÑĭÑĢÐ²": 6810,
      "ĠÐ½Ð¸ÑĩÑĤÐ¾Ð¶": 6811,
      "ĠÑĤÑĭÑģÑıÑĩ": 6812,
      "ĠÑĤÑĢÐµÐ¿ÐµÑĤ": 6813,
      "ĠÐ²ÑģÐ¼Ð°ÑĤÑĢÐ¸Ð²Ð°ÑıÑģÑĮ": 6814,
      "ĠÐ¶ÐµÐ½Ð¸ÑĤÑĮÑģÑı": 6815,
      "ĠÐ·Ð°Ð³Ð»ÑıÐ½ÑĥÐ»": 6816,
      "ĠÐ±Ð°ÑĢÑĭÑĪÐ½Ð¸": 6817,
      "ĠÐ»Ð¾ÑĢÐ½ÐµÑĤ": 6818,
      "ĠÑģÐºÐ°Ð·Ð°Ð½Ð¾": 6819,
      "ĠÐ¿ÐµÑĢÐµÐ³Ð¾Ð²Ð¾ÑĢ": 6820,
      "ĠÐ¾ÑĩÑĥÑĤÐ¸Ð»ÑģÑı": 6821,
      "ÐŁÑĢÐ°Ð²Ð¾": 6822,
      "ĠÑģÐ»ÑĥÑĩÐ°ÑıÑħ": 6823,
      "ĠÑĥÑģÐ»ÑĥÐ³Ñĥ": 6824,
      "ĠÐ±Ð»Ð¸Ð¶Ð°Ð¹": 6825,
      "ĠÐºÐ»Ð¾ÑĩÐ¾Ðº": 6826,
      "ĠÐ¿ÑĢÐµÐ»ÐµÑģÑĤ": 6827,
      "ĠÐ¿Ð¾ÐºÑĢÐ¾Ð²Ð¸ÑĤÐµÐ»ÑĮ": 6828,
      "ĠÑĥÑĤÐ²ÐµÑĢÐ´Ð¸ÑĤÐµÐ»ÑĮÐ½Ð¾": 6829,
      "ĠÐµÐ¶ÐµÐ¼Ð¸Ð½ÑĥÑĤÐ½Ð¾": 6830,
      "ĠÐ·Ð°Ð¿Ð»Ð°ÐºÐ°Ð»": 6831,
      "ĠÑĢÑĥÐ±Ð°ÑĪ": 6832,
      "ĠÐŁÐ¾Ð¼Ð¸Ð»ÑĥÐ¹ÑĤÐµ": 6833,
      "ĠÐĵÐ¾ÑģÐ¿Ð¾Ð´Ð°": 6834,
      "ĠÐ¿ÑĢÐµÐ´Ð¾ÑģÑĤÐµÑĢÐµÐ¶": 6835,
      "ĠÐ¿Ð¾Ð¼Ð¾Ð»ÑĩÐ°Ð²": 6836,
      "ĠÐ±ÐµÑģÐºÐ¾Ð½ÐµÑĩ": 6837,
      "ÑģÐºÐ°ÐºÐ°Ð»": 6838,
      "ĠÐłÐ¾ÑģÑģÐ¸Ð¸": 6839,
      "Ð²ÑĭÑĢÐ½ÑĥÐ»": 6840,
      "ĠÐ¿ÑĥÐ½Ðº": 6841,
      "ĠÐ¼ÑĢÐ°ÐºÐµ": 6842,
      "ĠÑįÐ¿Ð¾Ð»ÐµÑĤÑĭ": 6843,
      "ĠÐ³ÑĢÐ¾ÑħÐ¾ÑĤÐ¾Ð¼": 6844,
      "ĠÐ²ÑģÑħÐ»Ð¸Ð¿": 6845,
      "ĠÐ·Ð°Ð¸ÐºÐ°ÑıÑģÑĮ": 6846,
      "ĠÑģÐ¼ÑıÐ³Ñĩ": 6847,
      "ÑģÑĤÑĢÐµÑĩÑĥ": 6848,
      "ĠÐ¿Ð»ÐµÐ¼ÑıÐ½": 6849,
      "ĠÑģÐ¾Ð·ÐµÑĢÑĨ": 6850,
      "ĠÐŁÑĢÐ¸Ð·Ð½Ð°": 6851,
      "ĠÑģÐ¸ÑģÑĤÐµÐ¼": 6852,
      "ĠÐ¿ÐµÑĪÐºÐ¾Ð¼": 6853,
      "Ð¿ÐµÑĢÐ²ÑĭÑħ": 6854,
      "ĠÐ½Ð°ÑĢÐ¾ÑĩÐ½Ð¾": 6855,
      "ĠÐ²Ð·Ð°Ð¸Ð¼": 6856,
      "ĠÑĦÑĥÑĢÐ°Ð¶": 6857,
      "ĠÐ·Ð°ÑĪÐ°Ð³Ð°Ð»": 6858,
      "ĠÐ¾Ð¼ÐµÑĢÐ·": 6859,
      "ĠÐ¼ÑĢÐ°ÑĩÐ½Ð¾": 6860,
      "ĠÐ¼Ð¾ÑĩÐ¸": 6861,
      "ĠÐºÐ¾ÑĪÐµÐ»ÐµÐº": 6862,
      "ĠÐ¡ÐµÑĢÐ³ÐµÐ¹": 6863,
      "ĠÐļÑįÐ³Ñģ": 6864,
      "ĠÐļÐ¸ÑģÐ»Ð¾Ð²Ð¾Ð´": 6865,
      "ĠÐ²Ð¾Ð·ÑĢÐ°Ð·Ð¸Ð»Ð°": 6866,
      "ĠÐ±ÐµÑģÐ¿Ð¾Ð¼Ð¾Ñī": 6867,
      "18": 6868,
      "34": 6869,
      "?Â»": 6870,
      "an": 6871,
      "re": 6872,
      "Ġ6": 6873,
      "Ġ7": 6874,
      "ÐµÑģÑĤÐ²Ð°": 6875,
      "ÑĤÐµÐ½": 6876,
      "ÑĤÐ¸Ð²": 6877,
      "ÑĤÐµÐ¿": 6878,
      "Ð¸ÑĢÐ°Ð²": 6879,
      "Ð¸ÑĢÐ¾Ð²": 6880,
      "Ð»ÐµÑĢ": 6881,
      "Ð»Ð¾ÑĤ": 6882,
      "Ð½ÐµÐº": 6883,
      "Ð½Ð°Ð¼Ð¸": 6884,
      "Ð½ÐµÐ»Ð¾": 6885,
      "Ð½Ð°Ð´ÑĨÐ°ÑĤÐ¸": 6886,
      "ÑĢÑĭÐ¹": 6887,
      "ÑĥÑģÑĤÐ¸": 6888,
      "ĠÑģÐµÑĤ": 6889,
      "ĠÑģÐ¾Ðº": 6890,
      "ĠÑģÐ¸Ð½": 6891,
      "ĠÑģÐµÐ²": 6892,
      "ĠÑģÐ»Ð¸Ð²": 6893,
      "ĠÑģÐ½Ð¸Ð·": 6894,
      "ĠÑģÐ¾ÐºÑĢÐ¾Ð²": 6895,
      "ĠÑģÑĥÐ½ÑĥÐ»": 6896,
      "ĠÑģÐ½Ð°ÑĢÑĥÐ¶Ð¸": 6897,
      "ĠÐ¿ÑĥÑģÑĤÐ¾": 6898,
      "ĠÐ¿Ð¾Ð¹Ð´ÐµÑĪÑĮ": 6899,
      "ÐºÐ°ÑĤÑĮ": 6900,
      "ÐºÐ½ÑĥÐ»Ð¸": 6901,
      "ÐºÐ°Ð¿Ð¸ÑĤÐ°Ð½Ð°": 6902,
      "ĠÐ²Ð¸": 6903,
      "ĠÐ²Ð¾ÑģÑĮ": 6904,
      "ÑĩÐ¾Ð½": 6905,
      "ÑĩÐµÑĤÑĭ": 6906,
      "Ð²Ð¾ÑĤ": 6907,
      "Ð²Ð°Ð¶": 6908,
      "Ð²ÐµÐ»Ð¾": 6909,
      "ĠÐ¾Ð²ÑĢ": 6910,
      "Ð´Ñı": 6911,
      "Ð´ÐµÐ¹": 6912,
      "Ð´Ð°Ð»Ð°": 6913,
      "ĠÐ¸Ñī": 6914,
      "ĠÐ¸ÑģÑĤÐ¸": 6915,
      "Ð¼Ð¸Ð½": 6916,
      "ÑģÑĤÑıÐ¼": 6917,
      "Ð°Ð»ÐµÐºÐ¾": 6918,
      "ĠÐºÐ¾ÑĤ": 6919,
      "ĠÐºÐ¾ÐºÐµÑĤ": 6920,
      "ĠÐ¼Ð°ÑĪ": 6921,
      "ĠÐ¼Ð¾ÑĢÐµ": 6922,
      "ĠÐ¼ÑĥÐºÐ¸": 6923,
      "ĠÐ¼Ð°ÑģÑĤÐµÑĢ": 6924,
      "ÑĪÐ°": 6925,
      "ÑĪÐµÐ±": 6926,
      "ÑĪÐºÐ¾": 6927,
      "ÐµÑĢÐ½ÑĥÑĤ": 6928,
      "ÐµÐ½ÐºÐ°": 6929,
      "ÐµÐ½Ð´Ð°Ð½": 6930,
      "ÑħÐ²Ð°Ñĩ": 6931,
      "ĠÐ´Ð°Ð½": 6932,
      "ĠÐ´ÐµÑĪ": 6933,
      "ĠÐ´ÑĢÐ°ÑĤÑĮÑģÑı": 6934,
      "ĠÐ±Ð¸": 6935,
      "ĠÐ±Ð¸ÑĤ": 6936,
      "ĠÐ±ÐµÐ»ÑĮ": 6937,
      "ĠÐ±ÐµÑĪ": 6938,
      "Ð¾Ð²Ð¾Ð¼": 6939,
      "Ð¾Ð²Ð°Ð»Ð¸ÑģÑĮ": 6940,
      "ÐµÑĤÐ¸Ð¹": 6941,
      "ÑİÑĪ": 6942,
      "ĠÐ¿ÑĢÐµÑĤ": 6943,
      "ĠÐ¿ÑĢÑĭÑĤÑĮ": 6944,
      "ĠÐ¿ÑĢÐ¾Ð¹Ð´ÐµÑĤ": 6945,
      "ĠÑĤÐ°ÑĢ": 6946,
      "ĠÑĩÐ°Ñı": 6947,
      "ĠÑĩÐµÑĩÐµÐ½": 6948,
      "ÐµÐ»Ð¾Ð¼": 6949,
      "ÐµÐ»ÐµÑĨ": 6950,
      "ĠÐ·Ð¾Ð»": 6951,
      "ĠÑĥÑĪÐ¸": 6952,
      "ĠÑĥÐ³Ð»Ñı": 6953,
      "ĠÑĥÑĢÐ¾Ð´": 6954,
      "ĠÑĥÐ»ÐµÐ³": 6955,
      "ĠÑĥÑĨÐµÐ¿": 6956,
      "ĠÑĥÐµÐ´Ð¸Ð½": 6957,
      "Ð½Ð¾ÑģÑĤÑıÐ¼Ð¸": 6958,
      "Ð¾Ð»ÐµÐµ": 6959,
      "Ð¿ÐµÑĢ": 6960,
      "Ð¿ÑĢÐ°Ð²": 6961,
      "Ð¿ÐµÐ´Ð¸": 6962,
      "Ð¾Ð´Ð¾Ð±": 6963,
      "Ð¾Ð´Ð²Ð¸": 6964,
      "Ð·Ð¾ÑĢ": 6965,
      "Ð¶Ñĥ": 6966,
      "ĠÑĢÐ¾Ð·": 6967,
      "ĠÑĢÑĤÑĥ": 6968,
      "ĠÐ½Ð°ÑĢÑı": 6969,
      "ĠÐ½Ð°ÑĪÐ»Ð°": 6970,
      "ĠÐ½Ð°Ð¸Ð±": 6971,
      "ĠÐ¿Ð¾ÑĢÐ°Ð¶": 6972,
      "ĠÐ¿Ð¾ÑģÑĤÐ¸Ð³": 6973,
      "ĠÐ¿Ð¾Ð¸ÑģÑĤÐ¸Ð½Ðµ": 6974,
      "ÐµÐ´Ñĥ": 6975,
      "ÐµÐ´ÐµÐ½": 6976,
      "Ð°Ð²ÑĪÐµÐ¼Ñĥ": 6977,
      "Ð°Ð²ÑĪÐ¸Ð¼Ð¸": 6978,
      "Ð³Ð°Ð½Ð¸": 6979,
      "ĠÐ»Ð¶": 6980,
      "ĠÐ»ÑĥÐ³": 6981,
      "ĠÐ»Ð¾Ñħ": 6982,
      "ĠÐ»Ð°ÑĢÑĮ": 6983,
      "ĠÐ»ÑĥÐºÐ°Ð²": 6984,
      "Ð¾ÑĢÐ¾Ð¶": 6985,
      "ĠÐ¾ÑĤÑģÑĤ": 6986,
      "ĠÐ¾ÑĤÑĢÑĭÐ²": 6987,
      "ĠÐ¾ÑĤÐ»Ð¾Ð¶": 6988,
      "ĠÐ¾ÑĤÑĤÐ¾Ð³Ð¾": 6989,
      "Ð¾Ð³Ð¾Ð²": 6990,
      "Ð¾ÑĤÐºÐ¸": 6991,
      "Ð¾ÑĤÐ²Ð¾ÑĢ": 6992,
      "ÑģÐºÐ¾Ñĩ": 6993,
      "Ð¸Ð²Ð°Ð»Ð°ÑģÑĮ": 6994,
      "ĠÐ³ÑĢÐ°": 6995,
      "ĠÐ³ÑĢÐ°ÑĦ": 6996,
      "ĠÐ³ÑĥÑģÑĤÐ¾": 6997,
      "Ð¸Ð¼Ð¾Ð³Ð¾": 6998,
      "Ð¸Ð¼Ð¾ÑģÑĤÐ¸": 6999,
      "Ð°Ð´Ð°": 7000,
      "Ð°Ð´Ð¾Ð¼": 7001,
      "Ð°Ð´ÑĥÐ¼": 7002,
      "Ð¸Ð½Ð°Ð¼Ð¸": 7003,
      "Ð°ÑģÐ¸": 7004,
      "Ð¾ÑģÐ¾Ð±Ð½Ð¾": 7005,
      "Ð¾ÑģÑĤÐ¾ÑĢÐ¾Ð¶": 7006,
      "ĠÐ²ÑĭÑĤÐ°": 7007,
      "ĠÐ²ÑĭÑħÐ²Ð°ÑĤ": 7008,
      "ĠÐ¿ÑĢÐ¸Ð»Ð¸": 7009,
      "ĠÐ¿ÑĢÐ¸ÑĩÐ¸Ð½Ð°": 7010,
      "ĠÐŀÑģÑĤÐ°Ð²": 7011,
      "ĠÑģÑĤÐ¸Ñģ": 7012,
      "ĠÑģÑĤÑĢÐ¾": 7013,
      "Ð°ÑĤÐ°": 7014,
      "ĠÐ¼Ð¸Ð½Ñĥ": 7015,
      "ĠÐ¾Ð±Ð¼ÐµÐ½": 7016,
      "ÐµÐ²Ð¸Ð´": 7017,
      "ĠÑģÐ²Ð¸Ð½": 7018,
      "ĠÑģÐ²ÑıÑĤ": 7019,
      "Ð°Ð½Ð½Ð¾": 7020,
      "ĠÐĿÑĭÐ½ÑĩÐµ": 7021,
      "ĠÑħÐ¾Ñħ": 7022,
      "ĠÑħÐ»Ð°Ð´Ð½Ð¾ÐºÑĢÐ¾Ð²": 7023,
      "ĠÑħÐ²Ð¾ÑģÑĤ": 7024,
      "ĠÑĤÐ°ÐºÐ¾Ð²": 7025,
      "ĠÐ¿Ð¾Ð´ÐµÐ¹": 7026,
      "ĠÐ¿Ð¾Ð´Ð¾Ð¶Ð´": 7027,
      "ĠÐ¿Ð¾Ð´ÑħÐ¾Ð´Ð¸ÑĤ": 7028,
      "ĠÐ¿Ð¾Ð´Ð°Ð»ÑĮÑĪÐµ": 7029,
      "ĠÐ¿Ð¾Ð´ÐµÐ»Ð°ÑĤÑĮ": 7030,
      "ÐµÐ»ÑĮÑģÐ¸Ð½": 7031,
      "ĠÐĳÐ¾": 7032,
      "ĠÐĳÐ¾ÑİÑģÑĮ": 7033,
      "ĠÐ½Ð¸ÑģÐºÐ¾Ð»ÑĮÐºÐ¾": 7034,
      "ÐµÐºÑĥ": 7035,
      "ĠÐ¡Ð»ÑĭÑĪÐ¸ÑĪÑĮ": 7036,
      "ĠÐ¸Ð·Ð»Ð¾Ð¶": 7037,
      "ĠÐŁÐ¾Ð¿": 7038,
      "ĠÐŁÑĥÑģÐº": 7039,
      "ĠÐŁÐµÑĢÐ²": 7040,
      "ĠÐŁÐ¾ÑģÑĤÐ¾Ð¹": 7041,
      "ĠÐĴÐ°Ñģ": 7042,
      "ĠÐ³Ð¾ÑĤÐ¾Ð²Ð°": 7043,
      "Ð»ÑĮÐ·": 7044,
      "Ð°Ð¶Ð´Ð°": 7045,
      "ÑģÑĤÑĮÑģÑı": 7046,
      "Ð½ÑıÑĤÑĮÑģÑı": 7047,
      "ĠÑĢÐ°Ð·Ð´ÐµÐ»": 7048,
      "ĠÑĢÐ°Ð·ÑĭÐ³": 7049,
      "Ð¾ÑĩÑĥ": 7050,
      "Ð¾ÑĩÐ½Ð¸Ðº": 7051,
      "ĠÐľÐ°ÑĪ": 7052,
      "ÐµÐ¶Ð°Ð»Ð¸": 7053,
      "ÐµÐ½ÑĮÐ¸": 7054,
      "ĠÐļÑĢÐ¸": 7055,
      "ĠÐļÐ¾Ð¼Ñĥ": 7056,
      "Ð°Ð»ÑĮÐ½Ð¾Ð¹": 7057,
      "Ð°Ð»ÑĮÐ½ÑĭÑħ": 7058,
      "ĠÐ»Ð¸ÑĩÐ½Ð¾": 7059,
      "ÑĢÐ¸Ð³": 7060,
      "ÑĢÐ¸ÑĨ": 7061,
      "ÑĥÑĩÐ¸Ð»": 7062,
      "ÑĥÑĩÐ¸ÑĤÑĮ": 7063,
      "ĠÐ¾Ð´ÐµÐ¶Ð´Ñĥ": 7064,
      "ĠÐ¾Ð´Ð½Ð°Ð¶Ð´Ñĭ": 7065,
      "ĠÐĶÐ¾Ð¼": 7066,
      "ĠÐĶÐ¾Ð±": 7067,
      "ĠÐĶÐ²Ð°": 7068,
      "ĠÐĶÐµÐ²ÑĥÑĪÐºÐ°": 7069,
      "ÑĥÑĪÐºÐ¸": 7070,
      "Ð°Ð³ÐµÐ·": 7071,
      "ÑģÐ»Ð¸Ð²": 7072,
      "ĠÐ¯Ð²": 7073,
      "ĠÐ¯Ð½ÐºÐ¾": 7074,
      "ÑĪÐµÐµÑģÑı": 7075,
      "ÐĿÐµÐ´": 7076,
      "ÐµÐ³ÐºÐ¾": 7077,
      "ÐµÐ³Ð°Ð»Ð°": 7078,
      "ĠÐ²Ð·ÑĢÐ¾Ñģ": 7079,
      "ĠÐ²Ð·ÑĢÑĭÐ²": 7080,
      "ĠÐ²Ð·ÑıÐ»ÑģÑı": 7081,
      "ĠÐ¿Ð¾Ð»Ð´": 7082,
      "ĠÐ¿Ð¾Ð»Ð¿": 7083,
      "ĠÐ¿Ð¾Ð»Ð·": 7084,
      "ĠÐ¿Ð¾Ð»Ð½Ð¾Ðµ": 7085,
      "ĠÐ¿Ð¾Ð»ÐºÐ¾Ð²": 7086,
      "ĠÑĢÑĥÐºÐ¾Ñİ": 7087,
      "ĠÐ¿Ð¾ÐºÑĢÑĭ": 7088,
      "ĠÐ¿Ð¾ÐºÐ¾Ð½ÑĩÐ¸Ð²": 7089,
      "ÑĭÐ²Ð°Ð½Ð¸Ðµ": 7090,
      "ĠÑģÐ°Ð¼ÑĭÐ¼Ð¸": 7091,
      "ÑĤÐ¸Ñı": 7092,
      "ĠÑĢÐ°ÑģÑģÑĤÐ°Ð²": 7093,
      "ÐµÐ½Ð½Ð¾ÑģÑĤÐ¸": 7094,
      "ĠÑģÐ¼ÐµÑİ": 7095,
      "Ð¸ÑĤÐµÐ»ÑĮÐ½Ð¾Ð¼": 7096,
      "ĠÐĵÐ¾ÑĢ": 7097,
      "ĠÐĺÐ½": 7098,
      "ĠÐ·Ð½Ð°ÑĤ": 7099,
      "ĠÐ²Ð¾Ð¾Ð±ÑīÐµ": 7100,
      "ĠÐ¿Ð¾ÑĤÐ°Ñī": 7101,
      "ĠÐ¾ÑĤÐ²ÐµÑĤÐ°": 7102,
      "ĠÑĥÐ¶Ð¸Ð½": 7103,
      "ĠÐ²Ð¾Ð·ÑĮÐ¼Ð¸": 7104,
      "ÐĴÐ¸Ð´": 7105,
      "ÐĴÐµÑĢÐ½Ð¾": 7106,
      "ĠÐºÑĢÐ¸ÑĤ": 7107,
      "ĠÐºÑĢÐµÑģÑĤ": 7108,
      "ĠÐ¿ÑĢÐµÐ´Ð²": 7109,
      "ĠÐ¿ÑĢÐµÐ´ÑģÐµÐ´": 7110,
      "ĠÐ¿ÑĢÐµÐ´ÑĩÑĥÐ²": 7111,
      "ĠÐ´ÐµÐ»Ð°Ð»": 7112,
      "ĠÐ±Ð¾Ð»ÑĮÑĪÐµÐ¹": 7113,
      "ĠÐ¾ÑģÐµÐ´": 7114,
      "ĠÐ¿Ð¾Ð²ÑģÐµÐ´": 7115,
      "ĠÑģÐ¾Ð±Ð¸ÑĢÐ°ÑıÑģÑĮ": 7116,
      "ĠÑģÐ¾Ð±Ð¸ÑĢÐ°Ð»ÑģÑı": 7117,
      "ĠÐºÐ¾Ð¼ÐµÐ½Ð´Ð°Ð½": 7118,
      "ĠÐ´Ð¾Ð»Ñİ": 7119,
      "ĠÐ´Ð¾Ð»Ð¾Ð¶": 7120,
      "ĠÐ³Ð¾Ð²Ð¾ÑĢÐ¸": 7121,
      "ÑĩÐµÑģÑĤÐ²Ðµ": 7122,
      "ĠÑħÐ¾ÑĤÐ¸Ð¼": 7123,
      "ÑĥÑģÑĤÐ¸Ð»": 7124,
      "ĠÐ³Ð»Ð°Ð·Ñĥ": 7125,
      "ÑĢÐ°ÑĤÐ½Ð¾": 7126,
      "ĠÐ¾ÐºÐ°Ð·Ð°Ð»Ð°": 7127,
      "ĠÐ¿Ð¾Ð¼Ð½Ð¸ÑĤÐµ": 7128,
      "ĠÐ¿Ð¾Ð¼Ð¸Ð»ÑĥÐ¹": 7129,
      "ĠÑĩÐµÑĢÐµÐ¿": 7130,
      "ĠÑĩÐµÑĢÐ½Ð°Ñı": 7131,
      "ĠÑĩÐµÑĢÑĤÑĭ": 7132,
      "ĠÑĤÑĢÐµÑĤÐ¸Ð¹": 7133,
      "ĠÑĨÐµÐ½ÑĤ": 7134,
      "ĠÐ»ÑİÐ±Ð¸ÑĤÐµ": 7135,
      "ĠÐ±ÐµÐ·Ð³ÑĢÐ°": 7136,
      "ĠÐ·Ð°ÐºÐ¾": 7137,
      "ĠÑģÐ»Ð¾Ð²ÐµÑĩÐºÐ¾": 7138,
      "ĠÐµÐ²ÑĢÐµÑİ": 7139,
      "ĠÐ¼Ð¸Ð»Ð¾Ð¹": 7140,
      "ĠÑĤÐµÐ¼Ð½ÑĭÑħ": 7141,
      "ĠÑĤÐµÐ¼Ð½Ð¾Ð¼": 7142,
      "ĠÐ¿ÑĢÐ°Ð²Ð´Ðµ": 7143,
      "ĠÐ¿ÑĢÐ°Ð²Ð¸ÑĤÐµÐ»ÑĮ": 7144,
      "ĠÐĽÑİ": 7145,
      "ĠÐĽÐ°ÐºÐµÐ¹": 7146,
      "ĠÐĽÐ¾Ð²ÐºÐ¸Ð¹": 7147,
      "ĠÐ½Ð°ÑģÐµÐ»": 7148,
      "ĠÐ´Ð¾Ð±Ð°Ð²Ð¸Ð»Ð°": 7149,
      "ÐĶÐ¾Ð²Ð¾Ð»ÑĮÐ½Ð¾": 7150,
      "ĠÑģÐ¾Ð²ÐµÑĤÑĥ": 7151,
      "ĠÐ¶ÐµÐ½ÑģÐºÐ¸Ð¹": 7152,
      "Ð¸Ð¹ÑĨÐ°": 7153,
      "ĠÐ½Ð°Ð¿Ð°Ð´": 7154,
      "ĠÐ¾ÑģÑĤÐ°Ð»Ð¸ÑģÑĮ": 7155,
      "ĠÐĹÐ°Ð¿": 7156,
      "ĠÐ¼Ð¾Ð»Ð¾Ð´ÑĭÐ¼": 7157,
      "ĠÑģÑĤÑĢÐ°ÑģÑĤÐ½Ð¾": 7158,
      "Ð°Ð½Ð¸ÑıÐ¼Ð¸": 7159,
      "Ð¸ÑĤÐµÐ»ÑĮÐ½Ð¾ÑģÑĤÑĮ": 7160,
      "ĠÑĥÑĤÐ¸Ñħ": 7161,
      "ĠÑĥÑĤÑĢÐµÐ½": 7162,
      "ÐķÐ³Ð¾": 7163,
      "ĠÐ²Ð·Ð³Ð»ÑıÐ½ÑĥÐ»": 7164,
      "ĠÐ²Ð·Ð³Ð»ÑıÐ½ÑĥÐ²": 7165,
      "Ð°ÑĤÐµÐ»ÑĮÐ½Ð¾Ð³Ð¾": 7166,
      "ÑģÑĤÐ²ÐµÐ½Ð½ÑĭÑħ": 7167,
      "ÑģÑĤÐ²ÐµÐ½Ð½ÑĥÑİ": 7168,
      "Ð¢Ð¾Ð»ÑĮÐºÐ¾": 7169,
      "ĠÐ±ÐµÑģÑĪ": 7170,
      "ĠÐ·Ð°Ð²Ð¾Ð¿": 7171,
      "ĠÐ·Ð°Ð²Ð¸Ñģ": 7172,
      "Ð»ÐµÐ½Ð½ÑĭÐµ": 7173,
      "Ð»ÐµÐ½Ð½ÑĭÑħ": 7174,
      "ĠÑĥÐ¿ÑĢÐ°Ð¶": 7175,
      "ÑģÐ¸Ñİ": 7176,
      "ĠÑĥÐ²ÐµÐ·": 7177,
      "ĠÑģÑĤÐ°ÑĢÑĥÑİ": 7178,
      "ÑģÑĤÐ²Ð¾Ð²Ð°Ð»Ð¾": 7179,
      "ĠÐ³Ð¾Ð»Ð¾ÑģÐ¾Ð²": 7180,
      "ĠÑĥÐ³Ð½ÐµÑĤ": 7181,
      "ĠÐ¿Ð¾Ð¿Ð°ÑģÑĤÑĮ": 7182,
      "ĠÐ»ÑĥÑĩÑĪÐµÐ³Ð¾": 7183,
      "ĠÐ»ÑĥÑĩÑĪÐ¸Ðµ": 7184,
      "ĠÐ¾Ð´Ð¸Ð½Ð½Ð°Ð´ÑĨÐ°ÑĤÑĮ": 7185,
      "ĠÐ½ÐµÐ´ÑĥÑĢ": 7186,
      "ĠÐ½ÐµÐ´Ð¾Ð»Ð³Ð¾": 7187,
      "ĠÐºÐ¾Ð»Ñı": 7188,
      "ĠÐºÐ¾Ð»ÐµÐ½": 7189,
      "ĠÐºÐ¾Ð»ÐµÐ½ÑıÑħ": 7190,
      "ÑĪÑĮÑģÑı": 7191,
      "ĠÑģÑĤÐ¾ÑĢÐ¾Ð¶": 7192,
      "ĠÐ·Ð°Ð´ÑĭÑħ": 7193,
      "ĠÐ¿Ð¾Ð¶Ð¸Ð¼Ð°Ñı": 7194,
      "ÐĵÐ¼": 7195,
      "ÐĵÐ¾ÑģÐ¿Ð¾Ð´": 7196,
      "ĠÐ¾ÑĤÐºÐ°Ð·": 7197,
      "ĠÐ¾ÑĤÐºÐ°Ð·ÑĭÐ²": 7198,
      "ĠÑĥÐºÑĢÐµÐ¿": 7199,
      "ĠÑĥÐºÐ°Ð·Ð°Ð»Ð°": 7200,
      "ĠÐ²Ð°ÑĪÐµÐ¼": 7201,
      "Ð¾ÑħÐ½ÑĥÑĤÑĮ": 7202,
      "ĠÐ±ÐµÐ´Ð½ÑĭÑħ": 7203,
      "ĠÐ²Ð·Ð³Ð»ÑıÐ´Ñĭ": 7204,
      "ĠÐºÐ¾ÑĢÐ¼": 7205,
      "ĠÑģÐ»ÐµÐ´Ñĭ": 7206,
      "ĠÑģÐ»ÐµÐ´Ð¸Ð»": 7207,
      "ĠÑģÐ»ÐµÐ´ÑģÑĤÐ²Ð¸Ðµ": 7208,
      "ĠÐ²Ð¾Ð»ÑĪÐµÐ±": 7209,
      "ĠÐ½ÐµÐ²Ð·": 7210,
      "ĠÐ±ÑĢÐ¾ÑģÐ¸ÑĤÑĮ": 7211,
      "Ð±Ð¾ÐµÐ´": 7212,
      "ĠÐ²Ð´Ð¾Ð»ÑĮ": 7213,
      "ĠÐ²Ð´Ð²Ð¾Ðµ": 7214,
      "ĠÐ¥Ð¾ÑĢÐ¾ÑĪ": 7215,
      "ĠÐ¿ÑĢÐ¸ÑħÐ¾Ð´Ð¸ÑĤ": 7216,
      "ĠÐ¿ÑĢÐ¸ÑħÐ¾Ð´ÑģÐºÐ¸Ñħ": 7217,
      "ĠÐ¿ÐµÑĢÐ²Ð¾Ð¼": 7218,
      "ĠÐ¿ÑĢÐ¾ÑĪÐ»Ð¾Ð¼": 7219,
      "ĠÑĢÐ°ÑģÑĤÑı": 7220,
      "ĠÐ¿Ð¾ÑģÐ»ÐµÐ´ÑģÑĤÐ²Ð¸Ñı": 7221,
      "ĠÐ¿Ð¾ÑģÐ»ÐµÐ´Ð½ÐµÐ³Ð¾": 7222,
      "ĠÐ¼ÑĥÐ¶ÑĩÐ¸Ð½Ñĥ": 7223,
      "ĠÐ¿Ð¾ÑĢÐ¾Ñĩ": 7224,
      "ĠÐ¿Ð¾Ð±ÐµÑĢÐ¸": 7225,
      "ĠÐ¿ÑĢÐ¸Ð·Ð°Ð´ÑĥÐ¼": 7226,
      "ĠÑİÐ½Ð¾": 7227,
      "ĠÐ·Ð°ÑģÑĥÐ½ÑĥÐ»": 7228,
      "ĠÐ¾ÑģÑĤÐ°Ð²Ð°Ð»Ð¾ÑģÑĮ": 7229,
      "Ð·Ð¸ÑĢÐ°Ñı": 7230,
      "ĠÐ½Ð°Ð²ÑģÑĤÑĢÐµÑĩÑĥ": 7231,
      "Ð½ÑıÐ»ÑģÑı": 7232,
      "ĠÐºÐ°Ð·Ð°Ð»Ð°ÑģÑĮ": 7233,
      "ĠÑĢÐ°ÑģÑģÐºÐ°Ð·Ð°Ð»Ð°": 7234,
      "ĠÐ¿ÑĢÐ¾Ð±ÑĥÐ´": 7235,
      "ÑıÑīÐ°Ñı": 7236,
      "ÑıÑīÐ¸Ð¼Ð¸": 7237,
      "ĠÐ¿Ð¾ÑģÐ¼Ð¾ÑĤÑĢÐ¸ÑĤÐµ": 7238,
      "ÑĢÐ°Ð½ÑĨÑĥÐ·": 7239,
      "ÐĳÐ¸Ð»Ð»": 7240,
      "ĠÐ·Ð²ÑĥÐº": 7241,
      "ĠÐ½ÐµÐ·Ð°Ð²": 7242,
      "ĠÐ¶Ð¸Ð²ÑĭÑħ": 7243,
      "ĠÐ²ÑĭÑģÐ¾ÐºÐ¾Ð¹": 7244,
      "ĠÐ²ÑĭÑģÑĪÐµÐ¹": 7245,
      "ĠÐ²ÑĭÑģÐ¾ÐºÐ¾": 7246,
      "ĠÐ²ÑģÑıÐºÐ¾Ð¹": 7247,
      "ÐĿÐµÑĥÐ¶ÐµÐ»Ð¸": 7248,
      "ÑĢÐµÐºÐ¸": 7249,
      "ĠÐºÑĢÐµÐ¿Ð¾ÑģÑĤÑĮ": 7250,
      "ĠÑĥÑģÐ¿Ð¾ÐºÐ°": 7251,
      "ĠÐ¾Ð³Ð½Ñİ": 7252,
      "ĠÐ½Ð°ÑħÐ¾Ð´Ð¸Ð»Ð¾ÑģÑĮ": 7253,
      "ĠÐ¾Ð±ÑĬÑıÑĤ": 7254,
      "ĠÐ¾Ð±ÑĢÐ°ÑīÐ°Ð¹ÑĤÐµ": 7255,
      "ĠÐ¸Ð´Ð¸": 7256,
      "ĠÐ½Ð¾ÑģÑĥ": 7257,
      "ĠÐ±Ð¸Ð´Ð»Ð¾Ð¼": 7258,
      "ĠÑģÐ»ÑĥÐ¶Ð°Ð½": 7259,
      "ĠÑĥÐ¼ÐµÑĢÐ»Ð¸": 7260,
      "ĠÐ¿Ð°ÑĢÐ¸": 7261,
      "Ð¾Ð»Ð½ÑĨÐµ": 7262,
      "ĠÑħÐ¾Ð»Ð¾Ð´Ð½Ð°Ñı": 7263,
      "ĠÑĥÐ²ÐµÑĢÐ¸ÑĤÑĮ": 7264,
      "ĠÐ²Ð¾Ð·Ð²ÐµÑī": 7265,
      "ĠÐ³ÑĢÐ¾Ð±Ð°": 7266,
      "ĠÐŀÑĤÑĩÐµÐ³Ð¾": 7267,
      "ĠÑĢÐ°Ð·Ð²ÐµÑģ": 7268,
      "ĠÑģÐºÐ°Ð¶ÐµÑĤ": 7269,
      "Ð¥Ð¸Ð»Ð»": 7270,
      "ĠÐ¿Ð¾Ð»ÑĥÑĩÐ¸Ð²": 7271,
      "ĠÐ±ÐµÑģÐ¿Ð¾Ñī": 7272,
      "Ð£Ð¶": 7273,
      "ĠÑģÑĥÐ´ÐµÐ¹": 7274,
      "ĠÑģÑĥÐ´ÐµÐ±": 7275,
      "ĠÐ·Ð°ÑĢÑı": 7276,
      "ÑĢÐµÐ¶Ð´": 7277,
      "ĠÐ¿Ð¾ÑģÑĤÑĥÑĩÐ°Ð»": 7278,
      "ĠÐ¿ÑĢÐ¾Ð²Ð¾Ð¶": 7279,
      "ĠÐ´ÐµÑĢÐ¶Ð°ÑĤÑĮ": 7280,
      "ĠÐ¶Ð°Ð»ÐºÐ¸Ðµ": 7281,
      "ĠÐ²ÑĭÐ·Ð²Ð°ÑĤÑĮ": 7282,
      "ĠÑģÑĤÑĢÐ°Ð½Ð½Ð¾Ðµ": 7283,
      "ĠÐ²ÐµÑĤÑħ": 7284,
      "ĠÑĩÐ°ÑģÑĤÑĮÑİ": 7285,
      "ĠÐ´Ð¾Ð±ÑĢÐ¾ÑĤÐµ": 7286,
      "ÐļÐ°ÐºÐ¾Ð¹": 7287,
      "ĠÐ¸Ð³ÑĢÐ°Ð»Ð¸": 7288,
      "ĠÐ¾Ð±ÑĢÐ°ÑĤÐ¸Ð»": 7289,
      "ĠÐ±Ð»Ð°Ð³Ð¾ÑĢÐ°Ð·ÑĥÐ¼": 7290,
      "ĠÐ±Ð»Ð°Ð³Ð¾ÑģÐºÐ»Ð¾Ð½": 7291,
      "ĠÐ½ÐµÐ¾Ð±ÑĭÐºÐ½Ð¾Ð²": 7292,
      "ĠÑģÐ²ÐµÑĩÐ¾Ð¹": 7293,
      "ĠÐ±Ð»ÐµÐ´Ð½ÑĭÐ¹": 7294,
      "ĠÐ±Ð»ÐµÐ´Ð½ÑĭÐµ": 7295,
      "ĠÐ±Ð»ÐµÐ´Ð½Ð¾Ðµ": 7296,
      "ĠÐ¿ÑĢÐ¸ÑĤÐ¾Ð¼": 7297,
      "ĠÐ±ÐµÑĢÑı": 7298,
      "ĠÐ¿ÑĢÐ¾ÑģÑĤÑĥÐ´": 7299,
      "ĠÐ·Ð°Ð½ÑıÐ»": 7300,
      "ĠÑĢÐ°ÑģÐºÑĢÑĭÑĤ": 7301,
      "ĠÐ¿Ð¸ÑģÐ°ÑĤÑĮ": 7302,
      "ĠÐ±ÐµÐ»Ð¾Ð¹": 7303,
      "ĠÐºÐ»ÐµÐ²": 7304,
      "ĠÐ¿Ð¾Ð´Ð½ÑıÑĤÑĮ": 7305,
      "ĠÐĹÐ°ÑĤÐ¾": 7306,
      "ĠÐ´ÑĥÑĢÐ°Ðº": 7307,
      "ĠÑĩÑĥÐ´Ð¾Ð²": 7308,
      "ĠÑĪÐµÐ»ÐºÐ¾Ð²": 7309,
      "ĠÐ±Ð¾Ð¸ÑĤÑģÑı": 7310,
      "ĠÐ±Ð¾ÑıÐ·": 7311,
      "ÑİÑīÐµÐ¹": 7312,
      "ĠÑģÑĤÑĢÐ¾Ð³Ð¾": 7313,
      "ĠÐ¿Ð¾ÑģÑĤÑĥÐ¿ÑĮÑİ": 7314,
      "ĠÑģÐ¿ÑĥÑģÑĤÐ¸Ð»Ð¸ÑģÑĮ": 7315,
      "ĠÑģÐ¾Ð±ÑģÑĤÐ²ÐµÐ½Ð½ÑĭÐµ": 7316,
      "ĠÐ³Ð»ÑĥÐ±Ð¾ÐºÐ¸Ð¼": 7317,
      "ĠÑģÐ¾Ð¾Ð±ÑīÐ¸Ð»": 7318,
      "ĠÐ³ÑĥÐ±Ð°Ð¼Ð¸": 7319,
      "ĠÐ¾Ð¶Ð¸Ð´Ð°ÑĤÑĮ": 7320,
      "ĠÐ¿ÑĢÐµÑģÑĤÑĥÐ¿Ð½Ð¸ÐºÐ¾Ð²": 7321,
      "ÑģÑĤÐ²ÐµÐ½Ð½Ð¾ÑģÑĤÑĮ": 7322,
      "ĠÐ³ÑĢÐ°Ð±Ð¸ÑĤÐµÐ»ÐµÐ¹": 7323,
      "ĠÐ½ÐµÐ³Ð¾Ð´Ð¾Ð²": 7324,
      "ĠÐ½ÐµÑĤÐµÑĢÐ¿ÐµÐ½Ð¸ÐµÐ¼": 7325,
      "ĠÐ½ÐµÐ·Ð½Ð°ÐºÐ¾Ð¼ÑĨÐ°": 7326,
      "ĠÐ¿Ð»Ð°Ñĩ": 7327,
      "ĠÐ¿ÑĢÐ¾Ð³Ð¾Ð²Ð¾ÑĢ": 7328,
      "ĠÑĦÑĥÐ½ÑĤ": 7329,
      "ĠÑĦÑĥÐ½ÑĤÐ°": 7330,
      "ĠÐ½ÑĢÐ°Ð²Ð¸ÑĤÑģÑı": 7331,
      "ĠÐ·Ð½Ð°Ð¼ÐµÐ½": 7332,
      "ĠÐĸÐµÐ½ÑīÐ¸": 7333,
      "ĠÐ²ÑģÑĤÐ°Ð»Ð°": 7334,
      "ĠÐ¿Ð¾ÑĢÑıÐ´Ð¾Ðº": 7335,
      "ĠÐ¾Ð¿ÑĥÑģÑĤÐ¸Ð»": 7336,
      "ĠÐ¾Ð¿ÑĥÑģÑĤÐ¸Ð»ÑģÑı": 7337,
      "ÐŃÑĤÐ¸": 7338,
      "ĠÑĤÑıÐ¶ÐµÐ»ÑĭÐ¼": 7339,
      "ĠÑģÑĥÑīÐµÑģÑĤÐ²Ð°": 7340,
      "ĠÐ¿Ð°Ð»ÑĮÑĨÑĭ": 7341,
      "ĠÑĩÐ°Ð¹Ð½Ð¸Ðº": 7342,
      "ĠÐ¾ÑĤÐ²ÐµÑĢÐ½ÑĥÐ»Ð°ÑģÑĮ": 7343,
      "ĠÐ²Ð·Ð´Ð¾ÑħÐ½ÑĥÐ»": 7344,
      "ĠÐ²Ð·Ð´Ð¾ÑħÐ½ÑĥÐ»Ð°": 7345,
      "ĠÐ²Ð¾Ð·Ð´ÑĥÑħÐµ": 7346,
      "ĠÐ¿Ð¾ÐºÐ°Ð·Ð°Ð»ÑģÑı": 7347,
      "ĠÐ·Ð°ÐºÐ»ÑİÑĩÐµÐ½Ð¸Ñİ": 7348,
      "ĠÐ³Ð»ÑıÐ´Ð¸": 7349,
      "ĠÐ¿Ð¾ÑĩÑĤÐ¸ÑĤÐµÐ»ÑĮÐ½Ð¾": 7350,
      "ÐŁÐ¾ÑģÐ»ÑĥÑĪÐ°Ð¹ÑĤÐµ": 7351,
      "ĠÑģÐ»Ð°Ð²Ð½ÑĭÐ¹": 7352,
      "ĠÐ²Ð¾Ð»Ð½ÐµÐ½Ð¸Ð¸": 7353,
      "ĠÐ¿ÑĢÐ¾Ð¼ÐµÐ¶ÑĥÑĤ": 7354,
      "ĠÐ·Ð°Ð¿ÐµÑĢÐ»Ð¸": 7355,
      "ĠÐ¿ÑĢÐ¸Ð·Ð½Ð°ÑĤÑĮÑģÑı": 7356,
      "ĠÐŁÑĢÐ¾Ð½Ñĭ": 7357,
      "ĠÐ¿ÑĢÐ¸ÑĤÐ²Ð¾ÑĢÑıÑıÑģÑĮ": 7358,
      "ĠÑĢÐ°Ð·Ð¼ÑĭÑĪÐ»ÑıÐ»": 7359,
      "ĠÑĢÐ°Ð·Ð¼ÑĭÑĪÐ»ÐµÐ½Ð¸Ð¹": 7360,
      "ĠÑģÐ¼ÐµÑıÑģÑĮ": 7361,
      "ĠÐºÑĢÐµÑģÐ»Ðµ": 7362,
      "ĠÐ¿Ð¾Ð¶ÐµÐ»Ð°ÐµÑĤ": 7363,
      "ĠÐ¡Ð»ÑĭÑĪ": 7364,
      "ĠÑģÐ°Ð´Ñĥ": 7365,
      "ĠÐ¸Ð·ÑĥÐ¼Ð»ÐµÐ½Ð¸Ñı": 7366,
      "ĠÐ½ÐµÐ¸Ð·Ð±ÐµÐ¶": 7367,
      "ĠÐ»Ð¾Ð²ÐºÐ°": 7368,
      "ĠÐºÐ¾ÑģÑĤÑİ": 7369,
      "ĠÐºÐ¾ÑģÑĤÐ»ÑıÐ²": 7370,
      "ĠÐ¿ÐµÑĢÐµÑģÐ¿": 7371,
      "ĠÐ¿ÑĢÐ¸Ð´Ð²Ð¸Ð½ÑĥÐ²": 7372,
      "ĠÐ¼ÐµÐ»Ð¾Ð´": 7373,
      "ĠÐ¼ÐµÑģÑıÑĨ": 7374,
      "ÑĥÑİÑĤÑģÑı": 7375,
      "ĠÐ´Ð¾Ð±ÑĢÑĭÑħ": 7376,
      "ĠÐ±ÑĭÑģÑĤÑĢÐ¾ÑĤÐ¾Ð¹": 7377,
      "ĠÑĤÑĢÐµÐ²Ð¾Ð³Ð¾Ð¹": 7378,
      "ÐĿÐ¸ÐºÑĤÐ¾": 7379,
      "ÐĿÐ¸ÐºÐ°Ðº": 7380,
      "ĠÐ²ÑģÐºÐ¾ÑĩÐ¸Ð»Ð°": 7381,
      "ĠÑĤÐµÐ»Ð¾Ð¼": 7382,
      "ĠÑĤÐµÐ»ÐµÐ¶": 7383,
      "ĠÐ¿Ð¾Ð»Ð°Ð³Ð°Ñİ": 7384,
      "ĠÐ¿Ð°Ð¼ÑıÑĤÑĮ": 7385,
      "ĠÐ²Ð¾Ð²ÑĢÐµÐ¼Ñı": 7386,
      "ĠÐ±ÐµÑĪÐµÐ½ÑģÑĤÐ²Ð°": 7387,
      "ĠÐ¿ÑĢÐ¸Ð»Ð°Ð²": 7388,
      "ĠÐ¿ÑĢÐ¸Ð»Ð¾Ð¶": 7389,
      "ĠÐ²ÑĭÐ´ÑĥÐ¼": 7390,
      "ĠÐ¿ÑĢÐ¾ÑħÐ»Ð°Ð´": 7391,
      "ĠÑĤÐ¾Ð»ÑģÑĤÑĭÐ¹": 7392,
      "ĠÐ½Ð°ÑĩÐ¸Ð½Ð°Ð»Ð¸": 7393,
      "ĠÐ²ÑĭÑģÑĤÑĢÐµÐ»Ð¸Ð»": 7394,
      "ĠÐ¾Ð±ÑĭÐºÐ½Ð¾Ð²ÐµÐ½Ð¸Ñİ": 7395,
      "ĠÑĦÐ¸Ð·Ð¸Ð¾Ð½Ð¾Ð¼Ð¸Ñİ": 7396,
      "ĠÑĥÐ¼ÐµÐµÑĤ": 7397,
      "ĠÐ¿ÑĢÐ¸ÐºÐ°Ð·Ð°Ð²": 7398,
      "ĠÐ¿ÐµÐ½Ð½Ð¸": 7399,
      "ĠÑĥÐ³Ð¾Ñī": 7400,
      "ĠÐĿÐ°Ð´Ð¾": 7401,
      "ĠÐ½Ð°Ð´ÐµÑıÑĤÑĮÑģÑı": 7402,
      "ĠÐ·Ð°Ð½ÑıÑĤÑĭ": 7403,
      "ĠÐºÑĢÑĥÐ¿": 7404,
      "ĠÐŁÐµÑĤÐµÑĢÐ±ÑĥÑĢ": 7405,
      "ĠÐ½ÐµÐ¼Ð½Ð¾Ð³": 7406,
      "ĠÐ¿ÑĢÐ¸ÑģÑĥÑĤÑģÑĤÐ²Ð¸Ð¸": 7407,
      "ĠÐ¿Ð»Ð¾ÑīÐ°Ð´Ð¸": 7408,
      "ĠÐ½ÐµÐ¿ÑĢÐ¸ÑıÑĤÐ½Ð¾": 7409,
      "ĠÑĢÐ¾Ð¼Ð°Ð½Ð°": 7410,
      "ĠÐ³Ð°Ð·ÐµÑĤÑĥ": 7411,
      "ĠÐºÐ¾Ð»ÐµÐ±Ð°Ð»ÑģÑı": 7412,
      "ĠÑĥÐ·Ð½Ð°ÐµÑĤ": 7413,
      "ĠÐºÐ°Ð·Ð°ÐºÐ°": 7414,
      "ĠÑģÑĨÐµÐ½Ñĭ": 7415,
      "ĠÐ¼Ð¾Ð³Ð¸Ð»Ðµ": 7416,
      "ĠÐ²ÑĢÐµÐ¼ÐµÐ½Ð°Ð¼": 7417,
      "ĠÐ¥Ð¾ÑĤÐ¸ÑĤÐµ": 7418,
      "ĠÐ¾ÑĪÐ¸Ð±ÑģÑı": 7419,
      "ÐµÐ½ÑĥÑį": 7420,
      "ĠÐ¿Ð¾ÐºÐ¾Ð½ÑĩÐ¸Ð»": 7421,
      "ĠÐ¿Ð¾ÐºÐ¾Ð½ÑĩÐµÐ½Ð¾": 7422,
      "ĠÑĢÐµÐ¼ÐµÑģÐ»Ð°": 7423,
      "ĠÐ¾ÑģÐ»ÐµÐ¿": 7424,
      "Ð°ÑİÑīÐ¸Ð¹ÑģÑı": 7425,
      "ĠÐ¿Ð¾ÐºÐ¾ÑĢÐ½Ð¾": 7426,
      "ĠÐ¿ÑĢÐµÐ´Ð¼ÐµÑĤÐ¾Ð²": 7427,
      "--------------------------------": 7428,
      "ĠÐ¼Ð¾Ð»Ð¸ÑĤÐ²Ñĥ": 7429,
      "ĠÐ´Ð¶Ð¸Ð½": 7430,
      "ĠÐ¾ÑĤÐ²Ð¾ÑĢÐ°Ñĩ": 7431,
      "ĠÐ¾ÐºÐ°Ð·Ð°ÑĤÑĮÑģÑı": 7432,
      "ĠÐ¿ÑĢÐ¸Ð½ÑıÐ»Ð¸ÑģÑĮ": 7433,
      "ĠÐ¿ÑĢÐ¾Ð³ÑĥÐ»ÐºÐ¸": 7434,
      "ĠÐºÐ°Ð¿Ð»Ð¸": 7435,
      "ĠÐºÑĥÑħÐ½Ñİ": 7436,
      "ĠÐ¾Ð±Ð¸ÑĤÐ°ÑĤÐµÐ»ÐµÐ¹": 7437,
      "ĠÐ¾Ð±ÑĭÑĩÐ½ÑĭÐ¹": 7438,
      "ĠÐ°ÑĢÐ¼": 7439,
      "ĠÑĪÑĤÑĥÐºÑĥ": 7440,
      "ĠÐĵÐ¾Ð²Ð¾ÑĢÐ¸ÑĤÐµ": 7441,
      "ĠÑĦÐ°Ð¼Ð¸Ð»Ð¸Ð¸": 7442,
      "ĠÐ¿Ð»Ð°ÑĤÑĮÑı": 7443,
      "ĠÐ½Ð°ÐºÐ»Ð¾Ð½Ð¸Ð»ÑģÑı": 7444,
      "ĠÐ¾ÑĦÐ¸ÑĨÐµÑĢ": 7445,
      "ĠÐºÐ¾Ð»ÑĮÑĨÐ¾": 7446,
      "ĠÑĢÐµÐ´ÐºÐ¾": 7447,
      "ĠÐ¶ÐµÑĢÑĤÐ²Ð¾Ð¹": 7448,
      "ĠÐ½Ð¸ÑĩÑĥÑĤÑĮ": 7449,
      "ĠÑģÐ¿ÑĢÐ°ÑĪÐ¸Ð²Ð°Ñİ": 7450,
      "ĠÑĢÐ°Ð²Ð½Ð¾Ð´ÑĥÑĪ": 7451,
      "ĠÐ½Ð°ÑħÐ¼Ñĥ": 7452,
      "Ð½ÐµÑģÐ»Ð¸ÑģÑĮ": 7453,
      "ĠÐ½ÐµÑģÑĩÐ°ÑģÑĤÑĮÑİ": 7454,
      "ĠÐºÐ»Ð°Ð´Ð±": 7455,
      "ĠÐ±ÑĥÐ»ÑĮÐ²Ð°ÑĢ": 7456,
      "ĠÐ¾Ð´ÐµÐ¶Ð´Ñĭ": 7457,
      "ĠÐ¿Ð¾Ð±Ð»ÐµÐ´Ð½ÐµÐ²": 7458,
      "ĠÐºÐ°ÑĩÐµÑģÑĤÐ²Ð°": 7459,
      "ĠÑģÐ²Ð¸Ð´Ð°Ð½Ð¸Ñı": 7460,
      "ĠÑħÐ¼ÑĥÑĢÐ¾": 7461,
      "ĠÐ¿ÑĢÐµÐ´Ð¿Ð¾Ñĩ": 7462,
      "ĠÑĢÐ°Ð·Ð±Ð¾Ð¹Ð½Ð¸Ðº": 7463,
      "ĠÐ½ÐµÐ¿Ð¾Ð´Ð²Ð¸Ð¶Ð½Ð¾": 7464,
      "ĠÐ½ÐµÐ±Ð¾Ð»ÑĮÑĪÐ¾Ð¹": 7465,
      "ĠÑģÐ°Ð¿Ð¾Ð³Ð¸": 7466,
      "ĠÐ½ÐµÐ»ÐµÐ¿": 7467,
      "ĠÑħÑĢÐ¸Ð¿Ð»ÑĭÐ¼": 7468,
      "ĠÐļÐ°ÑĢÐ°Ð³ÐµÐ·": 7469,
      "ĠÐ¿ÐµÑĢÐµÐºÐ»Ð°Ð´": 7470,
      "ĠÐ¿ÐµÑĢÐµÑĪÐµÐ»": 7471,
      "ĠÐ³Ð»Ð¾ÑĤÐºÑĥ": 7472,
      "ĠÐ³Ð¾ÑĢÑĮÐºÐ¾": 7473,
      "ĠÐµÐ´Ð¸Ð½Ð¾Ð³Ð¾": 7474,
      "ĠÑħÑĢÐ°Ð±ÑĢÐ¾ÑģÑĤÐ¸": 7475,
      "ĠÐ²ÐµÐ·Ð´Ðµ": 7476,
      "ĠÐ¿ÑĢÐµÑĢÑĭÐ²": 7477,
      "ĠÐ¿Ð¾Ð´ÑĥÑĪÐºÑĥ": 7478,
      "ĠÑĪÐ°ÑĢÑĦ": 7479,
      "ĠÐļÐ°Ð²ÐºÐ°Ð·Ðµ": 7480,
      "ĠÑĢÐ°ÑģÑĤÐµÑĢÑıÐ½": 7481,
      "ÑĤÐ°Ð»ÐºÐ¸Ð²Ð°Ñı": 7482,
      "ĠÐ¾Ð²Ð»Ð°Ð´": 7483,
      "ĠÐ¿Ð¾ÑģÐ»ÑĭÑĪÐ°Ð»ÑģÑı": 7484,
      "ĠÑĥÑĩÑĤÐ¸Ð²Ð¾": 7485,
      "ĠÑĢÐ°ÑģÑģÐ»ÑĭÑĪÐ°ÑĤÑĮ": 7486,
      "ĠÑĤÑĢÐ¾Ð¿Ð¸Ð½ÐºÐµ": 7487,
      "ĠÐ²Ð»Ð¸ÑıÐ½Ð¸ÐµÐ¼": 7488,
      "ĠÐ´ÐµÐ»ÑĮÑĨÐµ": 7489,
      "ĠÐ´Ð²ÐµÐ½Ð°Ð´ÑĨÐ°ÑĤÑĮ": 7490,
      "ÐŁÐ¾Ð»Ð½Ð¾": 7491,
      "ÑĬÑıÑģÐ½Ð¸Ð¼": 7492,
      "ĠÑĪÐ¸ÑĢÐ¾ÐºÐ¾": 7493,
      "ent": 7494,
      "ĠÐ²Ð²ÐµÑĢÑħ": 7495,
      "ĠÐ´ÐµÐ»Ð¸ÐºÐ°ÑĤ": 7496,
      "ĠÑĤÐ°Ð½ÑĨÐµÐ²": 7497,
      "ĠÐ²Ð¾Ð·ÑĮÐ¼": 7498,
      "ĠÐ¼Ð°Ð·ÑĥÑĢÐºÑĥ": 7499,
      "ĠÐŁÐ°Ð²Ð»Ð¾Ð²Ð½Ð°": 7500,
      "ĠÐ¸Ð¼ÑĥÑīÐµÑģÑĤÐ²Ð¾": 7501,
      "ĠÑģÑĥÐ±ÑĬ": 7502,
      "ĠÐ¾ÐºÑĥÑĤ": 7503,
      "ĠÐ¡ÐµÑĢÐ³ÐµÐ¸Ñĩ": 7504,
      "ĠÑģÐ¿Ð¸ÑĢÑĤ": 7505,
      "ĠÐ»Ð¸ÑĩÐ¸ÐºÐ¾": 7506,
      "ĠÐĲÐ½Ð´ÑĢÐµ": 7507,
      "ĠÐ²Ð¾Ð·Ð³Ð»Ð°Ñģ": 7508,
      "ĠÐºÐ¾Ð½ÑģÑĤÐµÐ±": 7509,
      "ĠÐ³Ð»ÑĥÐ±Ð¾ÐºÐ¾Ð¼ÑĭÑģÐ»": 7510,
      "ĠÑģÑĥÑīÐ½Ð¾ÑģÑĤÐ¸": 7511,
      "ĠÐ±ÑĢÐ¾Ð²Ð¸": 7512,
      "ÐµÐ¿ÑĥÑĤÐ°ÑĨ": 7513,
      "ÐŁÑĢÐ¾Ð¸Ð·Ð½ÐµÑģÑı": 7514,
      "ĠÐ¾ÑģÑĤÐ°Ð½ÐµÑĤÑģÑı": 7515,
      "ĠÐºÐ¸ÑĢÐ¿Ð¸Ñĩ": 7516,
      "ĠÐ¿ÑĢÐµÐ½ÐµÐ±": 7517,
      "ĠÐĵÐ»Ð°Ð·Ð°": 7518,
      "ĠÑĨÐ²ÐµÑĤÑĭ": 7519,
      "ĠÐĽÐ¸ÑĨÐ¾": 7520,
      "ĠÑģÐ¾ÑģÑĢÐµÐ´Ð¾ÑĤÐ¾Ñĩ": 7521,
      "ĠÐ¾Ð²ÑĢÐ°Ð³": 7522,
      "ĠÐ¼Ð°ÑĪÐ¸Ð½": 7523,
      "ĠÐ¿Ð¾Ð²ÑģÐµÐ´Ð½ÐµÐ²": 7524,
      "],": 7525,
      "].": 7526,
      "ne": 7527,
      "Ð¨": 7528,
      "Ġ5": 7529,
      "Ð¾Ð¸": 7530,
      "ÑĤÐ¾Ð¹": 7531,
      "ÑĤÑģÑı": 7532,
      "Ð¸ÑĩÐµ": 7533,
      "Ð¸ÑĨÐ°": 7534,
      "Ð¸Ð½ÑĥÑĤÑĮ": 7535,
      "ÑģÑĤÐ¾Ñı": 7536,
      "Ð»Ð°Ð¼": 7537,
      "Ð»Ð¾Ðµ": 7538,
      "Ð»ÑĥÐ±": 7539,
      "Ð»ÑĥÑħ": 7540,
      "Ð½Ð°Ð»Ð°": 7541,
      "ÑĢÑİ": 7542,
      "ÑĢÐµÐ¹": 7543,
      "ÑĢÐ°Ð¿": 7544,
      "ÑĮÐµÐ²": 7545,
      "ÑĭÑĪÐ¸ÑĪÑĮ": 7546,
      "ĠÑģÐ¸Ð¼": 7547,
      "ĠÑģÐ°Ð¶": 7548,
      "ĠÑģÐ¸Ð»Ð°": 7549,
      "ĠÑģÐµÐ½ÑĤ": 7550,
      "ĠÐ¿Ð°Ðº": 7551,
      "ĠÐ¿Ð¸Ð²": 7552,
      "ĠÐ¿ÐµÑģÑĤ": 7553,
      "ĠÐ¿ÑĭÐ»Ð¸": 7554,
      "ĠÐ¿ÑĤÐµÐ½": 7555,
      "ĠÐ²ÑĤ": 7556,
      "ĠÐ²Ð±": 7557,
      "ĠÐ²Ð¸Ð»": 7558,
      "ĠÐ²ÑĢÐ°": 7559,
      "ĠÐ²Ð°ÑĢ": 7560,
      "ĠÐ²ÐµÐ¶": 7561,
      "ĠÐ²ÑĢÑĭÐ²": 7562,
      "ĠÐ²Ð¾Ð¹Ð´Ñı": 7563,
      "ĠÐ²Ð½ÑıÑĤÐ½Ð¾": 7564,
      "ÑĩÐ½ÑĭÑħ": 7565,
      "ĠÐ¾ÑĤÐ¾ÑĢ": 7566,
      "ĠÐ¾ÑĢÑĥÐ¶": 7567,
      "Ð´Ð°Ðº": 7568,
      "ÑĤÐ¾Ð½Ñĭ": 7569,
      "ĠÐ¸ÑĢÐ¾": 7570,
      "Ð¼Ð¾ÑĤÑĮ": 7571,
      "ÑģÑĤÐ¸Ðµ": 7572,
      "ÑģÑĤÐ¸Ð½Ð¾Ð¹": 7573,
      "Ð°Ð»Ð»Ð¸": 7574,
      "ĠÐºÐ¾Ð¶Ð°": 7575,
      "ĠÐ¼Ð¾Ð´": 7576,
      "ĠÐ¼Ð¸Ð¼": 7577,
      "ĠÐ¼Ð¾Ð»ÑĮ": 7578,
      "ĠÐ¼Ð°Ð»ÑĮ": 7579,
      "ÑĪÐ»Ð¾": 7580,
      "ÐµÐ½Ð´Ð°": 7581,
      "ÑħÐ¼": 7582,
      "ĠÐ´Ð°Ð»Ð¸": 7583,
      "ĠÐ´Ð½ÐµÐ¼": 7584,
      "ĠÐ±ÑĢÐµÐ´": 7585,
      "Ð¾Ð²Ð¾Ð³Ð¾": 7586,
      "Ð¾Ð²ÑĭÐ¼Ð¸": 7587,
      "Ð¾Ð²Ð¸Ð½Ñĥ": 7588,
      "Ð»Ð¸Ñİ": 7589,
      "ÐµÑĤÐ¸ÑĤ": 7590,
      "ĠÐ¿ÑĢÐ¾Ð½Ð·": 7591,
      "ĠÑĤÐµÐ»Ð°": 7592,
      "ĠÑĩÑĤ": 7593,
      "ĠÑĩÐ»ÐµÐ½": 7594,
      "ĠÑĩÑĮÐµ": 7595,
      "ÐµÐ»ÐµÐ²": 7596,
      "ĠÐ·Ð´Ð°": 7597,
      "ĠÐ·Ð²ÐµÑĢ": 7598,
      "ĠÑĥÐ¹": 7599,
      "ĠÑĥÑģÑĤÑĥÐ¿": 7600,
      "ĠÑĥÑĪÐ»Ð°": 7601,
      "ĠÑĥÐ²Ð¸Ð¶": 7602,
      "Ð±Ð¾Ð¼": 7603,
      "Ð±ÑĥÐ½": 7604,
      "Ð½Ð¾ÑĩÐ¸": 7605,
      "Ð½Ð¾ÑģÐ¸Ð¼": 7606,
      "Ð¾Ð»Ð¾Ð¼": 7607,
      "Ð¾Ð»ÐµÐ±": 7608,
      "ĠÐµÑģÑĤ": 7609,
      "ĠÐµÐ´Ñĥ": 7610,
      "Ð¿ÑĢÐ¸": 7611,
      "Ð¿Ð¾Ð²Ðµ": 7612,
      "Ð¾Ð´Ð¾Ð¼": 7613,
      "Ð¾Ð´Ð¸Ð»Ð¾": 7614,
      "ĠÐ½ÐµÐ¸Ð¼": 7615,
      "ĠÐ½ÐµÐ¾ÑħÐ¾ÑĤ": 7616,
      "ĠÐ½ÐµÑĥÐ²ÐµÑĢ": 7617,
      "Ð°Ð·Ð²": 7618,
      "Ð¶Ð°Ð»Ð°": 7619,
      "ĠÑĢÐ¾Ñģ": 7620,
      "ĠÑĢÐ¾Ð¶": 7621,
      "ĠÑĢÐµÐ¶": 7622,
      "ĠÑĢÑĭÐ½": 7623,
      "ĠÑĢÐ°Ð½Ð½": 7624,
      "ĠÑĢÑĥÐ¼Ñı": 7625,
      "ĠÑĢÑıÐ´Ð°": 7626,
      "ĠÑĢÐµÐ¿ÑĥÑĤÐ°ÑĨ": 7627,
      "ĠÐ½Ð°ÐµÐ´": 7628,
      "ĠÐ½Ð°ÑĩÐ¸": 7629,
      "ĠÐ½Ð°ÑĪÐµ": 7630,
      "ĠÐ½Ð°ÑĪÐ¸Ð¼": 7631,
      "ĠÐ¿Ð¾ÑĢÐ°Ð²": 7632,
      "ĠÐ¿Ð¾ÐµÑģÑĤÑĮ": 7633,
      "ĠÐ¿Ð¾ÑĪÐ»Ð°": 7634,
      "ĠÐ¿Ð¾Ð½ÑıÑĤ": 7635,
      "ĠÐ¿Ð¾ÑįÑĤÐ¾Ð¼Ñĥ": 7636,
      "ÐµÐ´Ð»Ð¸Ð²": 7637,
      "ÐµÐ´Ð¸Ð½Ñı": 7638,
      "Ð°Ð²Ð°Ð»Ð¸ÑģÑĮ": 7639,
      "Ð³Ð½ÑĥÐ»": 7640,
      "Ð³Ð½ÐµÑģ": 7641,
      "ĠÐ»ÐµÐ´": 7642,
      "ĠÐ»ÐµÐ·": 7643,
      "ĠÐ»ÑĥÐ¶": 7644,
      "ĠÐ»Ð¾Ð¶Ðµ": 7645,
      "Ð¸ÑĤÑĭ": 7646,
      "ÑīÐ°Ñı": 7647,
      "ÑīÐ¸Ñħ": 7648,
      "Ð¾ÑĢÑĭ": 7649,
      "Ð¾ÑĢÐ¼": 7650,
      "Ð¾ÑĢÐ¾Ð¼": 7651,
      "Ð¾ÑĢÑĥÐ¶": 7652,
      "Ð¾ÑĢÐ°Ñĩ": 7653,
      "ÑĨÐ°Ñħ": 7654,
      "ÑĨÐµÐ»Ð¾": 7655,
[...]
